#version: 0.2
Ġ t
h e
Ġ a
i n
Ġt he
e r
o n
r e
e d
Ġ s
Ġ w
Ġ o
n d
a t
o r
e n
i t
Ġ c
Ġ f
i s
e s
a r
Ġ b
a n
Ġo f
a l
Ġ in
in g
a s
Ġ p
Ġa nd
Ġt o
i c
r o
Ġ m
Ġ d
Ġ h
i on
l e
o u
Ġ re
i l
Ġ T
en t
Ġ S
s t
Ġt h
Ġ A
e l
o m
Ġ l
č Ċ
Ġ =
a m
Ġ C
Ġ 1
Ġ e
a c
a d
Ġ n
Ġw as
e c
Ġ M
Ġ on
l y
u r
e t
o l
i d
Ġ B
i m
Ġ g
Ġf or
i r
i g
i v
o t
t er
u t
Ġa s
u s
o w
ĠT he
Ġ H
it h
a y
Ġ I
' s
Ġs t
v er
he r
at ion
Ġw ith
Ġ P
Ġb e
Ġth at
c e
Ġ R
u n
Ġ "
Ġ 2
e m
c h
Ġ D
Ġw h
Ġb y
t h
Ġ (
u l
Ġa l
Ġ is
er s
Ġc on
Ġa t
Ġ W
Ġ F
c t
a nd
o s
a in
Ġ G
Ġ L
Ġa n
Ġ N
Ġ he
a g
Ġ it
a v
ro m
u m
es t
0 0
Ġ1 9
Ġh is
Ġ J
r i
Ġ E
Ġ r
o d
Ġf rom
is t
a p
Ġc om
o p
il l
Ġ v
o re
Ġp ro
i f
u p
l d
e w
er e
re s
Ġ O
ig h
i es
ar t
b er
ar d
or t
Ġd e
a k
ic h
Ġw ere
at e
al l
Ġs e
a b
an t
o c
u d
q u
on g
Ġe x
g h
e ar
Ġc h
Ġo r
es s
at ed
it y
i p
iv e
Ġp l
am e
Ġs h
Ġ K
Ġ â
Ġh ad
s e
ec t
ac k
ou r
ĠI n
as t
Ġâ Ģ
re d
Ġ U
Ġs u
Ġwh ich
m ent
g e
u nd
ĠS t
Ġ k
Ġa re
Ġ le
o v
i an
i al
el l
Ġn ot
o st
igh t
Ġs p
or d
i a
u st
ar y
Ġt r
t her
in e
p t
r it
ou n
ic al
av e
Ġ y
p p
c l
Ġ un
ĠC h
f ter
ou ld
f f
t e
ir st
Ġb ut
is h
c c
ou s
ion s
s o
T he
r a
id e
u re
Ġcom p
u b
Ġ V
Ġw he
Ġa r
Ġ2 00
Ġ ro
i e
o g
ig n
Ġcon t
Ġ her
w o
or m
Ġf irst
as s
u e
Ġit s
Ġthe ir
ĠâĢ ĵ
o k
or k
Ġ2 0
ou t
Ġin t
at er
Ġre s
on d
Ġc l
om e
ag e
Ġal so
r y
Ġa b
Ġa d
i re
m er
he d
Ġ 3
ĠH e
p l
p er
d u
Ġ us
an s
r u
l ow
im e
Ġp er
ow n
Ġh ave
al ly
Ġwh o
i le
an ce
t ed
it ion
u gh
Ġon e
Ġs c
Ġre c
Ġt wo
i z
re e
p ort
en ce
t s
ur ing
Ġbe en
ic e
Ġb ec
Ġh as
Ġa g
ou gh
Ġp art
Ġa pp
ĠT h
a re
or y
k e
el y
Ġ j
ation s
Ġth is
Ġ en
Ġ1 8
Ġo ver
Ġd is
Ġs er
cl ud
em ber
ou nd
ac h
ct ion
Ġ20 1
l and
Ġa fter
o ver
ac e
ar k
r ic
Ġd es
" .
ac t
ad e
Ġof f
ĠA l
Ġpl ay
Ġthe y
Ġo ther
i b
Ġt e
on e
ul t
Ġo ut
res s
Ġm an
c ed
en s
a il
Ġy ear
ur n
m an
Ġ up
Ġ im
in d
Ġin clud
ĠI t
Ġw ould
an g
w e
w n
e p
Ġint o
) ,
Ġp re
w ard
it e
Ġ Y
Ġh im
o in
Ġ 4
at es
re n
e nd
ab le
Ġs he
ĠU n
Ġw e
il m
as ed
. "
e ver
Ġt ime
it ed
am p
Ġe v
ol d
Ġat t
i ed
as e
n e
or s
on s
l es
ro ugh
f orm
o y
Ġcom m
Ġin ter
oun t
a w
o od
c es
Ġal l
Ġw ork
Ġm ore
er ed
ing s
v el
il d
) .
Ġn ew
ic k
Ġb et
os e
v i
ĠA r
w ay
in al
v e
Ġs ec
at t
Ġwhe n
Ġf ilm
Ġ 5
ent s
f t
ak e
is s
f er
a us
Ġf e
ro und
re at
ri b
ro p
" ,
g an
Ġcon s
v ed
Ġre m
as on
h ip
or th
Ġd uring
Ġd ec
ub l
ĠA n
ĠM ar
und er
Ġag ain
ot h
at h
we en
i x
o b
ol low
Ġthe m
Ġp r
Ġe ar
Ġon ly
Ġth an
Ġm ost
Ġg ame
f ore
ation al
s s
u g
ter n
Ġn e
Ġs up
Ġre t
Ġab out
ou th
Ġch ar
Ġc an
I n
t on
Ġbet ween
Ġs ong
ĠN ew
ic t
r on
ĠS e
Ġ under
Ġl ater
Ġpro du
h n
a id
al s
Ġth ree
Ġre le
Ġa ct
or ld
o ok
Ġth rough
Ġc ol
Ġn um
Ġ19 9
an k
Ġwh ile
Ġk n
mer ic
Ġm e
Ġs o
le ct
Ġ qu
ter s
ĠE n
00 0
oc k
Ġc ent
r al
Ġe nd
Ġre l
n ing
Ġp os
ul ar
at ing
Ġf l
Ġsu b
en er
c k
Ġas s
Ġa cc
ĠL e
Ġwhe re
am es
is ion
Ġre g
c he
Ġ 6
iv ed
Ġsec ond
Ġ ver
Ġp e
b um
Ġm ade
Ġb u
ĠA meric
s on
Ġrec ord
Ġf ollow
p h
ĠR e
ĠC om
o ol
Ġe p
is hed
Ġfor m
Ġf our
Ġs ome
Ġde f
Ġbe fore
ain ed
Ġg ro
Ġa m
Ġm ov
Ġsu ch
i o
ic s
Ġm us
i el
Ġse ason
Ġd ay
i ke
Ġthe re
od e
Ġ 7
u al
Ġsp ec
id ent
Ġyear s
Ġw rit
Ġs y
l l
Ġa c
Ġte am
Ġal bum
. .
Ġ /
il y
ow ever
Ġl ar
Ġin d
p r
t he
if ic
Ġus ed
ĠO n
Ġin c
ur y
Ġ ent
or n
Ġs ur
ĠJ o
Ġbe ing
Ġp ubl
t en
Ġep is
a j
Ġc all
vel op
Ġg r
Ġthe n
if e
Ġh igh
ot her
Ġl oc
Ġagain st
an e
a ir
Ġex p
ĠTh is
Ġin v
Ġd o
i ous
ĠS h
Ġnum ber
Ġchar ac
Ġse ver
al e
Ġsh ow
in ce
ar s
Ġad d
j ect
Ġbec ame
Ġp res
aus e
Ġc o
Ġ 8
Ġs et
e k
Ġre ce
at her
ĠS p
Ġb l
Ġper form
in es
ĠâĢ Ķ
Ġle ad
Ġs ing
ĠB rit
is e
Ġw ell
ĠUn ited
is ed
Ġb r
Ġ1 0
i er
Ġ 9
Ġn o
Ġp ol
Ġf ound
o ber
Ġser ies
it s
Ġb oth
i k
Ġinclud ing
em ent
ow er
he n
er m
i red
u res
le y
ĠA s
Ġc ap
er t
Ġb ack
Ġsh ip
iv ers
Ġm on
i et
over n
u ch
r am
p en
Ġm ain
l ed
a z
el f
ol og
d er
v en
Ġd id
an y
it ies
Ġre p
Ġ1 7
iv er
t ing
f ul
Ġc re
ĠA t
an n
Ġde velop
a red
ir d
Ġg o
te nd
Ġ19 4
ĠS he
ĠEn g
ire ct
t y
ĠS c
Ġepis ode
Ġs aid
ĠC on
in s
ut e
as h
th ough
Ġst ud
Ġm at
at ive
Ġman y
Ġm et
ill ion
h y
Ġl ong
1 9
Ġsever al
Ġcont in
Ġc ould
Ġm in
Ġe m
Ġor ig
a h
iel d
ou se
Ġ19 8
em b
an c
Ġd if
Ġc ar
vi ew
Ġin st
t il
Ġde p
u ally
ĠB r
Ġa ir
i am
Ġb ro
Ġim p
ĠJo hn
ro ss
ers on
Ġp op
u ed
m y
ĠI nd
Ġret urn
Ġbe gan
ĠA ust
Ġan y
Ġo b
ĠC l
is m
Ġ1 2
ĠW ar
Ġw ar
op le
ch ool
Ġdes c
o ot
Ġcomp le
an ge
r ap
ak ing
Ġ1 5
cc ess
er n
Ġdes ign
Ġs m
Ġs ign
Ġfe at
Ġpro v
Ġear ly
iz ed
Ġtr ans
e b
f l
id ed
Ġkn own
Ġmus ic
Ġun til
Ġ est
ĠF r
Ġar t
ĠAmeric an
im es
un e
Ġn ear
ist s
e y
st em
ĠA fter
u red
Ġd ist
Ġe ff
x t
Ġres p
ial ly
Ġb el
Ġrele ased
ut ion
Ġp ass
Ġo wn
Ġ19 6
Ġ19 7
Ġf in
ment s
Ġr un
s h
os ed
Ġc rit
Ġ Z
s p
Ġcall ed
i um
v ent
a x
ĠC ol
er man
ĠM ay
en n
Ġm illion
Ġd own
ĠW h
Ġd irect
Ġal ong
ĠB l
ul l
Ġgro up
Ġoff ic
aj or
Ġ1 6
ce pt
Ġthe se
ĠBrit ish
Ġf am
g er
Ġm ay
ain s
Ġdis c
Ġm il
r is
Ġg ener
er v
g est
Ġo pen
ĠD e
Ã ©
Ġm od
Ġhis t
Ġl and
pt ember
Ġsu ccess
ĠU S
ug ust
et s
in k
ib le
Ġg overn
ĠSt ates
Ġs im
Ġs ame
ward s
ĠSe ptember
Ġ $
ac ed
am ed
ĠA ugust
Ġdesc rib
Ġpe ople
Ġus e
Ġc ount
ain ing
ĠW orld
Ġcharac ter
Ġp oin
Ġg u
Ġbec ause
Ġatt ack
n er
Ġst r
Ġo per
av ing
Ġ1 1
Ġk m
u es
u c
Ġser v
Ġst art
el s
Ġa round
ĠA d
ru ct
Ġto ok
p ed
ĠJ u
Ġcon st
Ġth ough
ov e
Ġb att
Ġv i
Ġfollow ing
Ġo cc
Ġsup port
ĠO ct
ĠAust ral
us s
Ġsy stem
Ġapp ear
re t
ĠN ov
y p
iv es
en e
Ġ ed
ant s
Ġrece ived
il ity
Ġw in
Ġcons id
ĠI s
e x
ical ly
ĠG erman
ĠP l
Ġp rom
Ġs ix
ĠOct ober
Ġan n
Ġe le
Ġn orth
ĠH owever
Ġd r
an u
ĠB e
os s
Ġe ach
ĠC ar
ĠT r
g et
ut h
o x
in a
Ġbu ild
m ed
at ely
Ġ19 5
Ġst ate
ĠD ec
ĠY ork
Ġv ar
Ġ Q
Ġare a
ĠAl l
iv ing
Ġhe ad
Ġ '
Ġ19 3
Ġre port
Ġsm all
t le
Ġex t
ĠP ro
l ing
ore d
Ġe ver
Ġw ill
ord ing
Ġ1 3
ian s
Ġpart ic
g in
ĠF or
Ġf inal
Ġcon c
ĠN orth
Ġc ity
ĠJ une
iss ion
ect ion
Ġm ar
Ġm ajor
ĠThe y
Ġpubl ic
Ġf ive
ur ch
Ġb and
es p
b y
ĠJu ly
i ent
ra ft
Ġre st
Ġl ife
p or
ĠNov ember
Ġre f
o ard
pr il
ĠK ing
Ġsing le
ri ed
l ish
om et
Ġs ince
Ġ1 4
Ġm ed
Ġw orld
in c
Ġcont ro
ect ed
Ġwe ek
ur al
ion al
a im
Ġl ike
ĠCom m
ĠA pril
iv ely
Ġd et
on t
il t
ĠMar ch
Ġ 0
s ide
Ġl ast
Ġal low
vi ous
Ġhe l
id ge
ĠH ar
ag ue
Ġj ust
Ġar r
Ġt urn
r ist
al es
ĠW ill
en g
ro w
em pt
Ġp o
at s
Ġdif fer
if ied
b le
Ġle ft
Ġlar ge
Ġc are
Ġad v
ĠM c
ĠP r
av y
che s
Ġver s
ĠG r
in ed
ro te
Ġb ook
Ġinc re
ĠE d
p le
Ġ19 1
ĠC an
ag ed
Ġd ue
ĠS outh
anu ary
Ġev ent
Ġs chool
Ġinclud ed
b all
ĠDec ember
og rap
Ġl ine
Ġm uch
Ġs outh
Ġan other
on y
Ġapp ro
Ġplay ed
ĠJ anuary
ĠB ro
ĠG e
ne y
Ġwh at
ap an
Ġcent ury
ag es
Ġs l
al f
Ġsh ort
ent ly
Ġex pl
ĠO r
Ġ if
Ġn ame
Ġgovern ment
Ġp h
i ence
Ġde ath
Ġ [
Ġc amp
Ġp ort
Ġw rote
Ġw on
Ġth ird
o ad
ĠE u
ide o
ĠI I
od y
Ġch ild
ĠP h
Ġpl ace
Ġmon th
Ġt it
2 0
he s
it al
Ġpro g
Ġpro t
Ġcl ass
ot t
Ġk ill
Ġre view
c y
Ġen g
Ġtr ack
om an
Ġh ome
Ġp ower
Ġv is
ĠB y
Ġre qu
Ġdescrib ed
Ġpre vious
e an
ĠJ apan
Ġb re
Ġfam ily
Ġe lect
Ġc our
Ġp erson
a ff
ur ther
i od
Ġl it
iv en
il ar
Ġl ed
Ġst ory
emb ers
g ed
re en
Ġn amed
is ter
ĠM an
st er
Ġm en
om in
ivers ity
n ess
Ġatt empt
ay s
it ions
Ġm ake
Ġ3 0
p s
Ġd em
iv ision
i or
ren ch
Ġev en
ac hed
Ġr ight
Ġo pp
Ġre pl
iv al
Ġg ames
' t
Ġle g
m p
ĠM us
et er
eb ru
s elf
Ġbel ie
Ġd am
ĠG u
ebru ary
Ġcomm and
Ġth ose
Ġ Â
Ġpos s
an ces
ri end
Ġne xt
ro du
Ġspec ies
l ine
at ure
Ġg un
ak en
Ġst ill
oc i
ĠF ebruary
c hed
en ces
Ġis s
Ġp ar
a u
e ad
Ġorig inal
.. .
Ġor gan
ĠEu rop
Ġeff ect
Ġadd ition
Ġb est
Ġj oin
al k
ĠN ational
Ġto p
ĠF l
Ġcap t
b r
Ġwith in
re w
Ġm embers
Ġper iod
Ġde b
Ġw ater
a ugh
Ġl ist
t o
Ġex per
Ġvi ew
a f
ut ed
Ġl ate
tend ed
s c
n a
Ġs old
Ġver y
Ġm ark
ĠH is
ec h
Ġhe ld
Ġd est
y l
Ġc aus
rop ical
id es
Ġst orm
ĠA nd
Ġmat ch
Ġro le
Ġn ow
ĠF rench
Ġv ideo
ĠCh rist
le v
Ġin fl
Ġcon f
Ġrele ase
Ġin it
Ġal though
Ġday s
Ġfor mer
Ġres ult
Ġc ame
Ġc ur
Ġbu ilt
o on
ul ation
Ġt erm
Ġh and
pt ion
om b
ĠP ar
Ġc over
ĠB ar
Ġt ri
le t
h am
Ġh owever
Ġm id
as ter
it ary
m in
Ġsp e
ap p
O n
Ġpres ent
Ġ2 5
at ic
Ġpol it
Ġg reat
Ġ201 0
en se
Ġf ew
ak es
Ġw ind
Ġre al
Ġc r
ar m
Ġto wn
Ġest ab
Ġcontin ued
ĠW est
el t
Ġpro p
Ġm y
g y
at or
c ent
re ad
ĠWill iam
t al
ru ction
Ġloc al
p ar
ĠM in
Ġst and
Ġo ld
Ġp ost
Ġt w
es tern
Ġof ten
om en
Ġb ased
Ġsim ilar
Ġ X
Ġam ong
Ġcl aim
un g
Ġy ou
Ġ &
re et
Ġa v
m e
op s
u ck
es e
Ġs k
olog y
v es
Ġsu g
ĠEng land
c on
Ġdiffer ent
r act
ĠA ir
Ġf urther
ur s
Ġs ent
Ġw ay
ĠGe or
Ġ19 2
is on
Ġh um
ĠW hen
Ġbe h
ĠD uring
ard s
Ġconsid ered
Ġ200 8
Ġ200 9
Ġcare er
ĠA m
Ġt ake
Ġd el
ic es
g r
l er
amp ions
Ġf re
Ġs ide
y ing
Ġ201 1
ot s
uth or
Ġe qu
Ġh aving
ĠE ar
ĠH er
Ġmov ed
ĠP ark
res ent
es c
ĠCh ar
ĠC ity
Ġro ad
ver s
ĠM ich
er ing
ron t
Ġbec ome
l ess
Ġpos ition
Ġapp e
f ord
ond on
Ġhist ory
Ġvers ion
on es
c om
Ġm ag
Ġpl an
ĠR ec
iz e
al d
Ġc or
Ġwith out
y le
Ġc ast
ĠC ent
at ter
a ul
ĠEng lish
Ġever y
ĠC ount
a i
n ed
Ġsug gest
ĠC o
Ġinv ol
Ġcl ub
e f
ay ing
Ġ el
Ġf ore
re st
er y
ĠL ondon
Ġprodu ction
Ġt yp
Ġ200 7
Ġinfl u
ut es
Ġar m
Ġann oun
ĠB att
ap e
ĠE l
i qu
Ġcomm un
se qu
Ġh ouse
ĠD av
ĠAn g
c raft
iet y
Ġst at
im ent
Ġs ound
Ġplay er
Ġb as
ing ton
Ġl aw
Ġh alf
Ġ2 1
ĠR iver
il le
Ġ201 2
d ay
Ġstr ong
Ġg iven
ren t
Ġre fer
Ġl ess
ant ed
Ġan t
ol l
Ġg ave
Ġe ast
ĠUn iversity
c ess
ail ed
or ies
al y
Ġdef e
Ġt ro
at ch
Ġreturn ed
Ġor der
ĠN o
Ġa ff
Ġr ad
is c
ro y
Ġim port
a e
Ġ1 00
ĠThe re
y n
Ġtr ad
ĠCan ad
Ġwrit ten
Ġv ict
Ġl ow
ĠW e
ĠC al
g es
a un
ent ion
Ġch ang
Ġf act
our s
Ġw est
Ġcomp any
Ġto tal
Ġ2 4
o ff
Ġw ent
Ġs oc
Ġcom b
Ġn ever
ab ly
lev ision
Ġt em
Ġreport ed
us ed
a ign
Ġh ig
Ġst ated
Ġk e
Ġpubl ished
Ġf ire
er r
Ġ19 0
Ġprog ram
Ġcount ry
Ġf ind
ec hn
Ġcontro l
Ġy oun
ĠH igh
Ġinclud e
ur ric
Ġorig in
cc ording
Ġl ost
Ġf riend
Ġle vel
ie f
Ġcomm on
Ġg ood
r ing
are n
Ġcomp et
Ġfor ces
Ġp at
5 0
Ġpoin t
um ent
ra w
Ġpro ject
Ġpartic ular
Ġpro f
t ain
Ġship s
us h
Ġl ight
ir c
m ost
in ess
Ġne ed
Ġbuild ing
pl oy
w ork
m it
Ġus ing
os p
Ġperform ance
ener al
Ġprodu ced
Ġor d
ĠO ne
1 0
Ġpop ular
le ar
oy al
Ġ ide
Ġrecord ed
Ġt imes
Ġhim self
Ġsh ould
Ġserv ice
Ġinter est
ampions hip
is ing
Ġp ress
Ġmil itary
Ġa uthor
ou ther
Ġf ather
Ġsong s
Ġbatt le
ord s
ric k
Ġs it
ens ive
Ġan im
Ġcrit ic
ĠE x
Ġb us
Ġn ort
al th
Ġ200 6
Ġdevelop ment
qu ad
it ive
as es
Ġl im
ĠAustral ia
ol ution
ed er
pl ay
ĠA b
Ġt en
Ġe ight
ĠS w
outher n
Ġf r
it her
ĠA ss
c er
Ġre ad
Ġh ow
Ġin f
Ġc he
ubl ic
et h
ac y
Ġ2 2
Ġf un
Ġf t
as tern
ĠA f
Ġrem ained
ĠS ec
Ġc ross
ĠThe se
ri es
Ġm aking
ĠP ol
ĠC or
Ġs w
Ġf oot
Ġcharac ters
d om
ĠS m
Ġrep resent
a ur
Ġmonth s
ĠAr my
2 00
Ġ201 3
Ġg round
o f
re am
re g
ĠT e
Ġg l
f ic
Ġ2 3
ĠSt ate
k s
urric ane
Ġcamp aign
ist ed
ĠJ ack
Ġtit le
ĠS y
Ġn ational
r ation
land s
Ġst e
en cy
Ġsu ff
Ġg et
Ġchild ren
Ġs um
Ġch art
b s
a el
ĠN e
Ġd ied
Ġg en
Ġto ur
Ġs omet
Ġin s
Ġac ross
ress ion
her n
Ġint rodu
o le
Ġsign ific
Ġrel ations
Ġprom ot
Ġdevelop ed
Ġa way
le ge
Ġp ra
ĠP res
ĠLe ague
al t
ĠD r
Ġs on
ĠCom p
ĠD ivision
ĠAl though
Ġair craft
Ġnot ed
ĠJ ames
Ġoffic ial
Ġhist or
Ġannoun ced
Ġf elt
Ġre ached
Ġf av
ĠG l
Ġ18 9
Ġare as
Ġinter n
Ġf ield
ress ed
f ield
Ġdest roy
ĠCount y
Ġfor ce
ĠM e
Ġte levision
Ġf ac
im ately
Ġst ation
c ast
Ġsuccess ful
Ġc oun
ĠâĢ Ļ
Ġcre ated
Ġvar ious
ĠAmeric a
Ġn ight
Ġre d
Ġfollow ed
i ber
ĠR oad
it ing
Ġse en
ĠSt reet
iz ation
op e
al ity
Ġperform ed
Ġser ved
Ġplay ers
ell ing
ĠRe g
ĠW ith
Ġv al
ab or
ĠG eneral
w h
Ġtr av
l in
Ġpolit ical
ĠR ep
Ġbe gin
an a
Ġcon d
Ġear l
Ġa ver
Ġf le
id ence
he ad
du ct
b or
ĠM or
Ġst ar
S t
Ġcon v
Ġb o
he re
Ġb ar
1 8
Ġpr im
ĠR uss
ric t
l ished
Ġpro cess
Ġkill ed
Ġa ud
Ġp ut
Ġthrough out
Ġc ost
Ġf ull
Ġre v
et t
Ġro ck
Ġd iv
ep end
Ġt aken
Ġab le
ĠWh ile
ĠJapan ese
Ġt est
ec ut
ert ain
Ġ2 7
Ġhel p
Ġc ult
Ġag re
ĠS up
ĠM on
ur g
r ay
g round
ĠE ast
um b
lect ed
way s
Ġbec om
Ġt ropical
Ġdisc over
Ġme et
Ġto o
ir l
Ġn on
Ġ2 8
o ice
ĠS im
Ġle t
Ġs ol
he l
Ġw id
Ġsignific ant
ĠA ccording
ĠM ad
en ced
Ġbl ack
ĠSt e
Ġc y
av al
in ation
c il
Ġc op
Ġf ight
Ġappe ared
Ġ201 4
ĠPh il
f or
Ġst ruct
i us
Ġent ire
Ġmil es
Ġm m
Ġthough t
ĠH en
Ġt echn
Ġ ident
h ing
ĠGeor ge
Ġpoin ts
od es
ough t
Ġlit tle
Ġco ast
Ġbro ad
as k
u k
Ġf ront
ur b
Ġa ward
id d
Ġa ge
ri pt
Ġob s
Ġro ute
ĠR ober
Ġv ol
Ġspec ial
Ġcol l
m s
Ġwrit ing
Ġ200 5
Ġdec l
Ġf em
iv il
Ġr ank
i ers
m en
Ġb ody
n ow
t r
ĠS er
Ġimp ro
Ġact iv
ĠB ill
ĠAustral ian
Ġw omen
Ġdec ided
om p
Ġcaus ed
Ġfeat ures
av es
at ors
Ġstart ed
Ġ2 6
Ġl ook
ir on
i ec
Ġse ven
b oard
hy s
Ġ5 0
Ġdo es
Ġevent ually
Ġ4 0
og n
ĠA ct
h ic
Ġestab lished
it ar
in t
ĠAf ric
Ġfe et
iv id
Ġ er
con om
le ction
Ġv ot
Ġm ember
amp le
am ent
ĠS ch
Ġto get
Ġtoget her
ree k
Ġadd ed
Ġh it
Ġar ch
T h
ign ed
Ġp ain
ad es
Ġgener al
ar a
rough t
Ġn ov
ĠM ed
ac es
em y
Ġon ce
Ġloc ated
ĠH ouse
Ġinst ead
Ġar g
ĠR oyal
Ġcon n
ort s
Ġman ag
Ġh old
ect s
Ġform ed
Ġt re
am b
Ġen c
ĠR ich
Ġcre w
Ġr ace
c ing
Ġs aw
ĠP art
ar ch
one y
Ġgro w
Ġimport ant
Ġc irc
Ġcomple ted
Ġp ri
ell s
e e
ĠP er
Ġst ri
at a
Ġr ange
Ġm ix
Ġ esc
Ġre du
Ġse e
Ġb all
wo od
Ġpop ulation
Ġinv est
Ġc ut
Ġm ater
st it
, "
Ġas k
Ġsur v
Ġother s
as ing
ce ed
ĠIn tern
ĠDav id
Ġocc ur
ĠH ist
ap s
em ents
w est
ĠQ u
Ġv oc
ĠE m
Ġcom ment
Ġmod ern
med i
Ġst yle
g o
3 0
nd er
g g
Ġm ot
fic ult
Ġbeh ind
ber t
Ġgun s
ĠP e
Ġwork s
ĠInd ian
Ġf all
Ġopen ed
Ã ¡
Ġb ase
an ch
un k
Ġwork ed
Ġre n
Ġsub sequ
Ġl ik
Ġl ive
Ġr ather
Ġpro ble
Ġl oss
Ġs ite
ĠS an
ist ic
Ġweek s
Ġrelations hip
oin t
Ġconst ruction
Ġdif ficult
s k
Ġp red
6 0
Ġcl ose
Ġ18 8
Ġa ction
ĠS chool
ĠFr ance
os ition
Ġkn ow
Ġm iss
Ġb omb
Ġdam age
Ġst age
he st
A fter
ic a
y ear
en ed
Ġbro ther
ill s
Ġl ack
Ġf if
om m
Ġpr act
Ġse par
Ġv ill
Ġpe ak
ĠBl ack
Ġass oci
Ġin j
Ġup on
Ġyoun g
Ġr a
Ġin sp
Ġh ost
ĠEurop e
Ġorigin ally
ĠW ash
Ġprov ided
Ġre ve
Ġin form
Ġsc ored
Ġhe avy
ell ow
Ġm i
Ġlead ing
ang u
m ing
olog ical
Ġm er
Ġcl os
Ġ201 5
Ġac cept
Ġc ase
o id
Ġre b
Ġsc ene
ul a
Ġwh ite
u le
ĠN or
Ġfeat ured
am a
Ġind ivid
Ġb rought
u ff
Ġres ul
Ġfour th
Ġallow ed
ĠBatt le
Ġro und
Ġm or
Ġle ast
Ġto wards
Ġ2 9
ĠP ort
Ġpart y
Ġgo al
Ġreg ion
Ġeng ine
az ine
b e
ant ic
Ġm other
in o
o or
Ġplay ing
Ġtro ops
Ġal most
Ġm ult
Ġbus iness
Ġw anted
esp ite
Ġcrit ics
Ġl aun
ĠHen ry
Ġ200 4
Ġav ail
ear ch
re y
ĠMus ic
ĠMich ael
Ġex ample
ĠC our
Ġwork ing
Ġind ust
st r
Ġqu ick
ĠV ir
Ġrun s
c o
Ġe ither
Ġmater ial
ud e
Ġk ing
a ut
Ġhum an
Ġresp ect
Ġaver age
ent ial
Ġtrad ition
it ch
le x
Ġar my
v al
Ġre ach
Ġrec ogn
ĠWash ington
ĠR ou
Ġpl aced
Ġest im
Ġv e
Ġh on
eng th
le g
Ġe conom
ĠT o
quad ron
ĠPres ident
en es
Ġc reat
our n
ollow ing
ĠO ther
Ġjoin ed
Ġf ar
Ġoff ice
v ing
ke y
ĠQ ue
l ike
Ġprof ess
Ġr ail
Ġf oc
Ġw ife
Ġne g
z e
Ġs our
Ġc e
Ġpro per
Ġev ents
ĠG ro
ch ie
ĠR ed
Ġbelie ved
ĠC up
v ille
Ġpartic ip
ĠM il
f all
in n
art ment
Ġrepl aced
ict ion
Ġcur rent
Ġm ph
Ġvict ory
ar n
Ġm ass
Ġgener ally
ĠC ap
Ġf ig
Ġso on
ĠH all
u el
ĠM y
ris on
ĠA g
er ous
ific ation
it or
ĠH ol
ĠB el
ĠRober t
Ġt er
al ed
Ġ18 7
ĠP aul
1 2
Ġis land
mer c
Ġinvol ved
Ġde v
B C
Ġn omin
Ġh ours
ĠG ame
ag o
ĠAng el
as ion
and er
Ġem ploy
om as
ĠCh ampionship
ĠH am
Ġfin ished
ap er
Ġr ul
Ġ200 0
em or
Ġf ree
Ġd ou
f ace
Ġ Ã
ĠC ro
Ġs aying
Ġst ru
ic o
Ġdesign ed
om s
1 5
ic ated
re m
Ġf und
c her
ou l
ĠM ary
Ġsc ore
Ġreg ular
ecut ive
ĠY ou
ish ing
Ġhigh way
Ġposs ible
Ġcont rib
Ġmin utes
ight s
Ġcour t
Ġcon duct
ĠB o
Ġa ut
Ġopen ing
Ġs outhern
Ġearl ier
ant ry
ann ed
ĠEurop ean
Ġ z
it te
Ġavail able
Ġl y
Ġrem ov
p ly
Ġinit ially
Ġse x
ĠG reat
Ġdes p
h ib
Ġdirect or
Ġsh ot
ĠF irst
d e
Ġth reat
Ġh om
Ġd ro
Ġper cent
ri an
as y
and ing
Ġpres ident
Ġbre ak
ĠL ou
id ing
ograp hy
ip p
Ġtr aining
all ed
Ġ ill
Ġfor ced
b ack
ĠÂ °
or se
if f
an ish
ate g
ĠN avy
Ġp ark
Ġse qu
Ġgr ad
4 0
ut ure
i os
A s
Ġcont r
op h
ĠRou te
ĠKing dom
Ġresp ons
if orn
ĠPl ay
Ġm ust
em s
ĠR oman
m on
Ġh y
ĠRep ublic
at ural
end ed
Ġpra ised
ĠV al
Ġ18 6
ap t
d en
Ġstud io
Ġpass ed
he ast
Ġincre ased
Ġ200 3
ĠM et
Ġch ange
Ġh urricane
Ġend ed
Ġparticular ly
Ġob ject
ĠM al
ĠM ac
Ġnort hern
Ġturn ed
ĠM art
ĠD ep
oin ted
ĠB er
ank s
ak er
Ġpr iv
ers hip
oc r
ĠIntern ational
Ġ3 1
Ġsoc ial
ĠSc ott
Ġappear ance
Ġreg ard
Ġlar gest
id s
Ġp hys
Ġun its
Ġnov el
ĠAt l
ĠK e
ĠB est
ĠCh urch
ĠW il
Ġh ard
pp ed
fer ence
augh ter
Ġch urch
u ter
Ġp ast
ĠM ag
ĠL a
ĠVir gin
or ing
on na
st on
s el
Ġim medi
Ġex ist
Ġdis p
and ed
ĠChar les
ag on
iqu e
ĠS ome
ĠCal iforn
ĠCanad a
Ġhig hest
ĠB ay
il ities
Ġrel ig
Ġme as
et work
Ġke ep
ar r
Ġord ered
r up
Ġsy m
Ġed uc
ĠS en
Ġt reat
Ġmov e
um p
ĠO ff
Ġa chie
ĠS ing
ar ily
Ġcent ral
ec ess
it z
ear s
ar ter
Ġqu est
ec k
ĠMc C
ĠBro wn
t ime
Ġwind s
Ġp ers
m a
ĠTh omas
n el
Ġt aking
um e
Ġp iec
ĠP al
ell ed
ĠCaliforn ia
ĠIs land
ĠR es
Ġen ough
Ġl ength
Ġl ove
ĠUn ion
Ġsp ent
Ġst op
Ġw all
id a
Ġh ous
Ġcy cl
ĠCour t
Ġbet ter
Ġfilm s
Ġsign ed
Ġcom merc
Ġind epend
and s
qu are
ed y
Ġout side
Ġin n
u ation
Ġto ld
Ġab ove
ĠA ward
ber g
Ġ200 1
us ion
Ġacc ording
at in
Ġpos itive
os ing
ĠWh ite
Ġfoot ball
itte e
Ġsup er
I I
ren g
1 1
Ġp ot
Ġs low
Ġrequ ired
ĠAss oci
Ġrecord ing
ĠG overn
Ġsub ject
Ġf ailed
Ġele ments
ĠB ut
ĠS l
al ion
ly ing
m ar
Ġass ist
ain t
A l
Ġreview s
ĠComp any
Ġst ates
ĠC ong
Ġinter view
read y
Ġprevious ly
Ġfe el
is l
Ġcom e
at ers
Ġpart s
ĠR ock
Ġits elf
Ġgo ing
ib ility
ĠRich ard
er ved
ĠM o
am er
Ġa p
ĠA lex
ĠSm ith
Ġc ru
t t
ĠC he
Ġph ot
ok e
Ġl ower
n es
ab ility
Ġdeb ut
ĠS am
ĠGerman y
Ġc lear
Ġr ain
Ġspe ed
v an
ĠInd ia
min ist
Ġcont ract
is es
Ġth ink
ĠV ict
Ġme an
Ġbegin ning
ĠCol lege
air s
Ġgroup s
Ġdesp ite
ĠT wo
as ons
s hip
ĠS k
ĠI r
Ġ200 2
ov iet
Ġbe g
Ġclaim ed
Ġask ed
Ġs il
Ġl angu
on se
ess ion
Ġb orn
ĠSt ud
e al
ri ef
ĠC r
Ġb i
Ġpre vent
Ġintern ational
Ġtrans fer
ac ted
Ġdirect ed
Ġc red
Ġaddition al
ig an
ĠG od
Ġf low
n ot
Ġc ou
Ġl ines
ĠA wards
1 7
g en
Ġr ap
Ġpro b
Ġg ive
ĠM er
Ġp ur
Ġn ine
Ġf uture
ĠH ill
ĠM ex
Ġwh ose
Ġide a
Ġev idence
Ġs ection
Ġvi ol
ĠC ast
at ory
Ġquick ly
Ġwh om
Ġ esp
it es
ĠU K
y r
h a
en a
ĠA c
e um
Ġfor t
ĠAr t
Ġintrodu ced
us p
ĠÂ £
ĠD espite
Ġbr idge
ĠT imes
Ġtrav el
Ġal ready
ĠChrist ian
ir th
ec ially
Ġd on
Ġe y
Ġpre m
Ġle ague
y s
ĠFor ce
Ġarr ived
Ġo p
ĠM ark
un t
ĠJ os
l iam
Ġst reng
Ġse a
Ġpo or
Ġcent er
ĠS oviet
ĠP eter
Ġab s
ĠSt ar
W h
ĠW estern
Ġde al
ĠD em
Ġg old
Ġapp l
ĠH ot
ĠS oc
ĠC oun
ĠD an
C h
8 0
Ġp en
ĠG old
ul ly
Ġrad io
Ġc ivil
Ġfre qu
Ġstud y
I t
Ġmus ical
s u
ĠBrit ain
Ġmag azine
liam ent
Ġp il
Ġk ey
Ġdec ision
ĠF ilm
Ġresp onse
N A
1 3
Ġm oney
ĠP at
1 6
A n
as c
Ġun c
s y
Ġ199 0
Ġf ood
Ġprodu ct
i en
ĠGr and
A A
Ġfl ood
ar ies
Ġcar ried
ĠD u
Ġen v
Ġcommun ity
ac ing
Ġrem ain
Ġrem aining
Ġdefe ated
re l
Ġestim ated
ĠFr ank
Ġbl ock
Ġshow s
Ġl ab
h an
Ġcomp l
ĠN Y
Ġus ually
Ġocc up
w in
ĠT om
n own
Ġfem ale
m ir
er gy
Ġm ight
Ġbecom ing
ul f
Ġlar ger
Ġconst ruct
Ġw estern
Ġsur face
Ġmin or
por ary
Ġgu itar
Ġsuggest ed
Ġpol ice
er ve
Ġiss ue
Ġteam s
x imately
Ġl atter
ch ange
ar ing
Ġacc ess
Ġw ood
Ġmed ia
Ġly ric
in ct
Ġsur round
Ġinvest ig
Ġstud ents
ĠVict or
Ġb rief
Ġconc ern
Ġex cept
ar i
ĠP ac
eder al
Ġdet erm
inc ip
Ġcomple te
end ing
Ġpr ison
Ġconsid er
Ġdisc uss
Ġ -
Ġlit er
Ġcommerc ial
Ġesp ecially
Ġepis odes
im ate
ly mp
ĠD on
ul ated
Ġsh oot
ĠVirgin ia
ĠCh ic
Ġd oc
Ġac qu
qu e
Ġchang es
Ġpri or
ĠM ount
ĠL os
ĠB en
Ġb ur
o e
est s
ent h
Ġfle et
Ġeffect s
is er
Ġb ow
ĠFr anc
Ġsum mer
Ġdestroy ed
2 5
o o
Ġe astern
Ġle aving
Ġc ertain
Ġperson al
Ġst aff
g a
mit ted
Ġmark et
Ġr iver
A t
ourn al
Ġ197 0
i res
ig ade
id ents
ens ion
Ġent ered
ĠFl or
Ġt ar
ĠB ur
Ġapp ointed
Ġlim ited
t ies
ĠO lymp
Ġpol ic
Ġprov ide
ĠCl ub
Ġcomple t
Ġright s
Ġter rit
ĠR ob
Ġd raw
Ġinflu ence
Ġprop osed
ĠT ex
ore s
c an
Ġp ay
Ġcomm ission
ic ation
ines e
Ġf ail
Ġstruct ure
Ġover all
Ã Ń
il es
Ġtrans port
Ġs at
Ġd en
Ġl o
Ġsc reen
ĠSec ond
Ġ198 0
Ġd er
r d
d own
Ġt rib
Ġb oard
Ġagre ed
ĠAssoci ation
Ġe mer
Ġsomet imes
ĠJack son
s en
ĠD ay
Ġin tended
if t
at ives
Ġex c
Ġsc ript
Ġt ax
19 9
Ġarr ang
im um
Ġele ction
in ent
Ġd ivision
ad ed
1 4
Ġres earch
Ġp urch
r ated
Ġs ize
p e
Ġsc enes
ĠF le
Ġbroad cast
Ġmar ried
Ġhel ped
Ġwrit er
Ġd aughter
ĠTh at
ĠLou is
Ġpress ure
Ġaward ed
Ġd ate
ĠF rom
at ively
te en
ĠPart y
ro l
Ġc al
il i
ĠL ater
Ġmult ip
Ġs elf
ĠCoun cil
act ion
Ġj ud
ĠChic ago
ound s
Ġsupport ed
Ġmov ement
Ġnear ly
om er
Ã ¶
Ġd i
Ġant i
u z
Ġ( "
Ġdis s
cl ass
Ġlong er
ic ted
ord er
Ġs usp
v in
ĠSp anish
ol k
ĠI m
Ġcre ate
Ġb ird
Ġfav or
ron ic
Ġcapt ured
Ġhig her
Ġcon clud
ab it
b ers
Ġf ans
ent y
ol ic
Ġpl anned
o es
Ġexper ience
Ġthem sel
Ġthemsel ves
d le
Ġg irl
Ġro om
k nown
Ġcomp ared
Ġchang ed
is ions
Ġde ep
Ġc at
n y
Ġincre asing
i j
ĠG reen
Ġ199 9
Ġwith d
Ġcour se
ĠEd ward
w ell
Ġfeat ure
Ġd one
Ġst ars
um n
ĠK ore
ĠM ill
h old
th ing
ĠBill board
Ġestab lish
ĠHist ory
st ant
Ġoper ations
Ġequ ip
ĠEar ly
ĠE mp
Ã ¼
im in
7 0
am s
Ġth us
ĠEn ter
s is
ra z
Ġsp ace
Ġrem ains
and on
ĠS ong
w rit
ĠS erv
Ġtrack s
e ff
ĠCh inese
b our
Ġ6 0
Ġcop ies
Ġp aren
Ġint ens
Ġrun ning
Ġsold iers
Ġwe ap
Ġbuild ings
Ġ196 0
t ained
Ġlyric s
Ġdep art
ri age
Ġbr ing
Ġw oman
Ġl iving
Ġcon cept
ow s
Ġd ark
osp ital
ĠD o
Ġcount ries
ib r
Ġmost ly
Ġwhe ther
Ġbatt les
h ood
ĠIn f
Ġex tended
ĠIt al
Ġsuff ered
Ġappro ximately
Ġtem per
Ġgo als
ĠS al
Ġlead er
Ġc m
Ġcomple x
Ġv oice
b ury
Ġch all
Ġinclud es
Ġ ult
ĠPac ific
Ġat tend
ir ing
ĠM ont
i ant
D uring
it ted
Ġb ig
ri al
Ġo ur
Ġfif th
l or
Ġimmedi ately
Ġoffic ers
Ġhe av
le br
Ġiss ued
Ġfor ward
Ġde ad
ĠE v
Ġn atural
ĠL ake
Ġprodu cer
re ak
b ed
ĠSc ot
Ġw ide
ĠCong ress
ĠO ver
ven ue
ĠFlor ida
Ġincre ase
Ġlik ely
ĠO per
ĠJohn son
Ġremov ed
Ġf ace
Ġsy n
ri a
Ġpriv ate
Ġpl ans
ect ions
oy s
Ġsubsequ ently
Ġinit ial
Ġk il
Ġdist rib
Ġle ave
5 00
Ġcap ital
Ġserv ices
g ing
st e
i ation
Ġn etwork
Ġc oin
Ġqu arter
Ġvis it
Ġm ach
ct or
Ġcomp an
y ard
ograp h
Ġproble ms
Ġh op
Ġmix ed
Ġbre ed
ous ly
Ġfoc us
et ic
ail y
Ġoff ered
op er
Ġterm s
ĠS un
ve y
Ġd ram
Ġloc ation
ĠCon t
ĠT own
Ġcon fl
oun ted
Ġappro ach
Ġstat us
Ġm ount
Ġt ons
iron ment
ĠF ollowing
tr ack
Ġ199 8
Ġmanag er
Ġv ia
Ġvill age
ĠJ ust
Ġhe alth
ad ium
ur t
ĠU p
ver y
b urg
Ã ³
w er
Ġad minist
Ġf ell
ĠTex as
ĠB ack
ĠF ort
Ġm ur
Ġmod el
ĠF inal
ac hes
ur ies
Ġmajor ity
Ġprob ably
ĠA pp
Ġr an
Ġfl ag
ĠR o
che ster
ĠCh ina
ĠR ail
Ġinst r
Ġs ch
h od
ĠIn ter
Ġmeet ing
u f
l o
ĠQue en
ĠAtl antic
ce an
Ġappear s
Ġal ways
if y
ĠAfric a
Ġde g
ĠC amp
Ġj ob
Ġinter s
ĠSe a
it ect
Ġdam aged
Ġconf ir
. ,
ĠCent er
Ġcoun ter
Ġreve aled
re ater
ro wn
ĠD ist
ĠS quadron
Ġad op
ĠJ ew
um ed
Ġcar ry
Ġindivid ual
ĠT or
ect ive
Ġc ause
Ġwin ning
ag ing
Ġ3 5
Ġg ot
ĠP ri
ep h
ĠM ost
ĠEar th
Ġrespect ively
Ġcomp osed
ĠL aw
ĠAngel es
Ġn orm
Ġfin anc
Ġdiscover ed
Ġcons ist
l it
Ġcol on
ĠTr ans
w are
Ġnum erous
us e
ail s
Ġt or
Ġre ally
a ult
ri ption
Ġ18 5
ĠI ts
Ġpl ot
est ival
i est
Ġoccur red
V D
u als
ro ad
um ents
ri e
b it
ĠL ord
Ġra ised
ĠCanad ian
Ġcond itions
Ġattempt ed
Ġattack s
Ġprofess ional
ĠP et
Ġn ature
ĠHigh way
Ġassoci ated
ĠW ood
ĠK ent
is k
Ġc and
Ġt akes
sh ire
ĠCar ol
Ġsh own
Ġcont ains
Ġm akes
Ġve hic
ver t
o ly
Ġan c
ĠJ im
Ġsomet hing
Ġs ales
Ġl ay
augh t
ar ian
Ġacc omp
Ġb ene
Ġlaun ched
ur ity
Ġal tern
g ely
Ġneed ed
ĠCent ral
iz ing
Ġco ach
Ġtyp e
Ġiss ues
u ing
Ġy et
Ġattack ed
re me
Ġinform ation
Ġup per
k en
Ġc er
Ġb irth
Ġwho le
he m
ĠL it
Ġresul ted
an i
Ġf arm
Ġdefe at
Ġim m
g l
ĠT our
ill ed
Ġy ards
Ġsmall er
ĠB ow
ĠM ur
Ġfl ight
ap h
ĠO l
Ġm om
Ġlangu age
u ated
Ġnum bers
Ġs al
Ġv ir
Ġinc or
ort un
Ġcol lect
Ġfin ally
it ation
en ant
ound ed
Ġse lected
ĠEmp ire
id er
Ġsing er
Ġ199 7
ay ed
Ġrefer red
Ġindust ry
ĠMart in
Ġrank ed
ĠGro up
on ic
Ġs en
Ġd ig
ou d
Ġcrit ical
Ġsc ient
Ġcomment ed
it ude
Ġass igned
w ide
ã ĥ
Ġm ission
Ġqu al
Ġleg isl
Ġear ned
ĠY ear
ain e
Ġb ox
ar ters
Ġsl ight
ĠM el
ll ed
ĠCor ps
Ġaud ience
Ġen s
Ġce lebr
Ġexp ected
Ġlar gely
Ġpr incip
Ġact ive
ire ction
ĠII I
l ight
ĠS ir
er ry
ĠD es
Ġw ant
w ar
Ġun able
Ġart ic
oun ts
Ġpl ant
Ġref used
igh ter
og ue
h ouse
ĠO ld
Ġind ic
Ġsc hed
Ġnew sp
Ġfriend s
Ġan aly
Ġex am
Ġatt ention
Ġ201 6
ĠAn t
Ġrequ est
Ġem b
ĠRuss ian
Ġs af
Ġd omin
Ġrec over
Ġmet hod
hip s
ĠRe v
Ġro y
u x
Ġmov ing
Ġs em
ĠB oth
Ġart ist
on a
Ġcl osed
ĠD VD
Ġtr ade
Ġstand ard
Ġl ink
Ġ4 5
Ġoffic er
j oy
Ġlist ed
Ġprim ary
is her
Ġsec ret
he t
Ġdep ression
Ġeduc ation
Ġperform ances
an ced
pl es
ĠT ur
br idge
Ġme ant
en ing
und red
Ġab ility
Ġbel ow
ĠItal ian
Ġunder st
ĠC am
ĠR ad
ĠP enn
Ġdecl ared
Ġth r
ĠV iet
il ed
Ġre ason
ĠK n
ĠW ales
Ġb ad
ĠR h
Ġcont em
Ġm ale
et te
Ġlet ter
ĠD el
Ġh ot
7 5
Ġp it
ap ed
Ġoper ation
Ġmat ches
Ġrecord s
Ġset t
ut ch
ĠSt r
Ġbook s
Ġcommand er
im b
g u
ĠH ow
ad y
Ġ18 4
Ġtradition al
ant asy
in ch
Ġn ames
Ġm ax
Ġ195 0
ĠM any
Ġpl at
p ass
od ies
Ġg iving
ĠM iss
Ġt alk
ever al
i ences
Ġconst it
Ġelect ed
Ġcompet ition
ect or
Ġw alk
ĠZ eal
Ġquest ion
Ġrel ated
Ġinsp ired
ĠB ig
at re
Ġk ind
mir al
Ġprodu ce
Ġmid dle
ĠT V
Ġcent re
Ġcover ed
ĠMin ister
Ġacc ount
ĠAc ad
Ġs ister
Ġfight ing
Ġdem on
ĠSt ep
ĠW in
Ġvoc als
ĠDem ocr
erv ation
ic ient
ĠM ass
a res
ech an
Ġpre c
Ġ und
Ġrap id
Ġw ord
Ġm ention
ĠL ove
ĠSup er
Ġab andon
ĠN ort
et her
Ġun it
Ġn ecess
art s
os es
Ġrelig ious
Ġ194 0
ĠT est
ad o
Ġdou ble
Ġp ow
ĠMich igan
W hen
ri er
Ġthem e
ar row
Ġpur p
Ġ199 5
an es
ish op
Ġdis app
Ġnear by
ĠB et
c le
ĠZeal and
ĠM r
c el
p ing
b and
r ight
vent ion
ĠE r
Ġ199 6
Ġtr aff
Ġconstruct ed
Ġdoc ument
M S
9 0
Ġcontin ue
ĠC ath
Ġr ate
Ġbl ood
Ġpos itions
Ġto uch
ib ly
ans ion
Ġsepar ate
ie ut
Ġser ious
ĠC le
ĠM idd
Ġgr and
Ġeff ort
Ġpresent ed
Ġc as
Ġtr ain
ĠC are
Ġdirect ly
Ġann ual
emor ial
Ġredu ced
Ġcontro vers
Ġme ans
um mer
Ġnot es
Ġroy al
Ġne igh
ac her
Ġpract ice
u it
for ce
ĠMex ico
v ement
ĠO x
Ġat tended
os en
Ġfore st
Ġst ating
Ġd ut
Ġt ried
r ical
Ġcomp os
ĠD is
A r
is ation
Ġaccept ed
Ġ ri
Ġp ick
ĠAr ch
y a
stit ute
Ġpre p
Ġen ergy
Ġlevel s
Ġcand id
ĠAfric an
Ġarch itect
Ġadv ance
Ġcomb at
ers ey
Ä ĩ
Ġ 00
" )
b ased
Ġhigh ly
Ġen joy
ew ay
Ġconc ert
im s
Ġte xt
ic ip
Ġed ition
Ġrep e
Ġschool s
ad a
ĠN ot
Ġtw enty
ill ery
3 5
ec ause
Ġdis m
Ġp air
Ġre ject
Ġan g
Ġeff orts
Ġport ray
ĠW al
Ġw atch
Ġre in
Ġ8 0
ĠF ore
ĠF ox
Ġ199 4
ut ions
Ġse vent
Ġmov ie
Ġd irection
a it
ir it
ĠDep artment
cl aim
ter ed
ieut enant
Ġas p
Ġp urs
ic an
Ġresult ing
Ġrec omm
Ġmar riage
ĠC ons
a wn
Ġcol lege
H e
Ġo il
um ber
Ġh ar
ĠL ong
Ġleg al
k a
Ġc ases
ĠInf antry
ol f
Ġn uc
ĠTe am
Ġav oid
Ġ3 2
Ġd ra
Ġmet al
Ġin side
Ġcycl one
ceed ed
Ġdro pped
Ġrespons ible
ĠM ajor
Ġdis play
Ġam b
Ġenv ironment
ĠG ar
Ġbeg ins
m ark
Ġshow ed
ĠScot land
Ġman aged
Ġc ust
m ore
Ġth ick
Ġcer em
l oad
Ġvar iety
per or
ĠAn other
Ġincor por
Ġg e
ĠH aw
ĠC reek
Ġke pt
Ġr are
ĠU nder
Ġform s
Ġhous es
Ġn ation
ce nd
ro s
Ġse em
Ġw ords
ĠW all
Ġin ches
e en
Ġf ast
in i
Ġch ampionship
ect ing
Ġsch ol
ru g
gy pt
Ġcontin ues
Ġcult ure
T V
Å į
ĠO ut
Ġar rest
ĠM ore
ĠB ost
Ġr at
ĠB u
Ġc le
Ġmor ning
b l
ĠRec ords
ĠC ross
Ġ7 0
ĠI f
Ġ +
Ġus es
Ġd om
in son
i h
ul ations
Ġh orse
e ed
ĠC rit
Ġkil omet
ĠK enn
ĠServ ice
Ġ193 0
th ur
Ġb ank
a ud
Ġsc ience
ĠS ar
Ġset tle
Ġdef end
Ġconduct ed
ĠG ames
ĠPar liament
Ġsour ce
it a
ĠT ime
ĠSt one
Ġam ount
Ġpres ence
Ġimp act
ĠThe ir
ic ations
Ġmet res
2 4
ir m
Ġsym b
ĠP ost
aren t
Ġallow ing
ĠSoc iety
Ġle ar
Ġ199 2
Ġview ers
re c
Ġstart ing
Ġend ing
ĠLe g
ear ing
Ġt ur
ing u
it t
il s
Ġmark ed
Ġl ived
ĠB C
p ro
Ġtransfer red
in et
Ġstru gg
ĠT re
Ġd u
Ġex hib
Ġeconom ic
it iz
Ġpeak ed
ĠG reek
ĠB ob
Ġsup pl
f ect
Ġch ap
Ġpot ential
Ġcontr ast
ĠE gypt
m ission
ĠMad onna
ĠWilliam s
Ġr ule
Ġbecom es
ĠH el
ĠK h
Ġen emy
ĠComm ittee
Ġport ion
ĠNew s
wh ile
Ġh undred
ian ce
Ġmean ing
Ġconclud ed
ud d
ĠSec ret
al le
Ġhe art
Ġtraff ic
ĠAn n
ĠF oot
Ġg reater
Ġattempt s
Ġcast le
ĠCh ris
Ġproper ty
Ġfore ign
Ġr aid
Ġ18 0
Ġenc oun
m as
ĠAr ab
ress ive
sy ch
ell ig
Ġresp ond
Ġ9 0
Ġdist inct
Ġth ings
The re
n s
Ġst ories
Ġs ides
Ġm ess
Ġfinanc ial
Ġ194 2
ĠD ou
Ġbe at
Ġanim als
ĠB ook
Ġobs erved
ist ics
Ġd ance
ĠSt an
ol s
ĠF our
ĠD ar
Ġcol lection
Ġf ederal
Ġopp ortun
Ġvoc al
Ġch ief
ĠV er
Ġrel atively
Ġmultip le
ĠJ ones
Ġto urn
ĠBost on
u ge
qu arters
Ġsit uation
Ġy our
Ġ199 1
Ġp le
Ġj ournal
Ġwe aken
ste in
Ġd ed
ĠM ic
al a
ĠT ri
ĠBatt alion
Ġprim arily
Ġ199 3
ĠBr idge
Ġprem i
A F
Ġcompan ies
Ġparen ts
Ġwrit ers
Ġact ually
Ġl if
ĠGeor g
ĠS outhern
Ġon to
Ġun ivers
ĠM att
ann a
ĠS ur
per ial
at ched
2 2
Ġact or
k y
rick et
ĠComm ission
ĠS o
A S
Ġcoll abor
ĠOx ford
ast ic
ĠS ol
Ġm echan
ist ry
Ġsh are
ag a
ac ts
ann el
Ġo pt
ed s
os aur
or ation
' m
ĠViet n
ĠS ince
Ġdiv ided
Ġwrit e
ill a
Ġact ions
er o
ĠMan chester
m ond
av en
it an
Ġfeat uring
Ġre form
Ġconc ent
ĠSw ed
Ġbro ke
Ġcapt ain
Ġinn ings
ĠO tt
Ġr ating
in em
on n
rup t
ĠPr ince
ĠS at
Ġl ot
th let
t own
ot i
Ġdis e
ĠL u
Ġplay s
Ġtar get
om y
Ġch o
ĠPar is
ĠAcad emy
Ġfig ure
Ġmax imum
Ġw aters
Ġs ought
Ġult imately
ol ved
ĠL atin
y m
B y
Ġsp ot
Ġspec ific
1 00
ot a
in ing
ĠEnter tain
ĠB BC
Ġslight ly
z a
Ġsoc iety
c ers
yl van
Ġindepend ent
Ġte nd
Ġstreng th
Ġ194 4
Ġinter p
Ġfun ction
Ġactiv ity
ĠP an
ĠD en
ĠG o
ĠMus eum
Ġfound ed
ĠStep hen
Ġbeh av
ian o
Ġtri al
Ġpolic y
W e
ĠBr ad
Ġcomb ined
Ġv ess
Ġsecond s
ors es
b o
Ġm el
Ġtor ped
Ġofficial s
Ġqu ality
Ġcon ver
Ġstru ck
ĠHar rison
Ġs ay
Ġp aid
H L
Ġwe bs
Ġalong side
Ġcall ing
Ġsour ces
ad el
Ġact ing
ĠBr igade
ĠL ine
ĠCol umb
Ġth ir
Ġback ground
Ġl og
Ġg ar
row d
ĠJ eff
ĠJos eph
Ġpil ot
ĠSer ies
Ġse arch
Ġwin ter
ĠCap tain
ĠEntertain ment
Ġth ous
Ġg ained
Ġart ists
re land
Ġm ill
ĠB at
ĠSp ec
ĠB oy
ub e
ĠIt aly
Ġn aval
Ġpower ful
Ġb atter
Ġsc oring
Ġsystem s
Ġro ugh
Ġsu c
Ġmain ly
Ġrec ent
ĠF red
ĠA venue
Ġcont ent
Ġproble m
ibr ary
al ing
Ġse g
ĠCl ass
ĠReg iment
Ġconfir med
Ġresul ts
ic ed
Ġm em
Ġsubsequ ent
Ġpromot ed
Ġexpl ained
2 9
Ġwid ely
Ġcomplet ely
Ġnew s
Ġthe ory
Ġalbum s
Ġenc our
ĠA p
i ro
Ġto day
ol t
ĠS il
ĠF orm
Ġpass ing
un ction
ĠAr m
2 8
Ġconfl ict
Ġ194 1
Ġ194 5
Ġh us
ĠW ay
Ġpro ved
ou red
el d
b on
b ur
ĠT w
ĠM a
ĠF in
Ġb ill
Ġshort ly
oun g
Ġvers ions
Ġnomin ated
ĠFle et
2 7
ĠDe f
Ġdist ance
ĠS aint
Ġs ays
ĠT im
it ness
Ġ ice
ĠCh ief
Ġinv asion
Ġrece ption
S h
Ġ19 20
Ġ ess
e es
Ġser ve
Ġplat form
l a
Ġcount y
Ġexp ressed
ĠI reland
Ġp ath
Ġc orn
Ġreach ing
anc y
Ġres idents
Ġtit led
Ġdesign ated
Ġc ities
Ġsound track
ateg ory
Ġbl ue
Ġappear ances
Ġcaus ing
Ġpe ace
ag n
o ch
ĠL uc
ĠP op
Ġb oy
' re
ip s
Ġchar ge
ĠG re
cl us
Ġrequ ire
ĠO s
e v
igh th
ard en
Ġb ound
Ġh ospital
Ġad j
Ġfav our
Ġ3 6
Ġsu st
Ġ i
Ġcom ing
ro g
ĠVal ley
Ġk g
ĠV an
ĠAd miral
Ġt ells
it able
Ġtrans l
ĠTh ree
Ġche m
ĠLe e
Ġold er
res p
ol a
ĠH urricane
) ;
2 3
Ġart illery
ĠCro at
Ġoff er
port s
e ption
Ġpiec e
ylvan ia
ord in
Ġphys ical
Ġsix th
A meric
l ines
ĠVictor ia
ĠS pr
ab eth
Ġgreat est
ĠT er
Ġse asons
Ġb order
ad d
Ġwe ather
Ġweap ons
r ich
ĠM od
ant a
ĠW ind
Ġhand s
Ġse ek
Ġident ified
Ġ194 3
Ġs ense
Ġ18 3
ĠAl b
r an
pr ise
Ġheav ily
Ġstud ies
Ġsex ual
ess ions
Ġs quare
ĠP re
p ool
Ġstud ent
Ġ ir
st ruction
Ġg as
Ġp un
Ġdeb uted
ĠN in
Ġres ist
Ġrepresent ed
Ġcons isted
Ġhe ro
Ġ17 9
i as
st one
ay er
Ġm ind
ĠM ax
Ġs n
Ġinst it
r or
Ġprom inent
ĠO h
Ġsup p
ĠMidd le
Ġsp read
Ġ5 00
Ġdist rict
urb an
Ġorgan ization
Ġequip ment
Ġarg ued
ac ity
Ġelect ric
Ġw ing
Ġse nd
ĠPro du
Ġinflu enced
oc key
Ġp al
Ġexp ed
Ġoffic ially
um an
Ġpre par
Ġfig ures
us hed
Ġem ot
ĠH al
ĠAmeric ans
Ġapp arent
Ġinj ury
Ġreturn ing
Ġim age
Ġa ired
Ġb urn
Ġcou ple
ĠCath olic
s et
ang er
2 6
cent ury
Ġ3 3
ot e
ĠK r
ĠE ll
Ġa head
Ġh our
Ġcapt ure
r id
ap pen
Ġe as
Ġer a
Ġres c
Ġpat tern
ĠHist or
Ġlead ers
l am
u ct
isc o
k i
Ġprop os
if ying
ĠWe ek
Ġh abit
ĠL iber
Ġpo et
ĠCar l
Ġs out
ĠL ife
Ġr isk
Ġh or
em ic
ĠD un
ad ing
ul ed
Ġdo ing
ĠComm un
Ġw ick
ĠSh ow
Ġcritic ized
Ġst one
Ġmat ter
il ly
Ġactiv ities
ĠChar l
Ġcontem porary
Ġown ed
Ġtr ue
Ġvis ited
ac ement
ock ed
velop ment
Ġc ert
Ġinstr ument
Ġhus band
Ġpiec es
ag er
Ġl aid
che st
Ġ iron
ĠR y
Ġd rug
Ġc rowd
ru it
Ġocc asion
Ġterm in
Ġ3 4
iv ity
ĠCarol ina
el ve
ĠI ll
Ġto ward
g ian
ĠFoot ball
Ġw ild
ay lor
ĠC ivil
ĠB us
Ġspe ech
Ġcom es
Ġgrow th
Ġsing les
B e
ĠR am
ĠD utch
ĠM at
Th is
Ġtre es
Ġdef ense
Ġworld wide
ĠR ay
w ing
ul s
Ġterrit ory
ack s
Ġwe ight
Ġtourn ament
Ġhe re
Ġad apt
stit ution
Ġst ations
ent al
Ġform ation
Ġrefer ence
Ġshe ll
Ġatt ract
Ġe th
Ġsen ior
ĠS everal
emb ly
Ġre ign
n ers
av ed
od d
om ers
Ġh all
b orn
ĠD i
Ġsur re
Ġrain fall
Ġaff ected
ĠSy stem
Ġhistor ian
res h
Ġbird s
Ġmed ical
Ġclaim s
Ġf ellow
ĠEl iz
ĠCon f
Ġex ec
Ġo x
ph as
Ġc itiz
Ġneg oti
Ġp ict
ĠL ight
ĠB ond
Ġthere fore
Ġnort heast
2 1
ĠNort hern
ĠSt orm
ra el
ĠBack ground
Ġmag n
S p
ĠD irect
Ġh un
ell er
ĠN orm
ful ly
Ġt un
Ġdis pl
ĠT ropical
ĠStud ios
Ġacc ident
Ġgu est
Ġmach ine
Ġreport s
Ġdou b
ĠLit tle
az z
u ous
Ġch osen
ĠAd d
amp ion
Ġun iversity
Ġst ep
Ġmur der
re ct
iz es
ig g
led ge
ĠW ork
ĠGovern ment
Ġal one
Ġfl oor
Ġfrequ ently
F A
Ġtreat ment
ĠDist rict
he w
Ġle aves
ĠGu ard
Ġb ul
Ġsp lit
Ġsup ply
Ġfollow s
ĠF antasy
Ġ198 9
Ġ3 8
Ġop in
uf act
Ġd og
ĠF re
uck y
Ġtr ying
Ġcont est
Ġf ully
w ater
en ge
ol es
Ġdemon str
Ġsurround ing
or ter
Ġst ra
19 8
on ents
Ġex ecutive
ĠJ ul
Ġwall s
Ġtw ice
cl usion
m et
Ġg rew
et y
ĠL ive
Ġhy d
on c
ĠSen ate
Ġp an
Ġher self
Ġg reen
ĠD am
g ar
Ġval ue
Ġ4 9
t ar
Ġb illion
am ber
ĠY oung
Ġear th
Ġset ting
ĠPenn s
Ġh orses
Ġpass es
Ã ¨
Ġw ounded
Ġmain tained
ĠR og
ult ural
ut ation
Ġgovern or
Ġesc ape
Ġaccomp an
l ers
om a
Ġr ing
ĠDu ke
anc ing
le ment
Ġp aper
Ġrail way
Ġlab el
T C
ĠO cean
ograp her
ĠOr ig
ĠG al
Ġdr um
oc ated
ge nd
ĠGovern or
and y
Ġplan et
w orth
ĠF ield
Ġd yn
am ing
ĠS ub
Ġman ufact
Ġopp osed
Ġch ose
F or
ig r
Ġauthor ity
ant ly
7 8
Ġparticip ated
Ġcond ition
Ġwebs ite
Al though
ĠR os
ĠAll ied
is f
ĠB ey
ĠScott ish
ã Ĥ
Ġc ell
ĠB re
and a
att le
B A
it led
Ġnew ly
W ith
sk i
Ġent r
Ġcan not
Ã ¤
us es
en ger
ĠCh art
ĠHol ly
am m
Ġatt rib
Ġmom ent
il ies
ud get
im ens
Ġd raft
Ġvot e
Ġcas ual
ĠDan iel
ĠMar sh
pt on
is ters
Ġph il
ĠP en
Ġfilm ing
ĠF estival
Ġed itor
ab les
Ġrem ark
ĠT em
Ġhe ard
ors hip
Ġ7 5
yp e
Ġopp osition
os h
Ġtyp ically
Ġadop ted
ĠG ood
Ġag g
Ġprodu cers
Ġbene f
ĠE astern
Ġbas is
Ġ ut
ĠH omer
Ġun known
Ġl osing
ĠC orn
Ġf an
Ġr ang
ĠK ar
Ġt err
Ġexper iment
Ġord ers
Ġadv anced
ĠH ard
Ġele ment
ur a
Ġnewsp aper
Ġact ors
ĠCast le
e g
Ġadv ant
Ġs le
Ġsever e
Ġcont ained
Ġex tend
Ġcoun cil
ĠIs lands
ĠDe v
Ġsim ply
Ġb al
Ġend s
in er
im et
Ġ3 00
est ic
ĠL ew
Ġprom pt
Ġb it
Ġext r
Ġs quadron
Ġcol or
Ġd oll
ĠPol ish
Ġcomp ar
Ġc amer
r ig
Ġarm s
Ġoper ated
ĠWil son
Ġabandon ed
is ers
er c
ĠS ound
ĠRec eption
k in
Ġr ival
Ġcons ecutive
Ġl ives
ĠPenns ylvania
ĠJ ersey
Ġ3 7
Ġhom es
Ġco al
Ġh appen
Ġpr in
Ġindivid uals
ĠB ecause
Ġagre ement
Ġcap acity
ap ers
Ġem phas
Ġp sych
ro om
ĠJ on
Ġinc ident
er a
ĠT op
Ġwork ers
ĠChrist mas
Ġfilm ed
ian a
ĠR od
Ġcritic ism
U S
i ated
Ġf ired
ĠT aylor
Ġev ac
Ġdism iss
Ġhon or
Ġcreat ing
im a
im al
ĠAl bert
f riend
ĠN ight
Ġ rom
Ġs ens
Ġfail ure
Ġn ative
Ġsequ ence
ĠT ra
Ġfe ed
' ve
ĠH ome
Ġserv ing
ĠT ech
Ġgu ard
ĠAlex ander
Ġlaun ch
Ġwe ak
w ick
Ġext ra
Ġde ploy
Ġf uel
ĠC ard
Ġoff ensive
ific ations
Ġmin ute
Ġele v
Ġs ail
ĠJ ud
ing er
ĠCo ast
ĠG all
ĠEliz abeth
Ġb odies
ĠAnd rew
Ġbe y
Ġsp ring
Ġro les
Ġb ass
ĠCol on
Ġachie ved
ĠSp ain
Ġn arr
ock s
ab y
ĠB or
Ġent er
Ġsp irit
Ġmeas ure
ĠS quare
i enced
m osp
Ġregard ed
Ġchall eng
ĠP ers
Ġbey ond
on ent
Ġs we
Ġide as
in y
Ġbelie ve
o h
Ġf aced
Ġdeg ree
ult ure
Ġdise ase
ĠBe at
ĠIn stitute
Ġcont act
Ġgrow ing
a ith
st anding
ĠG irl
Ġprog ress
ed om
Ġbrief ly
Ġf air
Ġm ob
ent ed
Ġ ur
Ġfam ous
Ġstri ke
Ġn arrow
a ver
Ġm aster
Ġrece ive
ean while
ĠJo e
Ġret ired
Ġt ask
Ġnot hing
Ġsp orts
ĠB oard
Ġa st
Ġf lying
ĠD et
ĠJ ac
Ġroad s
Ġhistor ical
ĠH ung
ĠEx p
Wh ile
Ġgr anted
Ġkilomet res
Ġkill ing
Ġsp ect
Ġreject ed
Ġ198 8
Ġ198 7
aval ry
Ġadminist ration
Ġp ack
Ġpol l
Ġto wer
im ents
Ġsil ver
ĠM ike
Ġinter change
our ney
ĠL and
Ġlead ership
Ġrepe ated
Ġin te
ro ll
ĠOper ation
Ġnecess ary
Ġw or
Ġtw elve
st ream
Ġneg ative
Ġperson nel
i i
st ead
ĠR om
i Äĩ
ĠC at
Ġpl ants
Ġd ata
Ġext ensive
ĠIr ish
out s
Ġimpro ved
Ġinf antry
Ġdescrib es
adel ph
ĠB art
Ġp et
ri f
Ġnorm al
Ġl oad
Ġturn s
u ate
Ġfr anch
F ollowing
ot ed
Ġexp anded
Ġk ick
Ġsuccessful ly
Ġcol umn
Ġdr ive
ol n
3 3
Ġin h
Ġsol o
Ġpar alle
h aps
Ġmanag ement
Ġl iber
Ġper man
Ġt ree
Ġland s
u an
Ġvehic les
S B
inal s
ic ial
Ġd iam
Ġch air
Ġle arn
ol id
et ball
ell a
c ol
w all
adelph ia
Ġr id
7 6
ak ers
app y
Ġsuggest s
Ġey e
et ts
Ġeffect ive
Ġpl aces
ĠIs rael
Ġtorped o
Ġim ag
Ġland ing
ĠC ub
ĠG erm
Ġcross ing
Ġdel iver
Ġbro ken
ĠDo ctor
Ġc aught
Ġartic le
Ġcomm ittee
n o
ĠL ind
Ġexp ress
Ġanim al
ĠM ul
um es
av a
ĠRev olution
Ġauthor ities
ĠSecret ary
ĠAl bum
ĠRepublic an
am in
Ġexp ansion
ĠB ul
ĠH y
b a
ĠC y
or us
Ġun su
Ġ193 9
Ġtyp es
Ġf ought
st ate
Ġacqu ired
ill ing
f ort
ip l
Ġpre fer
ĠOh io
Ġt able
ĠL o
Ġis lands
Ġm is
Ġcont ain
g ent
ĠF am
Ġanc ient
Ġhead quarters
ĠW ild
rest ling
ĠS und
ag ement
ĠAr thur
iver pool
Ġcre ation
ĠL ike
ag an
Ġposs ibly
is hes
Ġg ives
Ġint ellig
ĠBro ad
4 5
ĠP ublic
ĠCl ark
ĠHar ry
Ġgl ob
ĠPhil adelphia
ut ing
ĠW ars
Ġrec ently
ĠB raz
tend o
Ġre ar
ĠM en
k ins
Ġhouse hold
Ġcom edy
Ġ198 6
Ġsup por
Ġexpl os
g n
Ġnuc lear
ĠA re
Ġup gr
Ġdec re
Ġstra ight
ĠW rit
Ġgen us
Ġad vert
ĠTh ough
Ġwithd raw
Ġfind s
ĠGeorg ia
ĠBl ue
ĠM D
ĠM id
ĠF urther
ed d
b ar
c ont
Ġmention ed
ĠF er
Ġ" [
Ġar med
m outh
ĠR et
Ġfam ilies
Ġro of
Americ an
Ġcent uries
Ġac ad
Ġbatt alion
Ġset s
Ġa im
ĠBe fore
ĠE lect
at ures
Ġun f
resp ond
Ġsevent h
b ro
Ġorgan ized
Ġd ial
ĠU l
Ġsec urity
St ation
Ġcommission ed
ap ore
Ġprot ect
Ġcontrib uted
ĠRuss ia
Ġthem es
Ġnorth west
Ġdeterm ined
o z
Ġst ay
ul ate
Ġa wards
Ġfin ish
Ġw ave
w ith
ĠB ru
in ity
Ġflood ing
Ġst reet
Ġyoun ger
Ġill ust
Ġprov ides
9 5
Ġtit les
Ġarr ival
ĠPro t
inc oln
uz z
Ġd rop
Ġsing ing
ĠAs ia
h ol
p art
Ġcommon ly
Ġpurch ased
Ġpow ers
Ġcerem ony
Ġentire ly
ĠCam bridge
Ġb ott
b ound
ĠE nd
Ġ15 0
Ġexped ition
ĠFranc isco
Ġloc ations
ĠProdu ction
Ġf at
Ġf ish
ĠL y
Ġso ft
ĠW W
Ġtouch down
Ġy ellow
Ġadvant age
ce ived
Ġm ist
ĠE ach
ĠL es
ĠHe ad
Ġaccompan ied
Ġth ing
Ġsched uled
ĠNin tendo
Ġch oice
Ġat mosp
Ġcon vers
ĠF ar
Ġdef ensive
Ġhe ight
b reak
Ġref lect
ĠEar l
us c
ĠS her
ĠColumb ia
Ġb udget
ĠH it
Ġres emb
a fter
ĠPr ime
or a
ĠM ir
Ġdid n
ĠKore an
il ton
ĠJ er
se ason
ĠU s
ĠOff ice
Ġcomp uter
ash ion
aw a
Ġ196 8
Ġre act
Ġtr y
Ġs quad
ĠComm on
Ġdram a
b ox
Ġ4 8
l im
Ġf iction
ĠC D
r ons
ĠF e
y les
Ġcons ists
z ant
Ġun ique
Ġro ll
Ġphil os
z er
Ġclos ely
Ġc ricket
ĠL iverpool
r acted
ĠM ov
Ġfac ilities
Ġs ession
Ġdef ence
Ġwh y
ĠPlay Station
Ġb at
ĠBraz il
Ġel imin
Ġded icated
ĠL incoln
ĠAs h
Ġstri k
Ġpurp ose
Ġv o
Ġtr ains
Ġ Î
ĠP erson
Ġun us
el ly
Ġcult ural
Ġf irm
is a
Ġdec k
Ġintens ity
Ġperform ing
ĠM ah
os a
Ġgr aph
ĠRail way
Ġvar i
ĠG il
Ġl a
ild ing
ĠV en
A ll
Ġreg ions
Ġcall s
Ġbel ong
Ġstruct ures
ĠB alt
Ã ¸
ul ts
ach ing
Ġ5 5
Ġdef in
Ġl ic
ĠG i
Ġrece iving
an o
ĠR el
Ġse lection
Ġopportun ity
Ġm ic
ĠE p
cl es
Ġp iano
ĠR ol
in th
ĠH ay
Ġsupport ing
u a
Ġsh ark
ĠCare y
ĠDis ney
4 7
Ġprot ection
Ġeng aged
m un
Ġpro s
Ġcor respond
ĠSing apore
Ġcurrent ly
p rodu
Ġe gg
F L
ĠJ r
ĠOlymp ic
Ġobs erv
om ic
Ġa id
ĠO f
Ġnot able
ĠGerm ans
Ġf ix
un ior
Ġ198 5
ĠG ulf
r un
en c
Ġcont aining
ĠCon ference
Ġchart s
ĠBro ok
bur gh
ĠDe velopment
3 7
if ically
Ġexper ienced
Ġprot ected
Ġ196 7
Ġl abor
Ġshoot ing
op her
ĠCh ild
ĠB urn
Ġprov iding
Ġcitiz ens
Ġ191 8
" ;
Ġf resh
Ġcom ic
Ġsp ort
ĠBy zant
ak a
Ġmot or
ĠH un
av el
ĠAnd erson
Ġrec on
Ġ191 4
Ġmer ch
A R
ĠOr der
Ġrapid ly
ĠSh ort
e or
v est
Ġm outh
Ġh air
Ġh ired
Ġc ry
Ġsit es
al i
Ġcasual ties
y ph
ĠP ot
Ġn ob
Ġtr ail
ĠP ress
ĠJew ish
Ġconc er
Ġschol ars
Ġbr anch
Ġg ain
ĠEm peror
ĠM ot
Ġt ail
Ġs ac
Ġal le
Ġey es
Ġad ap
ess ed
he im
Ġindust rial
Ġl ap
Ġmount ain
ĠJ ean
Ġ198 4
Ġanaly sis
O ne
Ġc old
Ġrecogn ized
Ġeconom y
Ġpublic ation
ĠP u
onc Ã©
6 5
ĠDemocr atic
er al
Ġres ident
ĠT am
ograp hic
y er
Ġhold ing
om ew
ĠV ol
Ġparalle l
Ġv ac
Ġext rem
v a
ot ic
Ġbe aut
p ut
ĠC a
Ġloss es
ren ce
Ġfoc used
at i
it che
Ġstreng the
l ar
ĠB as
Ġch ance
olog ist
if ul
ink ing
Ġsim ple
ĠS S
Ġ .
Ã¡ n
Ġdig ital
ĠB ank
Ġv on
Ġt im
Ġd ry
Ġro t
Ġmot ion
ĠMill er
Ġtrans form
Ġre action
Ġr ise
Ġview ed
Ġpro te
ĠLew is
Ġe c
Ġdevelop ing
Ġband s
l ong
ĠH on
Ġbelie f
ĠD ie
Ġqu ite
Ġinters ection
Ġlet ters
Ġsignificant ly
ĠCon n
c ome
Ġc art
Ġsh ared
w ise
Ġvis ual
ĠK ir
ach us
se y
Ġv en
ĠAl so
Ġm ut
ĠH MS
ĠD aily
Ġfranch ise
l an
ast y
Ġoccup ied
o ir
Ġliter ature
Ġw orth
ĠAdd ition
ĠR ome
Ġth row
ĠCh ap
ĠL ab
Ġunsu ccess
Ġw itness
Ġmod er
6 4
Ġcon ference
ĠSh ak
r ad
un te
the less
3 00
Ġste el
Ġinst ruct
ĠGr ant
ond er
ĠTh rough
at o
Ġact ress
Ġ196 4
Ġappro ved
Ġgame play
Ġhead s
g ers
Ġtechn ology
rop ri
Ġsymb ol
Ġkn ew
Ġ196 9
Ġproject s
Ġexist ing
Ġtemper ature
Ġass ault
Ġre asons
ĠHolly wood
ac ter
Ġgo es
Ġc ars
Ġstory line
ĠG ib
Ġneigh bor
it ors
Ġste am
l ife
ĠSer b
ĠS a
Ġdes cend
Ġsecond ary
ony m
J o
Ġh arm
Ġrul es
i ents
ver se
ĠSy d
ĠRad io
Ī Ĵ
Ġc ab
Ġpopular ity
ĠL ieutenant
ic ts
Ġmy th
Ġresist ance
Ġs ave
Ġm ounted
Ġsem i
ĠW el
Ġed ge
Ġsub stant
M an
ĠN ever
Ġpain ting
Ġl b
ist an
Ġprep ared
ĠL ar
U n
3 8
A ccording
ĠWal ter
ul es
ĠSup reme
ĠN HL
od s
Ġdecl ined
Ġinj ured
Ġcomp osition
Ġs and
Ġs ort
Ġopin ion
Ġd aily
Ġ3 9
Ġ198 3
Ġany thing
ĠPr inc
or al
ad er
os l
Ġrep utation
Ġ196 6
ĠDav is
ul pt
Ġenjoy ed
g al
Ġunder t
ĠS R
ĠK ey
Ġadd ing
ĠPe ople
or gan
ret t
ĠComm and
Ġbro wn
Ġag ent
ĠP oint
ĠW ater
if orm
Ġw a
Ġd rew
Ġex act
Ġro b
ĠKent ucky
ĠOlymp ics
Ġlook ing
b ell
Ġn or
Ġmus eum
Ġ urban
Ġbo at
Ġregard ing
achus etts
Ġ #
re ts
Ġis ol
Ġse at
Ġbrother s
ĠInd ust
ĠSt ation
Ġad ult
Ġh yp
Ġemploy ed
Ġp itch
ĠS ix
ĠJ enn
ath an
ord on
it er
ĠF all
Ġs elling
Ġsh all
Ġsh ape
Ġallow s
Ġc ard
ĠS ummer
ĠA v
ĠPro v
ĠH a
Ġconver ted
ĠUp on
Ġag ric
Ġest ate
ĠB ell
Ġ197 2
ĠNor way
Ġst ages
Ġview s
os is
Ġpo em
6 6
Ġcal c
ĠK en
Ġstand ing
ĠT urn
3 9
Ġappro ached
z en
ĠB rian
ĠM as
ĠS u
ir a
ĠAt t
Ġc ited
ĠS and
D on
Ġ196 5
Ġ197 1
Ġrespond ed
Ġj ourney
ĠMass achusetts
ĠAir port
ĠD ark
Ġst adium
Ġ ign
em an
Ġsub mar
Ġrough ly
ap es
Ġret ire
Ġ6 5
Ġdra wn
d d
Ġdist ingu
ps ons
Ġr ac
Ġesc ort
Ġaltern ative
Ġincreasing ly
ĠF air
ĠK a
Ġget ting
Ġs un
ign ment
ĠSpec ial
Ġc ells
Ġsuc ceeded
Ġcol lected
ĠT ro
Ġex erc
Ġplan ning
ĠM os
Ġren amed
le e
le ton
Ġwe alth
ĠB ase
f oot
ĠN ap
re al
Ġcol le
Ġknow ledge
ur ation
Ġconn ected
e qu
Ġ198 2
Ġmod els
4 8
on ia
ĠE ven
Ġsust ained
Ġreb u
ĠD own
ar p
Ġ197 9
Ġmiss ing
Ġconstit ution
ĠG reg
Ġocc as
ĠPhil ipp
sp ec
ĠT en
Ġsaf ety
un icip
le ase
Ġlear ned
ĠWh it
ĠH an
Ġintrodu ction
ist ol
ĠSte ve
il ing
ĠP rem
Ġturn ing
l ane
A C
ĠB ern
ĠBey oncÃ©
Ġ197 5
u ro
Ġ197 4
st ruct
Ġ191 7
Ġexist ence
ick s
A T
Ġdesign s
ĠL ady
Ġbase ball
Ġlim it
Ġimpro ve
el a
ĠInd epend
our ces
Ġweaken ed
Ġoper ating
Ġvol ume
Ġbur ied
ĠR oss
Ġre nd
k o
Ġover l
r ate
ig er
Ġshow ing
Ġland fall
Ġlast ed
ol i
Ġhum ans
Ġfl u
Ġpromot ion
at us
Ġf it
ch ar
ĠAb b
od ay
" ),
ap ped
Ġac res
Ġsc ale
Ġearl iest
h i
Ġex change
Ġper fect
Ġ194 6
Ġp ul
Ġpro ceed
Ġdesc ription
ill er
Ġb or
ĠW omen
Ġy outh
Ġequ al
Ġsettle ment
ĠH art
Ġret ained
ival ent
ĠSim psons
Ġbo ats
el er
Ä ģ
Ġprogram s
iv ered
Ġfre eway
iss ance
Ġapp oint
Ġplay off
Ġjoin t
Ġ197 3
in ary
in ner
Ġst ore
ĠG ra
Ġr hy
Ġrepl ace
Ġpain t
ins ula
Ġinst all
ĠSong s
ĠN az
re ll
Ġim pl
Ġ17 8
ot hes
ie ge
G N
re ets
Ġstat ement
ĠSyd ney
m ath
Ġn ick
Ġentr ance
av ig
Ġc ool
Ġres erve
t ic
Ġappl ied
Ġeas ily
Ġ4 4
Ġhyd ro
ĠVietn am
ĠPol and
ĠN aval
Ġ4 00
ĠAm ong
Ġa thlet
ĠC ape
wh ich
Ġ197 6
t ical
ĠS us
e per
Ġit ems
B S
Ġcon sequ
ĠOtt oman
Ġassist ant
Ġdep th
w estern
ad s
eng ers
Ġtown s
Ġcred ited
ir ation
Ġgrad ually
Ġtri p
iz ations
ĠU N
Ġgen re
Ġarrang ed
Ġcandid ate
Ġsc ulpt
ĠS el
Ġind icated
ĠBow l
Ġcoast al
el ess
Ġstop ped
Ġdom estic
ĠM u
Ġpolit ics
Ġmain tain
Å ¡
Ġdet ails
ush ing
Ġdistrib ution
Ġc ore
e ke
n ight
ĠD ue
ĠB all
Ġgro ss
Ġlaw s
Ġsuppl ies
l ik
Å Ĥ
ĠM TV
Ġh its
Ġad vent
ct ions
7 7
Ġ191 5
Ġeng ines
Ġviol ence
Ġcontro lled
Ġcarry ing
Ġw ays
ĠIm perial
Ġscient ific
Ġtr ust
ĠI V
Ġpart ies
Ġ err
man n
ĠM ain
em ies
ĠSt adium
ĠMc G
Ġcomb ination
Ġsout heast
Ġt act
Ġse ems
ĠColon el
Ġdel ivered
Ġbatter y
Ġprison ers
p et
Ġs ections
Ġun p
ĠR on
Ġ194 8
end er
Ġappe al
ĠMary land
ĠGold en
le vel
por ation
iqu es
ad or
ur rent
ĠPl an
ĠV i
idd en
Ġst ream
Ġact s
ino is
h at
Ġc inem
Ġent itled
Ġv an
as hed
ivers ary
Ġsec ure
rop ol
ĠSt ew
ĠP ict
Ġbas k
ĠM eanwhile
ĠConf eder
Ġreg iment
ĠAr ts
Ġinvestig ation
Ġa uth
Ġkn ots
Ġeven ing
Ġon line
Ġt all
ĠMo ore
ĠThe atre
Ġsurv ived
Ġdeath s
Ġpropos al
j a
4 6
Ġro utes
i y
Ġb ought
Ġne ut
Ġse lect
t a
igh ters
ie val
h us
Ġw ars
ĠRe view
Ġper haps
Ġmess age
a ug
ĠE du
Ġ191 6
ak ed
p ower
Ġm ales
Ġadd ress
ans as
yph oon
Ġthreat ened
Ġt al
Ġw r
Ġrec alled
Ġredu ce
ĠB al
Ġb ed
bour ne
ing ly
ĠB ad
Ġindepend ence
ĠB ra
Ġ4 1
Ġdown load
ic ian
ain ts
erv ative
e z
Ġvot ed
Ġcontrovers y
ĠA ri
Ġwrit es
cher s
ĠW alk
Ġvir t
Ġ4 2
Ġcaus es
oth ing
Ġimp lement
Ġrelig ion
Ġex clus
Ġt ick
7 9
ak i
B l
Ġag o
3 6
Ġreg ister
Ġ198 1
ĠOn ly
ĠSt aff
Ġdep end
Ġmet ers
sen al
ĠSpr ing
Ġstud ied
ent ially
Ġadap ted
Ġt anks
3 2
ĠMul der
Ġking dom
ĠRh odes
Ġrefer ences
Ġfind ing
aw are
f ess
ĠM emorial
ĠI mp
Ġconv in
Ġdec ade
ĠBar b
Ġimport ance
l aw
m b
w ich
Ġa ware
ĠN ick
ĠB and
oc al
Ġ19 19
Ġor chest
ane an
Ġportray ed
Ġarrest ed
ĠA D
Ġcamer a
Ġw atched
st ar
ĠK ong
Ġf ict
Ġar c
Ġnomin ation
Ġconcern s
Ġte acher
Ġf ashion
ĠG ordon
ĠUn ivers
c a
Ġst ret
Ġgl ass
ĠSing les
Ġc atch
Jo hn
Ġremain der
Ġinv ited
Ġad mitted
ĠJ es
B I
se x
Ġpre ced
ord an
Ġprodu cing
Ġdef ined
ĠOn ce
ĠJ ay
ĠV ill
Ġspec ifically
ĠA ge
Ġcorn er
Ġro w
esp read
ĠPl ot
Ġrul ed
Ġoff ers
im p
ĠV ar
Ġret reat
Ġwin ner
osaur us
Ġb an
il ation
Ġover se
ĠB on
Ġfund s
h r
Ġ6 4
Ġinterest ed
it age
ĠBe ach
ab b
Ġstart s
Ġrecomm ended
Ġon es
Ġintern al
Ġinst alled
Ġobject s
ĠCon stant
Ġl ov
Ġcap able
Ġs ell
Ġsh ut
Ġfem ales
g ency
Ġproduct s
Ġcamp us
Ġoper a
Ġcross ed
ĠJ an
Ġun s
re te
Ġcompos er
Ġ193 8
Ġ12 0
Ġsouth west
Ġim pr
Ġact ual
er ted
clud ing
Ġcr ime
ĠIn stead
Ġph ase
Ġpromot e
d a
Ġa w
os ite
Ġground s
Ġt ell
' d
bor ne
Ġdut ies
ĠB ir
ĠG ram
Ġnot e
AA F
Ġs omew
Ġmed al
Ġshe l
Ġbott om
Ġs now
v ements
Ġt ank
Ġfl at
Ġmil it
b urn
Ġcon qu
Ġrel ief
ĠJust ice
Ġst ock
Ġd ates
Ġpen al
Ġsyn the
Ġhot el
Ġpr ice
em ed
Ġchar ged
! "
Ġprincip al
b u
Ġac id
Ġext ension
Y ou
Ġdec ades
ĠU TC
Ġ196 3
Ġ197 8
ĠP ass
el son
Ġextrem ely
Ġcl im
ĠAb out
L e
c ious
re ck
Ġman ner
Ġim ages
ĠFore st
Ġaut om
ĠV II
Ġocc urs
Ġconsist ing
us ic
Ġent ry
Ġasp ects
ĠN ether
Ġbreed ing
8 5
Ġconsider able
m es
Ġ196 2
Ġâ ĪĴ
w an
ĠF ound
Ġso le
Ġb le
ic ate
ic it
Ġv ent
Ġ197 7
Ġm ort
Ġcons um
ion e
ĠD ream
Ġnot ing
Ġpo ly
. )
ĠF ire
Ġr ural
ĠU r
op hy
Ġchall enge
Ġn est
Ġrem ix
Ġident ity
ens us
iv als
ile y
Ġrest aur
ĠMc K
ĠDou gl
ĠB os
ĠC op
Ġsuff icient
3 4
Ġpost ed
Ġevery thing
Ġbr igade
Ġvol can
ĠKenn edy
ĠW at
Ġsuppor ters
Ġvess els
6 00
Ġdut y
Ġadminist r
Ġs oul
ĠM oon
Ġap art
R e
Ġa er
Ġsome one
Ġdescrib ing
ut y
ĠAd ams
Ġslow ly
ĠEng ine
Ġev olution
ĠTrans port
reg on
Ġ4 7
ert o
Ġz one
ĠHam ilton
Ġf ly
Ġr ated
ĠAn th
ĠA k
ag ues
ris is
ĠIn c
ck now
Ġdeb ate
ĠAss embly
Ġob tained
Ġinvol ving
Ġfr ag
it err
ĠIndian a
ĠMag azine
Ġ4 6
c ation
Ġtyp ical
Ġread ing
Ġsub s
3 1
al og
ĠO k
o oth
C C
Ġen emies
Ġdep artment
ĠAl f
Ġinte gr
Ġh am
Ġ193 6
ĠI GN
Ġpurch ase
Ġacc ur
he astern
Ġdepart ure
Ġpat rol
ĠMil itary
Ġdec line
Ġsett led
Ġclass es
ĠN ic
Ġcor rect
omm od
Ġconcern ed
Ġarm or
Ġwid espread
Ġconn ection
are t
ĠWeek ly
Ġacc used
or ney
ĠP it
ĠR oy
Ġpar liament
ĠDirect or
Ġm emorial
go ing
Ġperman ent
Ġc rown
Ġte le
ĠPro g
" ).
Ġe t
Ġdr iving
Ġ195 6
Ġrev olution
Ġde leg
ĠâĢ Ŀ
Ġatt ached
b ody
v is
ĠSc ully
Ġown er
a o
we gian
5 5
b ook
Ġass umed
g ame
Ġg all
ĠInd ones
ĠH ou
Ġac claim
Ġrecogn ition
agon ist
ĠC irc
Ġbas ic
d on
sk y
ĠO b
Ġform al
Ġsequ el
Ġs essions
im inal
iv a
Ġspe ak
ĠR em
Ġreturn s
iterr anean
Ġden ied
Ġcol our
ĠHow ard
Ġa cknow
Ġdec or
Ġsur vey
ĠT ony
Ġpop ulations
I A
Ġent ering
R A
ĠK im
Ġf oss
Ġp up
Ġe ighth
Ġchar ges
Ġcomm itted
id ges
ĠV ideo
Ġwick ets
Ġf olk
Ġcan n
ĠIll inois
eke nd
Ġval ley
Ġcon g
SB N
ib b
ac hel
Ġcan c
Ġo uter
hed ral
Ġold est
Ġtem ple
ĠSund ay
Ġf aith
ĠPort ug
ĠAr gent
n g
am i
ud den
ĠAl an
ĠPro ject
Ġcert ified
we ight
ĠSc ience
ĠHit ler
ĠMount ain
min ute
Ġhead ed
ĠCol l
ĠMar ia
Ġseg ment
4 9
p o
ĠC art
Ġm ode
Ġthous ands
ĠSim on
Ġcirc um
Ġtermin us
ec e
Ġdist urb
Ġs ailed
ĠMed iterranean
rop hy
Ġsol id
Ġposs ibility
6 9
Ġpass engers
ĠRes earch
ĠCon stitution
Ġsupp osed
ĠH or
ĠP ear
Ġsh ots
Ġdo or
ir t
Ġcirc ulation
ĠP o
Ġtrans ition
ĠRol ling
Ġdown town
Ġsw im
r as
ĠO regon
vel and
n ic
Ġsp ons
p oint
Ġal t
b an
Ġliter ary
up t
az a
Ġ196 1
ism s
atin um
Ġbehav ior
Ġassist ance
Ġw earing
... ]
Ġstrong ly
Ġreg ional
Ġ195 3
Ġd ated
he red
Ġbeg un
h ar
Ġh ip
ad ow
Ġan s
le ts
ĠÃ Ĺ
N o
Ġrepl acement
ĠCle veland
Ġcost s
ĠBeat les
T o
Ġcommand ed
ĠB ry
Ġ191 0
Ġthir ty
ĠI ra
Ġ194 7
Ġmin ister
Ġt orn
ont o
ate gy
ĠG un
ĠKore a
Ġintellig ence
ĠDougl as
e ing
ars h
Ġcomm it
ĠAd am
Ġmiss ions
Ġproper ties
ĠY our
Ġmov es
Ġh ill
ĠLe on
ĠR ose
k er
ĠP ower
ĠF eder
ĠJ ane
ĠIn it
Ġh ope
ĠJ ordan
ĠCh annel
ĠMed ia
ĠH ug
Ġrecover ed
ĠFred er
Ġd ress
Ġwar m
ĠStan ley
Ġfict ional
Ġf ruit
Ġhost ed
Ġcl oud
Ġb low
Ġto w
Ġfre edom
Ġcle an
Ġ193 7
Ġattrib uted
oy d
Ġinter cept
Ġsk in
ole c
? "
6 8
f ire
ens es
um in
ĠK at
Ġdest ruction
ĠCrit ical
b re
Ġmiss ed
ĠRy an
Ġprot est
Ġincorpor ated
Ġfin ishing
Ġf illed
Ġh ang
al o
ri ers
Ġalle ged
Ġatmosp here
so le
an th
ĠL enn
ĠDe ath
Ġbring ing
c ar
ĠT reat
Ġdem and
Ġs ons
Ġopp osite
Ġsh op
Ġhigh light
Ġexcept ion
ĠN BA
Ġserv es
Ġcr ash
osl av
Ġthe atre
th m
Ġmethod s
ĠMex ican
4 00
ĠBr istol
ĠPhil ip
j i
w en
Ġdem ol
Ġregular ly
Ġch ampion
Ġpre y
Ġem p
Ġd ipl
ĠW ell
ĠF ame
ut s
Ġint ention
Ġcour ts
Ġc avalry
Ġmaterial s
6 7
ic i
Ġcomplet ion
i ot
ĠE ric
Ġvol unte
Ġdiss ip
Ġf ine
Ġv ary
ĠTh ird
Ġst ayed
b ec
ch ang
ĠS av
Ġrespons ibility
Ġacc ommod
Ġatt racted
Ġstr ateg
f e
ig e
ĠF ederal
ĠF A
Ġdiffer ences
ĠCol or
Ġfeel ing
Ġoccasion ally
Ġsc he
act ive
Ġpers u
Ġsurv iving
Ġunus ual
Ġd ivers
Ġsup erv
ab led
ip e
Ġbr ain
Ġab oard
4 4
em eter
Ġfield s
Ġder ived
Ġinc ome
Ġpass age
F rom
Ġeffect ively
Ġprov ince
ub b
Ġ5 2
Ġclub s
a ired
ag le
Ġent ertain
om ot
og en
Ġ195 7
Ġ[ ...]
Ġinterp ret
n ings
Ġ195 8
ĠPh ill
Ġcru iser
ĠT enn
Ġdiv isions
Ġrat ings
Ġmusic ians
Ġanim ated
ĠB a
us ing
pp ing
Ġrein force
ĠI SBN
ind er
ĠMar c
Ġout break
ĠBet ween
ĠWW E
om pl
Ġwar ning
ĠBru ce
te enth
Ġele ven
ĠSwed en
' ll
ĠB ush
Ġqu ant
Ġvot es
ĠSp ace
Ġclass ified
Ġbattles hips
iec e
Ġassoci ation
ĠG en
Ġclass ification
Ġcl imate
ĠH o
ĠSt and
Ġdes ire
Ġst ood
ĠAnd y
Ġhop ed
r um
Ġpred ecess
ĠB ol
Ġsh ore
Ġemer ged
pp er
Ġro oms
ab il
Ġrequest ed
Ġhe at
Ġsp ok
Ġmov ements
ĠNor wegian
Ã³ n
Ġd ang
ew here
Ġanc est
Ġhistor ians
ĠW eb
ĠG er
Ġdifficult y
ĠAr senal
Ġ195 4
Ġcommun ities
Ġtechn ical
g ets
ĠL anc
Ġs am
Ġt on
Ġfl o
ĠN ations
in ton
Ġchem ical
Ġt ied
Ġra ise
Ġro se
ĠMor ris
Ġbask etball
ĠP ur
Ġv ide
Ġ195 9
writ er
Ġprogram me
ĠR un
ann y
Ġrest ored
ĠMor gan
Ġreal ity
ĠTe levision
I f
Ġvehic le
ĠB ah
ĠFam ily
Ġglob al
ex p
Ġinj uries
Ġestablish ment
Ġpremi ere
Ġm ent
Ġsound s
Ġmem ory
ĠPrem ier
Ġ195 5
ĠRog er
Ġexp ect
Ġinsp iration
ay a
ĠNether lands
Ġacc ounts
n ce
Ġn one
i ate
Ġpenal ty
l ig
Ġequip ped
ĠR ow
ost er
Ġch orus
com ing
Ġfund ing
Ġsurround ed
Ġs qu
om ing
ut her
Ġpra ise
Ġbatt ing
form ula
ĠTor onto
ĠRob inson
pl ace
Ġread y
Ġc rop
Ġother wise
Ġdep ict
Ġ ille
ond s
Ġsepar ated
ĠL ow
ĠWh o
Ġne ither
Ġgreat ly
Ġclaim ing
ac he
Ġrel ative
omp son
ĠTem ple
Ġfl ank
s es
ird s
ĠD isc
Ġdiscover y
Ġsp in
Ġann iversary
Ġpict ure
ĠTur k
ĠByzant ine
ĠAddition ally
ĠA st
ĠB udd
ĠE ver
Ġk id
Ġdel ayed
Ġpart ner
Ġneed s
E S
ĠAn ton
Ġstr ategy
ĠP ier
ĠF ord
Ġsp oke
Ġg al
ĠN elson
Ġtri es
ĠC as
ĠR aj
Ġm o
ub le
Ġte en
ĠSc ient
ĠFranc is
ĠC ab
ag re
Ġcross es
Ġweap on
it ter
Ġd ream
g un
Ġarchitect ure
Ġ5 4
Ġrem ember
Ġdismiss ed
Ġdeterm ine
Ġacc ompl
Ġ195 2
ĠT ar
ĠIra q
Ġ4 3
Ġast ron
ook ing
ĠRec ording
Ġrec ru
Ġche ck
Ġf ear
ĠF inn
Ġinvol vement
Ġseem ed
ĠJew s
ĠH ere
Ġrem n
ĠSk y
Ġ193 3
Ġsu it
Ġadapt ation
l i
Ġd ie
Ġbomb ard
D espite
Ġres ources
Ġ193 5
ar ia
we alth
a ire
ĠAll en
Ġinterest s
Ġens ure
Ġsche me
ĠHaw ai
Ġsh if
Ġres erv
re p
Ġtem porary
m ate
ĠS ports
itz er
ĠCent re
Ġconvin ced
Ġhe ar
Ġass emb
ĠCon c
Ġstand s
es ter
Ġst reets
Ġdocument ary
ĠKe vin
Ġl ibrary
Ġas h
ic ide
ĠN ich
as ure
ac re
Ġtechn iques
Ã ±
ĠMar ine
ĠO ak
Ġwr ong
A d
Ġr aces
Ġs ale
Ġthr one
D S
l ie
ĠF ive
Ġle gend
Ġsat isf
ĠT oday
ĠJac ob
Ġphot ograph
h ost
ĠJ ournal
ĠM aster
os ure
Ġcomm emor
C l
Ġpl ane
Ġegg s
ĠDes ign
á »
ĠN etwork
Ġsc rap
Ġsurv iv
S c
Ġc ul
Ġreview er
ĠDe an
oss ible
ac ent
ĠB ishop
Ġpremi ered
ĠPu erto
Ġh a
ĠA the
Ġad ults
ĠGl ob
Ġl ake
Ġel se
ron ze
Ġimmedi ate
o en
ĠPro fess
Ġmass ive
Ġf al
Ġsh r
ĠT echn
Ġinter ior
ĠAr men
z y
ĠI ron
Ġair port
ĠShort ly
v ens
Ġcon clusion
iv an
Ġ194 9
Ġ195 1
Ġgirl s
Ġabs ence
Ġacad emic
Ġmed ieval
Ġfall ing
ĠD og
Ġpart n
in ter
Ġcharacter istics
Ġde emed
Ġfac ility
Ġwe ekend
ĠG ill
Ġtr a
Ġconv ection
Ġengine er
Ġd ens
ĠD ig
Ġtemper atures
Ġin ner
Ġl oyal
Ġcol ony
Ġlead s
ĠN iel
Ġafter wards
ĠCar ter
ĠC E
as er
ĠWel sh
Ġencour aged
p on
Ġcon vent
ly n
Ġ19 00
Ġlegisl ation
Ġf itted
ap se
op es
Ġpass enger
ri k
tern al
Ġsur pr
ĠMar g
se a
ro it
ĠL ibrary
ĠAn ne
Ġappear ing
id ay
Ġvis ible
ix on
sc ape
ur ches
Ġme ets
Ġren ew
ĠAg ain
Ġt urb
ust er
Ġgr ant
Ġsuper ior
ĠA ut
Ġ8 5
wh o
Ġl ies
ĠIn t
Ġattempt ing
Ġbelie ves
ĠG ard
Ġs ight
Ġsee ing
Ġdo ct
Ġs ed
Ġal ien
ĠAr n
ĠSim ilar
el le
ĠF ront
ow a
ĠPat rick
Ġm unicip
ĠMar s
Ġattack ing
Ġhold s
ĠE le
Ġsec ured
edd ing
Ġmod ified
Ġf ighter
Ġdep icted
in du
Ġapp ropri
Ġpresident ial
Ġn inth
Ġcar bon
Ġcontrovers ial
9 9
Ġthe at
ra it
Ġhabit at
Ġ5 1
Ġstand ards
Ġabs or
Ġw ings
Ġfl ed
enc ies
at ically
ĠB ou
ĠW y
ug oslav
Ġunsuccess ful
ĠHe nd
Ġd ating
ĠL abor
el ine
Ġbattles hip
Ġwor st
ĠD omin
Ġform ing
ult ane
ĠNorm an
Ġmon arch
Ġsuff ering
ĠPal ace
w here
sh aped
Ġelect ions
ask a
Ġcred it
M y
8 00
Ġdistrib uted
Ġretire ment
ar c
Ġgener ation
Ġarch ae
Ġr um
Ġgraph ics
ĠD er
ĠO pen
Ġcontin uing
app ing
a ft
m ith
ig ration
ĠTh ompson
Ġcan cer
ĠL isa
f are
ĠT rib
Ġcons p
Ġbr ight
ax on
Ġsomew hat
Ġarrang ement
e enth
Ġc ode
S he
ĠH oly
ast e
Ġclass ic
Ġauth ors
Ġw ins
ĠH ospital
ĠA z
ĠCommon wealth
ĠP ak
ĠK elly
emeter y
Ġg one
ag u
Ġany one
Ġrail road
Ġ ic
rib ed
ĠD E
ĠEdu cation
Ġen l
4 3
ĠS in
ĠCor poration
Ġacknow led
Ġbu y
ĠR ain
Ġrom antic
ĠI d
Ġachie ve
ĠS ant
ĠHar ris
Ġf ur
Ġoper ate
Ġp ure
Ġcar rier
te xt
Ġmeas ures
Ġc ategory
Ġland ed
Ġjud ge
ol ph
un a
Ġgar rison
Ġresc ue
S P
it o
Ġfavor ite
ĠWin ter
Ġclass ical
in ally
is en
ten ance
ĠBer lin
N ew
o is
6 1
Ġcon vention
Ġevery one
ep ing
Ġmy ster
re es
Ġsp r
ĠT ok
Ġse es
Ġst yles
ĠY an
ĠHou ston
Ġm ap
Ġ5 8
Ġ191 3
St ar
m ad
ĠW right
Ġtri als
Ġgr ass
ĠBro ther
ot ype
Ġs udden
Ġdeploy ed
Ġd ub
Ġlook ed
Ġal leg
Ġs iege
og ether
Ġnov els
Ġclos er
Ġquest ions
Ġinflu ences
Ġcolon ial
Ġinflu ential
S ome
ĠSt ory
ĠPark er
ĠL et
ĠCo oper
Ġinform ed
S e
t ure
Ġh al
ĠN FL
ĠE s
ĠW he
Ġbel t
ĠPol ice
ark ed
ĠIs lam
ĠG ri
Ġexper iences
Ġf estival
Ġv eter
ĠD ick
ud es
rap h
ĠP ow
ĠD NA
Ġsuccess or
im ore
Ġ192 1
ust ed
Ġemer gency
Ġinstr uments
Ġm olec
ĠY ugoslav
Ġchild hood
ĠRuss ell
Ġnick n
Ġ192 6
Ġjournal ist
ob i
Ġmat hem
Ġun ion
ĠAd vent
Ġcoin s
7 2
Ġass ass
Ġdet ail
i ens
ab s
ĠTh us
Ġvict ims
Ġfact ors
ĠDet roit
ach ment
n oon
ĠR ick
Ġoffic es
Ġl at
ĠU t
id i
ot o
Ġnarr ative
Ġenvironment al
ĠBat man
ĠD or
Ġâ Ĥ
ĠS anta
Ġrepresent ing
Ġpre gn
Ġdiscuss ed
ro lled
st ances
ĠB ang
Ġg ets
Ġleg s
ĠB ure
ili ar
Ġmoder ate
ĠN ow
ĠInd ians
Ġ193 4
Ġst ead
Ġ191 2
Ġres igned
Ġhistor ic
ĠComm ander
Ġchair man
Ġcl imb
het ic
Ġdef ended
Ġdep os
6 2
Ġmain t
ra f
ĠMur ray
or ous
Ġm ine
Ġj ump
ĠCroat ia
Ġlong est
Ġsk ills
Ġown ers
Ġpain ted
Ġ16 0
ĠRober ts
Ġve get
ĠWar ner
Ġprevent ed
Ġwood en
ĠBel g
ic ians
Ġent ers
M A
Ġn avig
5 8
y o
Ġapparent ly
l ock
ĠS um
Ġr idge
Ġopp onents
Ġlangu ages
ĠSwed ish
ĠCon struction
Ġsp end
Ġrele ases
Ġreve als
Ġbig gest
aw ay
Ġthere after
Ġfoot age
Ġr u
Ġhappen ed
ĠX box
Ġhundred s
ph y
Ġloc omot
Ġtre ated
ĠMel bourne
Ġrelationship s
ter m
Ġfle w
r ain
Ġequ ivalent
r ant
Ġres ign
h att
5 9
ĠB eck
C A
C on
ĠL yn
ĠNiel sen
Ġex cess
on ies
Ġs ter
Ġal co
Ġexec uted
Ġprefer red
ĠB i
Ġconst ant
Ġreported ly
ĠMer c
Ġdiffer ence
ĠSoc ial
Ġcy cle
ĠC ategory
ĠH ell
Ġvisit ors
Ġchap ter
ol is
Ġr ide
rel ated
Ġinh abit
Ġemploy ees
Ġun iform
Ġint ent
Ġaccomp any
Ġdipl om
Ġsurre nder
4 2
Ġdepart ed
j o
st ic
ut t
ĠM ort
Ġanim ation
Ġparticip ate
a is
Ġp ushed
Ġg iant
i at
Ġext ent
ĠAlbum s
Ġdev ice
ĠT ower
ĠMatt hew
ĠG aga
h ard
Ġ Å
ĠEv ans
Ġex isted
N e
Ġb on
ĠS omers
Ġhe aring
ropol itan
un es
Ġinst ance
m ates
ĠSp ears
n est
Ġbre aking
Ġ193 2
Ġdial ogue
Ġannoun ce
Ġcru isers
or ial
or age
ĠV ice
y e
ĠN BC
ar th
Ġexp osed
Ġpoet ry
ĠUS S
Ġconv oy
ig en
ri or
d in
Ġwatch ing
Ġv ision
end ment
ull ivan
h and
l s
ĠCl inton
Ġperiod s
ĠGre ece
ĠKn ight
Ġemot ional
ĠStew art
ro t
Ġbo il
Ġe at
ĠM un
olog ists
ĠC ru
ĠCh amber
Ġ192 9
Ġb es
ĠN ob
og an
um ph
Ġ25 0
Ġreb ell
Ġthous and
op ter
Ġ5 3
Ġaud io
ĠT s
ĠPrinc ess
ĠA I
Ġreview ers
ĠQue ens
ĠFound ation
Ġo cean
Ġimp ressed
Ġterrit ories
Ġvide os
ro ke
ĠL ast
Ġ192 2
ĠColor ado
ĠSil ver
Ġresident ial
Ġform ally
iam i
ĠN C
Ġdet ailed
ĠCroat ian
Ġbe ach
Ġte eth
bor ough
Ġtr ained
Ġint ense
vi ation
Ġunivers e
ĠL ane
ĠGu y
Ġimpr ison
ĠA uthor
ig s
Ġ191 1
Ġn eck
Ġpubl isher
Ġhun ting
7 4
ĠP ope
Ġform at
ĠC ook
ĠSam uel
Ġsym pt
ĠBalt imore
enn is
7 1
Ġnot ably
Ġlear ning
Ġnegoti ations
Ġtest s
Ġencoun tered
Ġ192 7
ĠAust ria
m ile
ĠR aw
ĠCh ronic
Ġtem por
ĠAnth ony
Ġs ke
Ġbr idges
ĠSp e
ĠAs ian
Ġut il
ĠD eb
ĠL i
Ġwithd rew
Ġag ents
Ġsubstant ial
ic er
ĠR AF
Ġpoin ted
Ġstar red
Ġent hus
Ġisol ated
ĠF ree
Ġdr iver
Ġbehav i
Ġvess el
Ġch annel
is p
id ae
Ġspec imens
Ġbe ar
Ġfe ud
ĠAr k
ruct ure
ĠGi ants
ol as
an z
Ġre un
ĠMod ern
Ġunderst and
et ime
ĠJ am
Ġs an
Ġin her
Ġp ounds
ĠA round
ĠWh at
ĠOr gan
ĠMus lim
ĠChampionship s
Ġpl ate
Ġgood s
Ġupgr aded
ĠL ate
Ġlink ed
Ġb ats
ĠHe art
Ġst able
Ġafter noon
Ġup d
Ġg ay
Ġ193 1
ch ing
Ġtest ing
Ġto ll
ic ine
Ġrep rodu
Ġdi agn
Ġp ull
Ġch ain
Ġfact or
Ġd iet
Ġrel ie
Ġcoll aps
ĠA cc
Ġst em
ĠH orn
Ġorgan izations
ĠRe lease
ames e
f ather
Ġr ich
Ġcr iminal
Ġdrum s
ell ite
le ased
ĠC ry
Ã© e
Ġref ers
6 3
ĠP A
Ġout f
ĠJo h
Ġpro ced
Ġsubmar ine
ĠLenn on
Ġcritic ised
Ġc risis
Ġw ear
Ġl iqu
ĠH orse
i able
Ġtechn ique
Ġfrequ ent
Ġnorm ally
Ġtur rets
y gen
ab ama
Ġfinal e
Ġwind ow
Ġtravel ed
Ġpolic ies
F C
Ġl ob
Ġper mission
Ġsim ultane
ĠAng lo
ger y
Ġdifficult ies
Ġengine ering
Ġdiam eter
il a
us al
Ġsur f
Ġsk y
ĠSomers et
ĠR AAF
ibb ean
ud a
Ġin sc
Ġv ul
atter ed
in ction
ok ed
Ġj unior
usc ript
Ġp in
Ġl ose
Ġwhere as
Ġadv ice
Ġpick ed
il st
ĠW restling
Ġsp ending
Ġres ear
Ġindic ate
ĠExp ress
Ġag ree
ĠTr ack
Ġpers p
ĠT al
Ġcom ments
Ġt ie
h our
ic y
Ġpart ly
Ġdesign er
ur ance
ric ted
ĠM iami
Ġmain tenance
ĠFreder ick
ĠFor ces
str ong
Ġunc ertain
ĠS n
Ġcompet e
Ġconcer ts
ĠB ab
Ġmed ium
ĠJes us
S ince
Ġt aught
ĠB enn
Ġpart ially
ĠTreat y
Ġe asy
Ġby pass
Ġrem ove
Ġref uge
ĠNever theless
Ġv ice
Ġapp rec
Ġperson ality
hel m
Ġdet er
Ġwind ows
Ġse ats
g ro
Ġpro hib
ĠO bs
ĠSt ock
ĠCan al
e u
aw s
ĠE st
Ġrecomm end
Ġp ed
' ,
m ers
we et
Ġf il
ĠJ ason
is d
4 1
ĠUS A
ĠPlay er
Ġdang erous
ĠTh or
Ġr ates
Ġpro port
Ġprompt ed
m ill
Ġh appy
Ġrep air
Ġcover s
ĠSe attle
Ġrecord ings
ĠC z
Ġrest rict
Ġ9 5
ĠS ab
ĠC ur
Ġsu re
over s
ĠMar io
for ced
ĠTre k
Ġf ighters
Ġmain stream
Ġdescrib e
Ġph r
Ġg ather
Ġfor cing
Ġdestroy ers
Ġrare ly
ĠH ans
Ġch ronic
Ġdiv or
ĠUl t
ĠHe avy
Ġhon our
Ġm amm
Ġrepresent ative
ĠMarsh all
c ons
Ġshe ar
Ġm ir
ĠBro s
) :
Ġj ur
ĠUn like
Ġneighbor hood
ĠCar ibbean
Ġh ockey
ag g
ĠTown ship
ĠB uck
ant e
Ġver se
ĠB ed
ĠYan ke
ĠWith in
Ġch urches
Ġexam ples
iv ated
Ġsy mp
Ġstri p
Ġbas es
Ġmon ument
Ġant icip
Ġt ub
Ġappro val
Ġfall s
ĠW ing
Ġunder w
ĠCro wn
ĠRe al
Ġdyn asty
Ġh uge
ĠF I
Ġ192 8
ĠK now
Ġin aug
Ġh ull
ĠI owa
Ġtrav elled
oun ced
Ġlow est
ĠAl abama
Ġdif f
Wh at
P A
og y
Ġal ter
ĠAustral ians
Ġdomin ated
Ġadj acent
Ä į
i ac
Ġprot agonist
Ġ192 5
Ġc a
hen s
Ġhous ing
ã ģ
al ions
Ġp hen
Ġpartn ership
s elling
ĠDie go
Ġbr and
ĠMin istry
ack ed
Ġmin imum
ĠMiss iss
the l
ĠGram my
ot ten
Ġlist ing
Ġ192 4
Ġdisplay ed
ĠP C
vel t
or ph
Ġas ks
ĠMal ays
ĠGil bert
w as
Ġdo ctor
ĠMin nes
ĠSim p
Ã §
Ġdr iven
Ġf ung
st ers
Ġvill ages
ĠH amp
ip ped
Ġjoin ing
ĠSar ah
im eter
j amin
Ġref ere
ĠSen ator
Ġdraw ing
Ġad m
Ġcan al
Ġeth nic
sc ale
Ġ5 6
ug by
Ġ189 0
Ġcoll apse
Ġt one
re ated
Ġm ile
ĠG arden
Ġcop y
Ġtrib ute
ĠLaw rence
Ġmom ents
Ġdoll ars
Ġover s
Ġstorm s
Ġappoint ment
Ġadv is
Ġrad ar
Ġsurv ive
Ġscient ists
els ewhere
Ġelimin ated
A m
Ġ elsewhere
ĠA ud
Ġround s
Ġsaf e
Ġext reme
Ġpaint ings
ec raft
onna issance
Ġnewsp apers
ĠNap ole
id ers
Ġdesign ation
Ġprec ip
Ġvict ories
ĠD esc
ou ri
ĠLeg acy
ĠH ockey
un c
ĠSimp son
Ġtreat y
ĠB uff
Ġdisp ute
se e
Ġpurp oses
P h
ro c
ĠHe alth
Ġm and
rup ted
Ġoccas ions
7 3
Ġarr iving
hatt an
ĠH ills
Ġtre nd
esp e
ograph ical
ord ers
Ġposs ession
Ġmor al
Ġar ts
ĠBelg ium
ro id
Ġhelp ing
r im
ĠMed al
Ġman uscript
Ġtr uth
ĠGuard ian
5 2
ri x
Ġoccup ation
op p
Ġor b
old s
ose velt
ac le
Ġfac ing
Ġkeep ing
ĠM ach
Ġbenef it
Ġact ed
Ġexpl o
Ġmur d
b oy
Ġb oys
ur d
Ġtr uck
Ġval ues
Ġp ric
Ġj u
ob ile
Ġhel ic
ĠRep resent
A nd
n ik
ar on
Ġsur prise
Ġa x
Ġp ool
Ġcover ing
Ġlo an
Ġg at
Ġmar ry
ĠPen insula
ĠT y
ather ine
ĠCount ry
8 8
ĠD ave
re ation
ĠO t
Ġres umed
Ġinn ov
E C
Ġo ption
ĠR a
ris ing
Ġ192 3
Ġsu icide
Ġsched ule
Ġdeg rees
rom e
Ġmin imal
Ġtw in
inc ial
Ġcandid ates
ra wn
ĠAl ong
Ġ x
Ġab ilities
spec ies
Ġf ishing
ul ating
Ġth in
Ġpil ots
mun ition
Ġsurviv ors
ĠH and
ok ing
Ġcompet ed
Ġso il
ag en
Ġpublic ly
ĠK han
ĠR oc
Ġgener ated
ĠH u
in cluding
et he
f ound
Ġor bit
Ġstrugg le
ĠUS D
ĠAd minist
5 6
Ġw edding
Ġ6 00
h u
ram s
ĠVietn amese
Ġw et
Ġd ies
ĠB anks
ĠMinnes ota
ens ions
Ġdoes n
B est
ĠIndust ry
Ġpro sp
Ġrhy thm
m ph
ad i
ĠA C
ac c
Ġn ations
ĠD ur
Ġc ateg
Ġp age
il ty
ĠMan hattan
à ¤
Ġr ivers
Ġbusiness es
9 8
v y
Ġadv oc
st orm
Ġal ignment
Ġco oper
Ġarg ument
iss ue
Ġopp onent
Ġdefe ating
Ġass ists
Ġcreat ive
Ġcust om
ĠH ud
Ġle m
ĠAn na
Ġgro wn
Ġte aching
Ġgr av
cept ion
5 1
st al
Ġback ing
Ġbal ance
ĠTr ust
Ġm ines
ĠR ang
it ated
Ġto t
iven ess
Ġmult i
Ġcred its
Ġcons ult
ĠRo osevelt
ĠTurk ish
Ġsympt oms
Ġw rest
Ġfound ation
Ġl ists
Ġbeh alf
espe are
Ġsu itable
ipp i
d ef
ct ic
Ġt elling
pl er
ĠFrank lin
Ġseek ing
an ium
Ġre pr
Ġconc rete
Ġ190 8
ĠAlf red
or i
ĠL in
if er
Ġ190 5
al ities
Ġschol ar
ĠHot el
ot es
Ġs ank
Ġfl ash
r ations
Ġunderst anding
Ġagric ultural
Ġc iting
Ġover t
Ġfif teen
Ġforest s
onym ous
d r
Ġb rick
Ġd anc
et on
and al
ĠCharl ie
c ru
Ġw aves
od ore
Ġencoun ter
r m
z z
as ters
Ġmultip l
x ual
Ġinter act
Ġpercent age
ĠO p
Ġsub mitted
Ġrep airs
Ġsit uated
Ġbomb ers
Ġinstrument al
ĠÃ Ĩ
Ġt enth
Ġam munition
Ġpar ish
ess ee
Ġco ordin
Ġsubject s
Ġtun nel
. '
or ious
ĠL l
am ic
un ch
ĠJ ess
l ah
ĠA ff
Ġelect ronic
res ents
Ġ5 7
Ġem peror
ĠNaz i
Ġm art
ĠK ansas
Ġser ial
Ġel abor
Ġill ness
d ale
Ä ĥ
ĠH ong
ĠChild ren
M ar
Ġs unk
ĠB an
Ġv ic
ĠBen jamin
ĠAre a
Ġ190 9
st yle
ol ly
Ġclos ing
g ate
amp s
Ġsign s
ĠB ull
rop h
Ġimp ossible
Ġpo ison
ĠPort land
Ġchang ing
Ġattend ance
T r
Ġask ing
ar ant
ĠThe n
Ġ9 9
Ġcollabor ation
Ġmic ro
ĠD iv
Ġfun ctions
Ġaud iences
ĠI an
Ġun like
Ġrestaur ant
qu ir
ĠE vent
Ġfl ights
ĠPol it
Ġfeel ings
Ġag ed
ĠBl ues
Ë Ī
Ġh at
ĠE xt
Ġass isted
Ġaff airs
od ge
ĠR and
Ġsign ing
5 3
qu es
Ġj unction
Ġtar gets
Ġf iring
ĠA thlet
itche ll
ĠA h
Ġass ess
Ġinit i
ĠH indu
ĠW ard
ĠK al
Ġdisc ip
Ġsm ooth
S te
Ġp y
ĠThrough out
ĠWalk er
h ist
u able
Ġaff air
Ġdoc uments
u v
at ics
Ġsusp ended
7 00
Ġcar go
Ġfor ty
ĠAn im
ĠN at
ĠN ash
ĠC all
Ġunder ground
Ġfun eral
ish ment
Ġus ual
ine a
ener ation
Ġ7 8
iss ions
Ġmount ains
b ishop
ur ring
ĠShe l
Ġearth qu
Ġle ct
Ġox ygen
Ġcomp ilation
Ġab ol
ĠT un
ĠCo le
Ġ190 7
ĠBu ilding
t ty
ĠM es
ĠH uman
ĠâĢ ľ
ĠPhilipp ines
ĠW ol
Ġsk ull
Ġf iled
Ġstat ue
Ġprofess or
ĠLouis iana
f ish
Ġwill ing
ĠD ance
ĠDep ression
Ġexplos ion
Ġdis aster
id el
ĠC amer
Ġcontro ll
inent al
ell ent
M ost
Ġpl atinum
Ġsequ ences
ĠR ap
Ġfavor able
ĠR ace
ĠHistor ic
s ized
ĠL ad
ate ur
anc ell
ĠCamp bell
Ġtempor arily
ĠD C
ĠL im
Ġart work
Ġadop t
ĠTenn essee
Ġn inet
Ġpoor ly
Ġpit ched
Ġneut ral
Ġentertain ment
Ġdel iber
ĠLa ure
Ġaim ed
form ation
Ġcor por
Ġsp an
G eneral
T A
ĠF ried
Ġmeas ured
ĠAlex and
Ġ11 0
s ec
Ġw ore
Ġw orship
ĠG ab
Ġel der
ĠD al
ĠF al
ĠK urt
p op
ĠS ullivan
ik a
Ġoper ational
ĠInter state
Ġshell s
ĠShak espeare
d ie
Ġro ut
Ġprepar ation
ĠWrit ing
ch o
.. ..
Ġrecogn ised
ĠN ative
sh ore
yl an
ĠMont real
r idge
ment ed
Ġk ne
ĠH ind
Ġgr ade
art ney
Ġoff ering
Ġall iance
ath y
Ġw reck
ĠT ag
Ġn om
ĠFl ight
Ġcomple ting
Ġref lected
Ġres idence
Ġmar gin
el lect
ĠChrist opher
Ġrel uct
Ġrepl acing
h ire
re ted
Ġrest oration
h igh
Ġto uring
Ġan ch
u ary
ĠBr un
ĠMississ ippi
% .
en z
Ġb anks
ĠLab our
w a
ĠM P
over e
Ġex it
Ġviol ent
Ġdec ides
ĠA le
ell o
Ġam ounts
Ġb ot
Ġl ieutenant
Ġcover age
Ġsuggest ing
ĠMiss ouri
z ona
Ġfif ty
ĠEgypt ian
Ġcanc elled
Ġexp ensive
Ġspirit ual
ĠK ings
Ġs ector
ov a
ok es
Ġesc aped
ac on
Ġ5 9
Ġdirect ors
Ġamong st
ĠL am
ur ally
Ġrep resents
r age
in ations
Ġrebu ilt
ĠCom b
Ġarg ues
Ġ188 0
L C
c ut
ĠH em
ur day
ĠD w
ĠV I
ĠGu ide
Ġer upt
Ġtrib es
ĠLuc as
ĠInd ies
Ġeng agement
Ġre ven
Ġcommun ication
ĠPal est
ĠPer form
Ġcolon ies
Ġfr ig
ĠCub a
Ġj azz
Ġcontrib utions
Ġplayoff s
ĠW olf
iet ies
Ġpattern s
Ġpul led
W C
ĠC yr
Ġalco hol
Ã º
Ġs olution
Ġpersp ective
ĠM ack
id ency
Ġspe aking
Ġpred omin
Ġintens ified
Ġun n
writ ing
ĠB ox
Ġnuc le
Ġhor ror
t wo
Ġsub t
ĠApp le
Ġmerch ant
Ġregister ed
Ġremn ants
ĠN on
Ġinterest ing
ĠMic ro
ĠV inc
Ġown ership
overe ign
Ġinstit utions
ĠKir k
Ġpr ime
Ġ Ä
ĠSte vens
Ġcrew s
Ġbound ary
ĠMarg aret
Ġw el
ĠE c
Ġex ecut
Ġpres erved
ĠAri zona
Ġc ous
ast s
Ġmark s
Ġdro ve
k es
Ġg arden
og a
Ġr it
ĠK u
Ġlik ed
or er
Ġarm ored
oc c
Ġexpl ains
Ġmilit ia
ĠM itchell
ind ing
Ġret ail
Ġcharacter ized
Ġcirc uit
Ġs aved
up er
ect ic
Ġformer ly
Ġr acing
ov en
ell i
ĠDe ad
Ġaff ili
Ġcompar ison
om ber
Ġim perial
r ine
ĠN ag
u ations
Ġlack ed
Ġbul k
ĠBure au
Ġ190 6
l ings
Ġ190 4
Ġbow ling
Ġadministr ative
9 6
um a
Ġarm ament
ĠInit ially
ĠWar ren
Ġexpl ain
Ġflag ship
ĠS on
Ġrid ers
Ġarr ive
Ġexc av
Ġin land
ĠG et
Ġinhabit ants
iv ia
Ġpo ems
sequ ently
itzer land
Ġ *
ĠD est
est one
I V
Ġman eu
Ġpract ices
ĠS i
ĠI ce
Ġev il
Ġcontrol s
Ġcon text
Ġsever ely
Ġfam iliar
Ġrank s
Ġbad ly
ot ton
ĠD om
Ġr ising
I S
Ġth rew
r ast
ĠC old
Ġover w
Ġnot ice
Ġgen etic
Ġcond em
b ra
ĠRet urn
Ġt ag
Ġkey board
ĠCz ech
Ġart istic
gr ad
Ġwid er
lah oma
ant on
ang le
Ġdra f
Ġres olution
ĠSte ven
Ġdemonstr ated
Ġf aster
ĠM L
ĠSc out
enn a
Ġre aches
Ġpr int
Ġ17 0
ĠHer o
Ġfall en
Ġnomin ations
Ġk ings
Ġnorth ward
ĠPh oen
ĠTam il
ĠIndepend ent
Ġthink ing
Ġappl ication
Ġexhib ition
rupt ion
Ġrec ip
p ound
Ġb ronze
ph a
Ġrev ol
Ġw ants
im m
Ġhousehold s
Ġg rey
Ġ187 0
Ġsur ge
ock ing
ĠConfeder ate
d y
ur er
ĠC ob
ĠM ess
Ġdep ending
ro se
Ġ7 2
Ġrest ricted
Ġpred icted
Ġdram atic
ĠP ed
ith uan
port ed
Ġdistinct ive
d o
ow ed
Ġp ace
ĠS ony
Ġag ency
Ġprep are
Ġg ang
Ġsub species
ĠF riend
ip h
Ġte x
Ġacc eler
ĠFeder ation
Ġb ay
uk i
o a
Ġob tain
Ġartic les
Ġbeaut iful
Ġg od
az ing
al so
row s
ĠPri or
r ac
ro ck
ĠM aur
ple te
T wo
im en
Ġev olved
p an
Ġwhe el
st s
Ġfound er
f olk
Ġear ning
Ġsur gery
asc ar
Ġst ores
Ġall ies
ĠProg ram
Ġrepeated ly
Ġbi ographer
ĠSat urday
Ġpal ace
ĠGra ham
er k
ĠN ar
Ġsh ield
ĠEd ge
ript ions
ĠWil helm
Ġclear ly
Ġpredecess or
so ft
Ġme at
ĠG rey
ess es
Ġsl aves
v ant
ed ed
Ġelect ron
ĠSw itzerland
Ġdistingu ished
Ġdis agre
Ġphilos ophy
Ġab und
Ġremark ed
Ġg ate
Ġr ig
m i
augh ters
F iles
Ġsign al
ih anna
Ġfr ust
Ġap artment
Ġcho ose
Ġm ental
Ġsy nd
Ġcar riers
Ġlo op
8 9
ĠMag n
ro v
ann on
Ġbatt alions
Ġcircum stances
Å «
Ġpr on
Ġ7 6
Ġ13 0
Ġquarter back
ard o
5 4
Ġsurre nd
Ġmeet ings
ĠR ico
Ġper ceived
Ġtri ple
O S
Ġg ap
Ġv s
ĠBus iness
em en
Ġwest ward
ĠV is
Ġwas n
Ġatt ained
el and
Ġbomb s
Ġblock s
ap olis
Ġsat ellite
Ġvul ner
â Ģ
ĠC ow
Ġg ust
b ow
Ġcur ren
Ġcoin c
ĠAbb ey
Ġdrug s
he ld
Ġst orage
ĠE conom
ming ham
Ġwh ilst
Ġcivil ian
ĠDig ital
Ġmat ters
ĠAust rian
Ġph one
vent h
yl er
Ġread ers
Ġdomin ant
Ġspot ted
Ġv el
Ġuse ful
Ġprin ted
ĠOk lahoma
p erson
Ġt yphoon
ĠR idge
hy l
Ġarm our
Ġfix ed
ot al
Ġver tical
Ġfal se
ĠC R
ĠL iz
Ġcons ervative
Ġsk et
ĠPers ian
Ġpe aking
Ġvis iting
e ast
er g
ĠR en
Ġide al
l ain
Ġinstit ution
ag h
Ġdem anded
Ġfriend ship
ĠMur phy
Ġret ain
Ġleg acy
Ġplan ets
p iece
Ġsimilar ly
Ġprote in
ĠS now
in ian
est yle
ĠCamp aign
j an
Ġb oss
ĠHung ary
Ġille gal
Ġv ast
ĠDen mark
Ġh olid
Ġst rict
ater n
n i
Ġs isters
ĠCh and
Ġfast est
ĠTer rit
Ġ6 3
f r
Ġins isted
Ġrec onnaissance
Ġ7 7
Ġcreat or
ĠBl ood
ed ing
ak s
Ġg ard
Ġ6 6
ĠDr agon
u ly
ĠS che
st an
Ġint ellect
ĠRail road
ĠPri ze
Ġsimultane ously
ĠHar v
Ġport ions
Ġphen omen
j e
gh an
Ġcast ing
ĠHal o
c ase
ĠB h
oc ation
au x
ĠRec ord
Ġcom fort
Ġqu iet
Ġserious ly
an ches
Ġr ub
Ġy ield
Ġmain land
ar o
ĠK l
Ġdem ands
ĠAtl anta
Ġbehavi our
Ġaut obi
Ġl anes
ir ty
Ġre venue
est ed
Ġaltern ate
ĠBase ball
Ġal ive
Ġdr ivers
II I
N C
Ġjust ice
Ġfem in
Ġorchest ra
ĠD ylan
Ġcon sole
Ġaud ition
Ġperson ally
ĠYanke es
od ox
reg ation
Ġstrugg led
ĠCy cl
ĠB illy
Ġarm ies
Ġjob s
Ġenl isted
os m
ĠS oon
ĠU E
ĠMad ag
ĠN ik
Ġprom ised
Ġ190 1
ĠDel aware
Ġob vious
ĠPer ry
az ines
ĠTok yo
fl u
ĠR ing
ĠHar vey
th a
ĠL ov
ĠIntern et
f our
Ġth or
Ġincre ases
Ġc od
Ġd iver
ou ver
Ġre vers
o ons
Ġm igr
Ġ6 8
Ġcount ies
Ġdiscover s
Ġcompl iment
ĠPit ts
Ġk W
ĠLe x
Ġcontin u
Ġaff ect
Ġbomb ing
Ġlay er
Ġcomp ens
Ġro ots
Ġ8 8
ĠB omb
um ps
Ġguitar ist
Ġstrengthe ned
Ġpurs ue
Ġterr or
Ġt ack
ĠA ld
ri p
Ġ190 2
S A
Ġbelie ving
ĠS uch
ĠC her
Ġfact ory
claim ed
O T
s he
Ġp ages
Ġhead ing
Ġmarket ing
d es
h ous
r ank
ĠP rom
ult an
ĠF em
Ġstr ing
Ġabs ol
ĠKar l
Ġathlet es
ĠH op
Ġdisc ont
Ġrul ing
Ġbon us
m und
tar io
Ġs q
ter bury
ĠJu an
Ġ190 3
ectic ut
ĠT el
Ġch amber
Ġcl othing
Ġart ific
Ġcul min
M I
P l
Ġp ione
Ġpat ron
ou stic
ri ent
Ġport s
Ġfr ame
war f
er ies
Ġdeliver y
Ġdemol ished
Ġfore cast
Ġthe ater
ĠM ik
ĠCl ar
in ces
ĠE P
ĠMic hel
Ġoverse as
ĠR at
Ġdef ences
ir ts
Ġacc um
ro us
angu age
Ġsuc ceed
ĠLes lie
Ġdeter ior
Ġprop ag
ĠOrig inal
I nd
as ant
ĠL ang
Ġcomp ounds
Ġsett lers
Ġren ov
Ġlegisl ature
Ġwa iting
ĠImp act
ĠSm all
Ġeng age
M any
ĠBar ry
ĠEnter prise
own ed
aj a
Ġb id
an ia
ĠR ights
all ing
ens ively
Ġhigh ways
Ġgu ilty
Ġmob ile
Ġal tered
ĠIn n
Ġcan cel
it is
Ġafter math
Ġdec isions
Ġob lig
ĠN ixon
ract ion
Ġv oy
ĠSe ven
sp e
ĠMadag ascar
ul ous
if ies
Ġ6 1
m od
ĠOn tario
Ġcampaign s
Ġs ick
ĠAll ies
Ġsecret ary
Ġexp and
Ġor n
Ġsur pass
Ġfriend ly
Ġdr ink
ĠGr ay
ot te
Ġpan el
Ġdissip ated
Ġship ping
Ġorgan isation
am ents
Ġsc en
Ġconvers ion
at ropical
ĠD a
Ġper mitted
Ġimpro vements
f le
Ġmusic ian
O K
Ġc up
ag s
ues e
Ġconf ron
Ġd ancing
Ġk iss
Ġlook s
h um
ĠC hel
ĠM uch
ĠBr ig
ĠBroad way
Ġacknowled ged
Ġt ight
Ġ7 4
Ġexp ression
Ġgrad uated
Ġhor iz
Ġobserv ations
Ġaer ial
ĠOb ama
Ġs alt
ĠA my
Ġst ress
ok er
iv ation
ab e
9 4
ĠP le
ĠV e
anc ouver
ĠEd wards
Ġconcent ration
Ġtrav els
Ġmin ing
Ġpublic ations
Ġer ected
Ġobject ive
ĠConn ecticut
Ġwealth y
Ġd anger
Ġ( $
ĠFurther more
it udes
Ġelev ation
ip per
Ġindic ating
ĠA BC
ĠP ars
Ġpl us
Ġmay or
Ġtro uble
ĠDef ence
it als
ar ry
ĠB aker
ĠL ithuan
ke eper
Ġsol ar
Ġven ue
Ġfew er
Ġw ait
ĠR ihanna
up iter
red its
Ġevac uated
ent le
Ġpro ve
Ġsp ir
Ġorig ins
ĠCan terbury
ĠBir mingham
Ġinterpret ation
Ġrequ ires
Ġstation ed
ĠWork s
S everal
Ġrang ing
ĠArn old
ĠA R
Ġexec ution
ad ier
ĠM aj
Ġsit ting
p ent
Ġp ale
Ġorigin ated
Ã ¦
Ġremov al
Ġraid s
m aster
Ġw restling
Ġm ac
Ġannounce ment
ĠPhoen ix
r in
ir acy
ĠF arm
Ġdeb t
it ively
ang el
Ġdoub t
ug g
Ġarrang ements
ĠWay ne
ĠHud son
Ġh app
ĠH aving
Ġrebell ion
ĠE very
as a
Ġmag azines
ĠMr s
Ġchap el
p ow
he ars
Ġs ung
ĠS et
enn ium
Ġreal ized
Ġcelebr ated
Ġan th
Ġextr atropical
Ġjur isd
D av
s m
Ġdon ated
Ġfe els
Ġdef ending
Ġconn ect
Ġb aby
Ġ7 3
ĠMin t
Ġrank ing
ist a
Ġlist en
ot yp
ĠF if
Ġapproach ing
Ġstep s
Ġsh orter
ĠMount ains
ĠCommun ity
H ung
Ġ6 2
Ġexpl an
ĠPlay ers
Ġcolle agues
ĠSp art
Ġins ects
ĠIr an
Ġasp ect
à ¸
her s
Ġtur ret
Ġconn ecting
Ġliqu id
ĠV ik
Ġsup ple
Ġconsid ering
Ġinit iated
ĠT rophy
ad al
pt y
ĠP ubl
ĠR oll
Ġsold ier
j oin
v o
Ġh orn
Ġcons cious
Ġdiscuss ion
ĠUnivers al
Ġ3 60
Ġdec ide
Ġtheat rical
id al
ĠR ub
ĠSh aw
Ġvol umes
Ġgat hered
all as
Ġpl acing
Ġpubl ishing
Ġbattle cru
Ġtub es
ĠAdminist ration
b al
Ġh ook
ĠMc L
5 7
th at
ĠV ancouver
Ġwithdraw al
Ġhyp othes
ĠMcC artney
ĠJos h
Ġcann on
ĠEd in
ĠPear l
Ġindic ates
Ġexact ly
ĠS oul
Ġon going
Ġfound ing
ĠN ear
Ġmon itor
Ġhost s
Ġtal ent
ĠC ost
elt a
ĠPot ter
Ġcom ed
W ill
Ġneigh bour
Ġappropri ate
y es
Ġland scape
Ġdem ocr
ĠT on
Ġmark ets
E l
Ġb ones
Ġcollaps ed
ĠC ra
ĠMor rison
Ġstrateg ic
h in
Ġh idden
av or
Ġ9 8
Ġgu arant
Ġred e
Ġvis its
aut ical
ĠS ak
h is
ag ger
ĠHamp shire
ay an
Ġstrik ing
ĠJohn ny
ĠDr ive
ĠJon athan
ĠBern ard
f ive
Ġc ub
al ph
Ġclos est
ĠJim my
ather s
Ġspec imen
Ġt ort
oc y
Ġ8 7
ram a
or ia
ĠS ig
Ġst ick
Ġen cl
Ġchalleng ed
Don ald
Ġn et
Ġmus h
Ġorgan ised
ament al
ip er
pl ed
ric ts
Ġdu o
bo at
e ared
on ica
ĠM anu
ĠCh ampions
Ġexp osure
ir ates
ĠO pp
air craft
ĠD S
ĠM ans
Ġse ized
Ġattend ing
Ġf antasy
ol ve
ter ior
Ġconf ront
Ġconcent rated
igen ous
am an
Ġann ually
) "
ĠW ag
ĠCh arts
Ġgl ac
ĠPe ace
ĠFore ign
uzz le
over ed
Ġcor ps
ĠKe ith
ĠWind ows
ĠGri ff
ĠR achel
ĠF el
9 1
ĠMc M
Ġmembers hip
Ġident ify
u art
ĠG ate
Ġsp ac
iet h
imet res
ĠPak istan
I s
Ã °
Ġoff ense
Ġyoun gest
Ġo dd
Ġdog s
Ġrang es
Ġ8 00
ĠFr iday
ĠB ath
ĠP att
ph one
ĠSy mph
Ã¼ r
ĠEdin burgh
Ġess ential
Ġvo iced
ĠNapole on
ic ity
Ġn avy
Ġpart ial
ĠMar ie
wh ite
be at
Ġinvestig ate
Ġt rough
ec ution
ĠCh ampion
19 0
Ġwalk ing
Ġb reat
Ġb acter
ĠC ov
ĠSt at
Ġqual ified
Ġd ressed
st age
ot ion
Ġbas in
Ġsw itch
ĠTri ple
ĠS hip
port ing
ĠEvent ually
ĠT odd
Ġdes ert
ad ers
ĠH ann
ĠL ess
Ġrad ical
ĠBrad man
ĠG oth
Ġsk i
Ġce ased
Ġestablish ing
Ġportray al
b ut
Ġlim its
Ġpred ict
we ek
ĠMet eor
Ar thur
Ġmag ic
c ow
Ġan ime
Ġsuppl ied
t i
ĠJ upiter
Ġwaters hed
Ġadvert ising
Ġj ury
Ġpri ze
Ġhydro gen
ĠT it
ĠH ugh
Ġass embly
Ġdel ay
Ġstrong est
l ad
ov iÄĩ
Ġbirth day
Ġexerc ise
Ġcirc le
s l
Ġ8 2
Ġbe am
Ġreg ime
ĠCon vention
Ġpromot ional
Ġquestion ed
Ġphotograph s
ro ying
ĠL ion
Ġflood ed
Ġm emor
um ble
ham mad
Ġfort ress
Ġagg ressive
ens ed
Ġcons ervation
Ġ6 7
Be fore
Ġunderw ent
b el
Ġrepl ied
Ġd in
ĠAb d
Ġmer ely
E x
ic he
Ġemploy ment
Ġsend ing
Ġch ampions
Ġsh ift
Ġput ting
L ike
Ġfor g
ĠW or
Ġprov ision
ĠBob by
b es
ĠChronic le
ĠO d
Ġfor th
Ġex ha
olog ies
Ġunc lear
Ġsoft ware
Ġconvent ional
Ġto x
ĠLe gend
Ã© s
Ġ14 0
ĠAf ghan
ĠM ission
ĠF at
P r
re leased
Ġf urn
ĠYork shire
h aw
ass ador
Ġlaw yer
Ġp apers
ĠDemocr ats
Ġtick et
ĠN AS
Ġco ff
ann er
Ġrepresent atives
ĠN ine
Ġout put
Ġgu ide
ĠBos n
ill es
ĠY e
ĠTr acy
Ġcou p
Ġimag ery
Ġatt itude
Ġlaw su
oc a
Ġsh arp
Ġmon aster
Ġthir teen
ĠA y
ist ent
Ġco at
Ġcomment ary
ĠPortug uese
as hes
ĠMe g
ĠRes erve
Ġagg reg
Ġend ors
Ġwick et
am as
ate ver
Ġc ock
Ġd aughters
Ġpers ons
ĠVill age
ro at
Ġball ad
Ġsurrend ered
at ches
ri ors
Ġarr ives
Ġten ure
Ġtransl ation
Ġaccompany ing
f rom
Ġte ach
ĠBrother s
Ġb ond
Ġpl ain
Ġgr ave
Ġprov incial
ĠChristian ity
l on
ĠB eng
Ġsuccess ion
c alled
Ġpar ody
ĠPerson al
f eld
ĠL as
Ġleg it
Ġemp ire
Ġdub bed
ey er
Ġreinforce ments
Ġ" ...
ol en
Ġcru c
ĠCrit ics
9 00
O C
Ġb one
Ġb ishop
Ġchar ter
ĠDw ight
ĠL at
ell ation
ur as
Ġst reak
ill iant
Ġpric es
Ġbr anches
Ġelectric ity
ĠG ary
art ed
Ġcomp onents
Ġcous in
Ġbur ial
Ġassemb led
Ġqu een
ĠFin land
ĠArgent ina
Ġm al
Ġmov ies
Ġstar ring
Ġcomp rom
ĠY ears
ty pe
Ġpict ures
as m
Ġsp aces
Ġret ro
Ġterr ain
ic le
Ġbr ig
Ġemphas is
] ,
emb r
' .
Ġs ang
ĠB ach
ĠB oys
ĠN a
Ġexclus ively
ĠL ib
Ġun less
ib ilities
ĠQueens land
on ian
Ġb en
Ġf ill
ĠHer itage
Ġprecip itation
Ġl es
ĠM em
Ġ18 60
Ġgovern ments
Ġcompet ing
Ġreve al
Ġdev ices
Ġbe ats
Ġdr inking
Ġto pped
Ġpre v
Ġmat ure
Ġweek ly
ĠW ii
ĠL t
Ġex ternal
az e
Ġche st
Ġexperiment al
M E
ĠD ub
ĠVictor ian
Ġsc attered
ĠAl ice
Ġst ops
Ġis ot
Ġtrad ed
Ġfun ny
Ġfail ing
Ġdefin ition
Ġexper t
Ġstrong er
Ġexc ellent
writ ten
ĠGirl s
9 7
Ġcent ers
Ġdevelop ers
ĠMon te
Ġun com
Ġflow ers
ĠHawai i
ĠRang ers
g ie
Ġplatform s
ĠHung arian
p ike
it ched
Ġconsid ers
Ġproduct ions
Ġinv ent
itar ian
Ġac oustic
gr ade
Ġfeed ing
ĠL aur
Ġred es
Ġident ical
Ġeduc ational
Ġster e
ĠF und
et o
Ġsl ave
Ġ189 3
Ġb anned
Ġp el
Ġcomp onent
Ġ9 6
ĠEm my
Ġcontrib ution
Ġunc le
Ġtalk ing
ĠBook s
ac les
Ġredu cing
enes is
O ther
ĠG ene
Ġcomp r
Ġvar ied
ĠProt est
ĠUE FA
Ġre verse
ĠÃĨ thel
rast ructure
ĠT ig
Ġfoss il
Ġb are
le m
Ġpro ceeded
Ġdev ast
mon th
Ġboil ers
Ġd uration
Ġra ising
Ġinters ects
ĠPri x
Ġsle ep
ĠH ur
Ġed ited
Ġdest roying
it ely
Ġto mb
ĠHon or
ĠTransport ation
Ġsc r
ĠOl iver
S R
ro d
ĠD ale
ĠGl en
Ġswim ming
Ġc ad
ot ing
ĠO m
Ġrequire ments
Ġoverw hel
Ġre ward
ĠL en
ĠMar vel
Ġelect rical
ĠNor folk
ĠNC AA
Ġtex ts
u ating
Ġat omic
Ã¶ n
Ġfour teen
ĠColl ins
Ġearthqu ake
P C
ĠC ricket
ĠJ ama
Ġadvent ure
g om
re hens
Ġhe ir
ab out
ens is
Ġpen et
Ġdens ity
D e
M usic
c our
th rough
Ġtrad ing
Ġ189 6
Ġdestroy er
Ġc ens
un ning
ĠD ak
ult y
Ġqu ad
lik ely
Ġsam ples
x im
ter y
ĠK ap
Ġdr ag
Ġport r
Ġ189 8
Ġt ip
ici ency
Ġw ish
and om
our ce
Ġair field
ax y
Ġhum or
Ġarchitect ural
Ġhe m
Ġburn ed
Ġs ad
ĠD iam
ĠAn c
ĠTurn er
en cing
Ġl ie
ĠM ong
ĠN atural
ck s
Ġpol ar
M ich
Ġin duct
Ġd ict
ĠA x
Ġrespect ive
Ġimm igr
Ġtalk s
ĠTra il
ĠIs a
Ġinvest ment
Ġliber al
Ġphr ase
Ġartific ial
ĠT ype
ĠM and
Ġsix teen
ĠT ak
Ġpra ising
ĠHow e
Ġdoll ar
ĠM alt
ĠP il
ĠJ oy
Ġchar ity
ff ield
raz y
h alf
Ġb ath
Ġrad iation
ĠMed ical
Ġto ured
ĠC elt
Ġun w
Ġflow s
ĠHard y
Ġtact ics
ethe less
c al
g on
Ã «
Ġconn ections
ĠServ ices
ing ham
ĠT ob
Ġwas te
Ġprofess ion
ĠBo at
Ġconsist ent
ĠGall ery
ĠM other
Ġsh ares
Ġpark s
gin ning
Ġcop per
Ġphot ography
P G
av ia
Ġus ers
st ory
Ġwe igh
oll o
h op
ist ing
ĠSe ason
Ġlab our
Ġparen t
s uch
ĠHar bor
8 6
Ġf isher
f low
Ġev al
read n
ĠFle ming
Ġcle ared
Ġton nes
Ġc yl
an im
Ġpat ients
Ġopportun ities
Ġcomm enced
Ġam ateur
Ġredu ction
Ġtax es
ĠLiber al
Ġthe rap
ar io
ig ious
ĠMay a
Ġdisp ers
Ġmechan ical
ĠE ug
ĠMos cow
Ġp ush
ro oms
Ġre organ
Ġth under
Ġhy br
Ġtransport ed
ĠF lying
Ġatt orney
T WC
t op
it ting
ut on
ĠBl u
Ġaut umn
up s
Ġ7 1
Ġsim pl
Ġadv ised
Ġqual ifying
Ġex ists
Ġrel ocated
Ġthe ore
Ġlegisl ative
ash i
sc reen
ĠBroad cast
Ġconstitution al
ow ski
ĠL ost
ces ter
Ġel ig
c ott
Ġcamp s
Ġimpro vement
Ġcut ting
Ġex ceed
8 1
ĠB ak
ĠP a
ill o
qu est
Ġcontin uous
Ġhand led
ĠBur ton
ĠH ob
st and
ĠAfter math
uss ion
Ġcommand ers
a very
ĠHarv ard
ĠJ ar
ord ed
Ġunderst ood
Ġcrop s
Ġc ir
Ġgr ay
Ġob sc
lin ing
ĠTr aining
urric anes
Ġrev olt
Ġsurv ival
Ġur anium
exp ected
S S
ri en
Ġcommand ing
ĠBel gian
ĠMark et
Ġwithd rawn
ĠOs lo
Ġp airs
ĠMar ge
Ġvot ing
ĠPitts burgh
ĠT NA
ĠG or
leg raph
Ġn it
ĠP am
ĠP ink
ĠD yn
ĠL ock
Ġcl ock
g el
ol ar
ĠSy ria
Ch rist
Ġminor ity
Ġmel ody
i oc
is ive
ut o
ĠR ab
se ud
Ġman ga
Ġprogram ming
Ġ189 9
Ġlearn s
Ġprom in
ĠLl oyd
Ġw ire
Ġn autical
Ġear n
Ġmin i
ĠAng l
ĠSw iss
est on
Ġvir us
ĠP y
Ġcon ceived
ĠK o
Ġ7 9
ĠC re
Ġdispl aced
Ġenthus i
E n
r us
at ra
as ks
ĠT an
ĠJ un
od a
Ġrefer ring
Ġhit ting
l en
ĠPr uss
Ġexper iments
Ġprincip les
Ġvo ices
ĠAnton io
M c
Ġw orn
Ġind eed
Ġprov inces
Ġrev ised
ation ally
Ġrock s
Ġse ed
Ġ18 50
ĠHug hes
ĠPet ers
ĠProfess or
or ig
Ġrival ry
ĠB ald
Ġtravel ing
ue z
ades h
ĠCommun ist
Ġprison er
Ġexpl icit
ĠSw ift
Ġrel atives
Ġappro aches
Ġpropos als
ĠBenn ett
Ã ¥
Ġs oph
Ġs overeign
Ġp ap
Ġdis char
Ġst uff
ah a
Ġwar fare
t es
Ġ0 9
Ġtrad itions
ĠSimilar ly
Ġwar nings
Ġrepresent ation
A N
ĠAnd re
ut ton
ĠJ erry
Ġlight s
Ġextend ing
ĠIndones ia
U pon
Ġab use
Ġprepar ing
H is
ĠK am
ock et
Ġimp ression
ĠAd v
An other
Ġcharacter istic
ĠPr im
Ġmultipl ayer
ĠK ane
Ġsign ature
Ġsum m
Ġcart oon
Ġcomp ound
ĠMay or
min ister
Ġinterp reted
Ã ¢
le ans
ber ry
Ġtransport ation
on ial
Ġair ing
ĠNich olas
ur i
ĠR alph
amb ers
Ġblock ed
Ġpow ered
ĠC urt
um ped
mer ce
Ġprot ests
Ġinterview s
Ġdispl ays
d est
Ġcar ries
Ġmed icine
Ġcycl ones
ĠMicro soft
Ġc raft
Ġf ulf
Ġ8 9
O ver
v ar
Ġc reek
ic ular
ĠB aby
ĠN i
oc ity
Ġreb els
st ance
ĠGu inea
200 7
ĠDar win
Ġtransl ated
Ġmar ine
Ġen force
ĠCra ig
Ġw ished
Ġfilm m
Ġcut s
ĠJeff erson
ĠPict ures
Ġre hears
ĠM ond
ĠDav ies
Ġparticip ation
Ġreform s
ĠFall s
Ġmar ch
ĠOff icer
Ġsal ary
Ġs ample
ĠR ud
ĠCamer on
ĠM ust
ark s
ĠVinc ent
Ġpre tty
Ġback ed
ĠSec urity
Ġarg uing
Ġabs ent
Ġjud g
Ġdist ant
ĠZ e
Ġspok en
ĠP ap
Ġrest ore
Ġestim ates
ĠDon ald
Ġang le
ĠForm ation
Ġcab inet
Ġs ings
Ġlight ing
Ġg arn
Ġun con
ĠDesc ription
ĠAust in
Ġcour ses
sc ar
Ġsignific ance
ĠP ic
and o
ĠShe ffield
Ġreview ed
Ġrul er
ĠCh ile
Ġvict im
Ġcertain ly
Ġrecover y
Ġrein forced
Ġexclus ive
Ġp unk
Ġn erv
ĠD allas
Ġ6 9
Ġpract ical
Ġmaint aining
ĠB ird
ĠF err
Ġdr ummer
Ġ9 2
ĠCl ay
Ġcon ce
Ġrele g
Ġbl ues
Ġdist ricts
ĠQue bec
er ver
ĠC atherine
ong e
Ġcinem a
Ġcon tend
ĠAl aska
Ġcompet itive
Ã© t
Ġcon ven
ĠU pper
Ġext inct
Ġappl ications
Ġpet ition
i ar
Ġcommun ications
Ġstat istics
Ġbene ath
Ġlov ed
R I
Ġ7 00
Ġmagn itude
Ġtow ers
ĠAuthor ity
ut ter
Ġwe b
Ġadvert is
Ġf est
Ġrec urring
Ġdec e
ĠOr leans
Ġval uable
ĠAg ency
ed ia
Ġaccur ate
ose xual
Ġbl ind
Ġshif ted
l ater
ab ilities
ach ute
cast le
Ġtest ed
ĠSte el
Th at
1 50
Ġl in
ĠH av
ĠTh ose
Ġup set
C ol
m usic
Ġ0 8
at ical
ĠW ells
ĠOr ange
ut or
Ġch ore
Ġscore s
b est
re ens
od ed
Ġshould er
ĠFin ally
Ġkill s
Ġa ft
it ate
ĠM ason
omet imes
f inal
Ġp m
art ing
Ġsur ve
Ġair line
ĠHer ald
Ġval id
Ġh ind
all s
aff e
back s
ĠWall ace
ĠGlob e
Ġin clusion
Ġun likely
ĠCat hedral
ĠC ass
land ers
ious ly
Ġ189 7
Ġans w
Ġdivers e
ash a
Ġsk ill
% ,
ĠS em
aid en
Ġfac es
l ived
Ġl ock
Ġgrad uate
ĠP hys
ĠAl i
Ġcre st
ĠGe off
20 10
ĠOrig inally
ĠConstant in
ĠK on
Ġcons olid
Ġnob le
Ġb ull
ĠR ic
ĠE mer
v et
ĠC ad
ĠG ot
Ġcl othes
Ġsum mit
y d
Ġthe ories
Ġcl ar
oid s
is ons
ĠV el
ik o
f ly
ĠC raw
Ġpar as
Ġsquad rons
ĠCyr us
ĠS le
ick ing
lev ard
Ġmor ph
Ġste ep
Ġchart ed
Ġmer ged
T ube
Ġm oon
ĠC hen
ĠR io
ĠQu est
ĠDef ense
ĠPars ons
ĠJohn ston
ĠNe v
ĠP ad
ĠSt ef
ĠTh under
200 8
ĠProv ince
Ġdecor ated
Ġto urs
ĠH old
ĠSe ga
ĠGr ace
ĠOut standing
h ill
Ġman age
E d
ĠT ai
ĠE ff
Ġprocess es
ĠBrazil ian
ĠIsrael i
m n
Ġ id
ens on
g ence
Ġf ate
Ġpre l
Ġcivil ians
ĠSus an
d isc
Ġshall ow
ap ing
ĠK an
Ġfrequ ency
Ġpersu aded
Ġsurpr ised
ĠUt ah
el ing
ĠO wen
Ġbeat en
Ġreact ions
Ġseg ments
ĠD anish
velop ed
Ġdem o
ĠClass ic
Ġaccommod ate
Ġdanc ers
Ġh ills
ĠPr incip
ĠC ultural
ĠY ellow
T e
Ġl iner
ĠL ocal
Ġr iding
Ġ9 3
ĠR u
Ġdesc ent
Ġdraf ted
D own
n orth
ĠS om
ch a
ĠY am
Ġconf idence
Ġcompl ained
8 7
m o
ĠL em
ĠBry an
ĠRich mond
ĠG a
ĠG reater
B ob
Ġfair ly
Ġimplement ed
P S
Ġpass ion
Ġcr imes
Th rough
Ġsusp ic
ĠFour th
ĠIn v
Ġ8 1
Ġvulner able
r h
ĠL ist
ons in
Ġpresent ation
Ġagric ulture
m ade
Ġre join
Ġin du
Ġun expected
Ġcol ors
Ġrat io
Ġsout heastern
Ġproport ion
ĠMalays ia
ĠF isher
Ġher itage
Ġ8 6
Ġans wer
ĠClar ke
p ine
Ġ189 5
ĠGu itar
ĠMcK in
ĠR ena
Ġsent ence
d oor
Ġg ender
her ic
ĠF BI
Ġj et
Ġadd ressed
ĠAct or
Ġcolumn s
ĠP rop
rit ic
ĠH az
ĠF u
Ġfe ared
Ġem br
Ġdev oted
ur st
usal em
Ġc ant
ĠS ox
ul us
Ġâ ģ
Ġpot entially
Ġvoy age
Ġc ards
am ount
ĠL ink
ri fic
Ġsail ing
oth y
Ġ8 4
Ġresear chers
Ġjurisd iction
Ġm ood
osp el
ĠR est
av an
ĠPl ant
min ster
it ic
Ġf ram
iz er
Ġinter action
Ġwrit ings
Ġobs ervation
ĠMu hammad
n els
Ġmer c
osa urs
9 3
Ġbe ating
ĠDe ep
Ġoper ates
Ġhand ed
ac o
Ġjud ges
ĠS alt
ĠC BS
Ġrequ iring
ĠReg ister
Ġcomment ing
in is
Ġp ip
Ġâģ Ħ
j ust
Ġn urs
ĠEx per
omet ric
Ġcateg ories
r ating
ro b
isc onsin
medi ate
ĠYou Tube
Ġbeaut y
ĠAir lines
200 9
Ġtrib e
Ġmyth ology
Ġkid n
ĠChel sea
g us
Ġn at
Ġdis b
Ġam ph
ling ton
Ġsimilar ities
ĠNe il
C O
Î ±
Ġt ale
ĠG h
p arts
Ġconf usion
Ġw ine
ĠA er
Ġstud ying
uck er
ÃŃ n
ĠOver all
gom ery
k h
Ġg ene
Ġcl in
Ġinter vention
Ġrece pt
Ġext ensively
ĠArm strong
Ġsculpt ure
en os
Ġf ame
ĠJ unior
Ġman ip
Ġpo le
Ġphys ics
Ġdiplom atic
A L
Ġfollow ers
ĠEd ition
Ġbreak s
ĠLit er
Ġadv ancing
Ġhighlight ed
Ġf er
ĠC avalry
ab l
Ġop ens
Ġpregn ant
G erman
h all
om ed
Ġstat ements
ĠCons ervation
Ġchalleng es
ĠKa iser
Ġinf rastructure
Ġgard ens
Ġd ense
ĠNe xt
Ġg aining
Ġeff icient
t em
Ġto ler
Ġ9 4
ĠOr chest
Ġsent enced
Ġ186 1
ĠStud io
Ġemb arked
ĠScient ology
Ġsudden ly
Ġf asc
ĠS ign
ĠM end
umber ed
pro f
os ph
ĠPr iv
ĠAm b
Ġprincip le
Ġdisturb ance
Ġh ole
ag ers
ĠRe ich
ĠSp irit
Ã© n
Ġre ct
pl aying
ang ular
Ġstruct ural
produ ction
Ġerr or
ĠCard iff
ancell or
Ġkn ocked
Ġbound aries
Ġpred ators
ĠOff icial
Ġdivor ce
ĠLu ke
Ġt ies
ĠT erry
ĠL oc
ĠMin or
ĠLar ry
AT O
ĠSymph ony
l ights
in us
Ġd warf
Ġfe e
ĠS out
Ġvar iation
Ġsl avery
or ient
Ġth rown
ĠB ible
Ġrac ial
Ġbe ars
ri ft
ap le
iz z
Ġ9 7
ĠPro duct
Ġexpl aining
Ġconstit u
Ġlif etime
Ġemot ion
1 30
Ġa qu
Ġrece ives
uls ion
ur red
ĠP oll
Ġev ident
ĠAm endment
Ġdro wn
Ġsettle ments
Ġsh ock
Ġholid ay
u ction
Ġad minister
Ġkne e
Ġgarn ered
ĠRepublic ans
ĠPict ure
ĠBuff alo
Ġm ud
ov ak
ĠGame Sp
ĠPerform ance
Ġrecru ited
2 50
u ters
th odox
ĠHar old
Ġb oot
ob a
Ġash ore
ĠC emetery
th ree
ĠV ers
Ġcr ashed
ĠGreat est
ĠMet ropolitan
win ning
Ġsp awn
ĠConstant ine
ĠâĤ ¹
The y
Ġloc ally
ĠJer usalem
Ġo w
Ġcommerc ially
w ald
ĠA T
ĠW oman
ĠAct ress
Ġweaken ing
Ġtick ets
Ġt ension
Ġres olved
ren e
Ġass um
cel and
Ġopt ions
m at
ĠH D
ell ar
Ġinvol ves
ĠCr us
Ġconsider ably
Ġbenef its
Ġstret ch
v ironment
ĠG ay
Ġtask ed
Ġescort ed
Ġag es
Ġsub stitute
Ġdiscont in
Ġdet ect
Ġresc ued
ĠBurn s
Ġse as
Ġhous ed
Ġburn ing
h o
ĠT yler
ĠP ant
ĠTr ade
Ġprote ins
chang ed
B et
Ġg ift
che n
ĠGr ade
ĠPan zer
Ġconcer ning
w orld
in z
ĠS ultan
Ġbat ted
ĠSerb ian
ĠG round
cl iff
Ġtradition ally
Ġess entially
! ,
Ġn aming
Ġhel ps
ĠMont gomery
É Ļ
ĠA ber
ĠE th
Ġsw ord
Ġdeep ly
Ġwars hips
Ġexpl ore
Ġ189 1
J ust
Ġ urg
Ġd ual
ĠI van
ĠW isconsin
ĠL iving
ĠE ve
Ġcl iff
Ġconfl icts
E R
ĠT ogether
ĠS ug
Ġdis order
Ġcompet itions
ĠBo eing
ĠBalt ic
ĠAtt orney
ÃŃ a
Ġpurs ued
er b
Ġdo ors
200 5
ĠSt uart
Ġed itions
c ore
ĠNew ton
Ġdep icts
ĠSch um
Ġcollect ions
Ġvolunte ers
Ġ rib
Ġc ook
le b
ĠS ac
Ġr ings
Ġj ack
Ġtrav elling
Ġimprison ed
w right
ĠH alf
Ġ18 00
Ġsup ern
ĠLeg isl
Ġre ass
Ġfor b
Ġteam mate
ĠA ges
ĠK ate
Ġconc urrent
Ġpurs uit
ĠIndones ian
ĠP ast
ĠLe af
Ġevent ual
Ġequ ally
ĠHun ter
Ġsac rif
Ġbelief s
ĠIndepend ence
8 4
ĠT a
Ġl ad
Ġnumber ed
Ġopp osing
ĠMov ie
ĠF itz
Ġ189 4
Ġscreen play
j u
s or
Ġsm oke
Ġpolit icians
Ġd imin
Ġd inner
Ġab road
Ġman if
Ġrev ival
Ġdeal ing
Ġhar bour
ĠBrook s
Ġt ape
the m
Ġunivers ities
Ġur ged
Ġc ensus
ro gen
Ġd ying
Ġauthor ized
ĠSc ots
Ġmed als
Ġpri est
is ition
are st
ubl in
g ow
ĠI l
reg ular
Ġbor row
Ġrenew ed
Ġ <
ou ch
Ġg ods
in ery
Ġun ve
Ġen abled
2 000
ep s
20 11
200 6
ĠAp ollo
ĠAthe ns
in ts
ĠC amb
ail ing
Ġd im
Ġelabor ate
sec ond
Ġr ivals
act ory
Ġparticip ants
Ġchem istry
ĠRepresent atives
C an
Ġf ert
Ġgu y
Ġdr ain
ĠRog ers
ĠJoh ann
ĠBar nes
Ġmix ture
ĠSat urn
W est
ĠT err
ch ild
Ġcon j
Ġsusp ected
Ġcong ress
M C
p res
on ation
ĠS ay
ard ed
Ġto oth
Ġinter ven
ĠZ one
ĠAb u
ĠS id
Ġl aps
Ġr ushing
as p
am ine
if fer
ack ing
ep hew
Ġass ert
Ġprom ise
h ou
ro e
ĠFl ore
f inals
Ġc able
Ġfavour ite
ĠHe arts
ick en
Ġcons c
Ġcol ours
Ġpit cher
Ġshark s
Ġc attle
ic ing
le te
am pton
Ġdecre ased
Dav id
Ġp ink
Ġmanufact uring
Ġst olen
ild a
Ġvill ain
Ġhost ile
Ġveter an
ĠD ays
Ġv ig
qu er
ia h
ĠSc ar
Ġfle x
ourn ament
Ġcompos itions
rid or
is an
ĠN ature
ang a
Ġinv aded
Ġcost ume
Ġ188 9
ĠPat ri
ro st
ĠW es
Ġthere by
Ġ189 2
er ts
ĠA ren
ĠR uth
ĠBr anch
om es
Ġst ones
Ġapp ly
Ġcap s
Ġin hib
ĠW onder
Ġbombard ment
Ġsal v
Ġaccident ally
ĠConstantin ople
W A
Ġt el
Ġhop es
Ġm aps
Ġn ut
ĠP oly
Ġprof ile
ĠHeavy weight
u ber
id ia
ĠSt ill
ov ic
rib le
Ġver te
Ġinher ited
Ġwar ned
Ġcapt uring
á º
ĠChrist ians
ĠAff airs
or f
Ġg odd
col m
Ġtorn ado
p age
Î ¿
Ġr ains
ĠCom edy
al g
Ġcelebr ation
ĠTur key
H S
ch i
ul um
Ġcom ics
Ġprov isions
Ġlink s
ĠH ope
ĠJo an
Ġhop ing
Ġconfir m
Ġorgan isms
o ft
ĠB ask
ĠI celand
ĠD anny
Ġan alog
Ġem pty
Ġposs ess
Ġlabor atory
Ġp ill
ort ed
Ġinn oc
Ġt issue
ĠM all
ĠRe port
rest rial
Ġ ib
ĠN ord
Ġnickn ame
a uc
Ġh o
ĠS ud
ĠW alt
ag les
Ġprot otype
Ġav o
Ġw onder
art ime
Ġbatter ies
Ġeas ier
Ġvari ations
ĠLabor atory
ell ers
ĠTh ames
ĠPortug al
ĠT ow
pt ic
ĠTh r
ĠNov a
H owever
c ell
ĠP ok
Ġsupport s
Ġgirl friend
Ġoccas ional
l ist
u il
Ġs inking
ĠK yle
form er
ĠNew castle
8 2
ĠEx ecutive
Ġju ven
T S
ats u
Ġpromot ing
ĠChap el
ĠJ TWC
ri el
or ic
Ġf ires
ĠH unt
Ġpos itively
Ġgr ap
Ġsepar ation
ĠMac Arthur
h art
m ont
Ġf ra
Ġprog ressed
Ġhand le
Ġthreat s
Ġdocument ed
am ics
ĠD raft
ĠF ighter
Ġtr apped
ĠEv il
Ġrestrict ions
ĠMar ines
Ġremember ed
H ar
g reat
ĠP rest
Ġavo ided
ĠM S
Ġacc ord
Ġgu ests
ĠMeteor ological
y an
Ġt aste
Ġl ift
ĠF il
ĠCent ury
200 3
Ġbi ography
Ġs or
at isf
ĠM eth
qu al
ett a
Ġgrand father
ĠSher man
ĠS yn
iel der
ĠBar on
Ġgold en
ĠRom ney
ĠH ad
get t
Ġparliament ary
h ad
p at
it ches
Ġd ust
ĠF ern
Ġ0 7
Ġl ighter
ugh t
ach t
Ġmet ric
Ġdep uty
Ġhand ling
Ġdefend ers
Ġble nd
P ro
o om
ĠSt ars
Ġcust omers
Ġmurd ered
s a
ĠB ears
op les
Ġv ital
Ġprodu ces
ĠMan agement
Ġvel ocity
m ans
Ġnot iced
Ġsc andal
emb le
ĠReg ional
Ġevac uation
ĠBou levard
Ġhoriz ont
h l
Ġ Ð
ĠF ull
ĠSt ra
Ġus age
Ġpolit ician
Ġcontr acts
Ġinh ab
os y
ĠN eb
Ġtrail er
ĠT oy
Ġy ard
ne x
Ġ188 5
Ġ186 5
Ġbi ological
Ġlawsu it
9 2
Ġb ell
Ġch ase
Ġconsum ption
Ġvolcan ic
ĠOrchest ra
les h
ĠRe agan
ĠCorn wall
Ġl iver
ĠIn s
ĠY outh
ĠGu ild
Q u
Ġr amp
Ġr ugby
Ġtr unk
ĠJud ge
the re
ĠElect ric
oir s
L ove
r acks
ĠT ru
Ġe ating
Ġspec ulation
Ġlic ense
ĠJ oint
ĠIn vest
Ġrel ation
Ġmix ing
l ined
s ong
ĠP ul
ĠD uch
inc inn
Ġc am
ĠC inem
Ġst yl
E ng
Ġre ver
ig ger
ĠP as
os ion
Ġsp l
ane ous
Ġdevelop ments
Ġcat hedral
ĠC er
Ġpartic les
Ġengine ers
ĠMil es
ĠAthlet ic
ĠD ublin
Ġencoun ters
Ġdecre ase
Ġanticip ated
Ġw ound
est ab
Ġindust ries
ĠJos Ã©
heim er
Ġdepict ing
8 3
ĠEn vironment
ĠSp ider
ĠBr ight
Ġ0 5
Ġmark ing
Ġp or
ak h
com mun
onn ie
Ġundert aken
Ġthe rm
Ġc ash
ĠS ic
et ary
ĠâĢ ¦
ind ed
Ġform ula
Ġdeb ris
ĠProtest ant
ĠC ena
ĠG on
Ġpl ates
Ġvic inity
ĠJust in
Ġthunder storm
H g
Ġc ow
Ġab b
Ġcho ir
Ġtouchdown s
ĠIslam ic
ĠFI FA
Ġn ose
Ġaccess ible
ĠCharl otte
ĠV eg
ĠSe an
Ġ188 8
ĠChe ster
ent ieth
ĠN ATO
Ġpre st
form ed
Ġchampionship s
Ġmechan ism
Ġdo zen
f ree
it ol
ol ia
ig a
Ġr andom
op ic
f am
ĠS onic
am ation
Ġpro of
Ġor ange
ĠEn ergy
Ġvirt ually
B ecause
ight ing
ug s
ĠLe ices
Ġign ored
ĠÄ Ĳ
l ims
u in
it ime
Ġcont acted
Ġc u
Ġm ounts
ĠF low
ced es
Ġ0 6
Ġeast ward
Ġconv icted
Ġinaug ural
ĠA S
uk a
ĠLeon ard
Ġa rose
ĠV oice
ass y
Ġup coming
Ġsusp ension
f irst
ĠP in
ĠN ancy
Ġep ic
Ġcommun ist
ĠT itan
Ġexhib it
Ġconvers ation
ĠTrib une
av i
rib ution
Ġmamm als
oc ol
ĠSte in
imin ary
Ġdisapp ointed
ĠS ide
Ġw ake
Ġf erry
Ġind igenous
Ġport rait
isc her
200 4
Ġhuman ity
Ġfarm ers
Ġcollabor ated
p ost
Ġm os
ĠM I
Ġvot ers
han ced
Ġhelic opter
Ġcorpor ate
p in
Ġt ube
ral tar
ĠE ight
ĠGl as
ĠMag ic
Ġterrit orial
ub ble
ĠCol lection
ĠMich a
ĠBarb ara
m other
Ġas ide
ĠP eng
ĠSerb ia
quir y
f ront
m el
Ġs tern
av ian
ĠTh an
Ġfac il
ĠC anu
ĠM ind
ort ion
ab ric
Ġlast ing
Ġfocus es
incinn ati
it ure
Ġto ols
ĠT ed
Ġoccur ring
ĠCont rol
Ġf ron
Ġ9 78
Ġpen insula
Ġcompl icated
ĠEr nest
ĠCare er
ĠAgain st
Ġm it
ĠB ert
Ġsynthe s
e lect
ĠC ode
Ġpro l
Ġfe athers
Ġl augh
Ġl oud
ew ork
Ġpres erve
ission ed
au ge
work s
Ġinf ection
ĠCont inental
ĠPed ro
ĠMalt a
h ow
ĠK it
Ġtrack ed
ĠLu ft
ĠYugoslav ia
Ġpost s
ĠOther s
ĠSpring field
Ġconqu est
ip her
ss on
Ġ186 4
ĠRo om
Ġexplan ation
ĠO ur
Ġass erted
enn ial
Ġspeed s
g ans
ĠT yphoon
ĠM ix
ĠF ish
ĠArch bishop
Ġcry st
V P
Ġret rie
Ġgrow s
Ġang ry
Ġpredomin antly
ah l
uff icient
Ġremov ing
ĠCh ad
Ġroad way
Ġcast les
Ġsit uations
Ġly rical
ĠNorm andy
O r
d s
Ġw ard
as ury
Ġshe ep
Ġdecl ar
ĠAlbert a
ĠArmen ian
s ub
ĠC O
itche n
Ġcancel ed
Ġl ying
Ġel ite
Ġcirc ular
aut iful
Ġindepend ently
ĠB eth
Ġres id
Ġap olog
s ix
Ã ´
en burg
over y
rel s
Ġrelie ved
ĠEn t
Ġfinal s
Ġstrik es
ĠA ction
Ġg if
Ġoff shore
Ġfund ed
D A
in ted
Ġhy per
ĠVeg as
c or
ul ates
Ġex clud
ĠU C
Ġexam ination
ĠV ick
ĠCom ics
Ġbreed s
Ġsust ain
g or
ĠA qu
iz ard
ĠAll iance
Ġpat ient
Ġgen res
Ġbo ost
ĠAnt ar
Ġch rom
Ġcl ergy
£ o
ĠFriend s
m aking
Ġdis lik
over ty
Ġmar ched
Ġbow l
ĠLiber ty
Ġalt itude
Ġlocomot ives
Ġintellect ual
Will iam
ĠL ords
Ġcomp iled
ition al
Ġrec ruit
Ġconst antly
Ġord inary
in stein
Ġb omber
ĠS af
op y
Ġant ib
umber land
Ġple ased
ĠC incinnati
Ġ186 2
en ess
ĠM aine
Ġare na
Ġclos ure
Ġphot o
ĠGib raltar
ĠJ e
Ġ8 3
ĠH as
ĠTra ff
ĠV illa
ĠPl ace
ĠPet e
Ġf old
Ġp ier
im ony
ĠKenn eth
n ew
Ġreg ulations
Ġknow s
Ġdiam ond
Ġpros per
Ġrend ered
ĠChamber lain
en cer
ĠL ower
ĠF ace
ĠSh ield
Ġview ing
Ġeduc ated
Ġtim ber
north west
ac ular
Ġst im
ab a
ish n
ĠRe f
Ġsuggest ion
ĠB ark
ĠSh in
D I
r Ã©
Ġlay ers
z es
Ġ Ï
att y
ĠLe v
Ġlack ing
Ġthrow ing
G M
al in
le ted
ĠS aw
let t
ĠMet ro
ĠTechn ology
ĠAfghan istan
ĠC and
ig ation
Ġun e
ĠCh air
Ġvary ing
Ġinduct ed
ĠT ang
ĠBrad ley
Ġattract ion
Ġwitness es
ĠS ection
om on
Ġle af
Ġbl amed
ĠBrown s
Ġcelebr ate
ĠBul gar
Ġillust rated
Ġfung us
ĠX X
u ce
Ġp ig
Ġsc ar
Ġrep orter
ĠMus lims
Ġdisapp eared
ĠTw itter
ed a
Ġin fer
ĠT ournament
Ġad mir
Ġprof it
ĠIsa ac
he ro
R ec
ĠC ase
Ġen com
ĠSh ah
Ġreport ing
Ġnever theless
Ġswe et
ĠT ir
ĠK rist
ust ers
Ġsubmar ines
ĠTai wan
n et
Ġus er
att ack
g Ã©
Ġa est
Ġf ier
em ploy
ist ant
Ġret reated
ĠOr ton
Ġfort ifications
Ġin Hg
Ġexp anding
ĠFr an
ubb ard
ĠOrgan ization
al ia
Ġst ored
Ġat op
Ġfl our
ĠRe ed
int in
Ġ9 1
ĠPark s
d i
ic les
ĠW aters
Ġent ert
Ġfac ulty
Ġabsor bed
Ġt y
ĠG ates
ov es
Ġper c
ĠWith out
Ġpark ing
ĠMarsh al
ĠVII I
est y
Ġsub mer
Ġpublic ity
Ġconf ident
Ġrele asing
Ġkill er
Ġarm oured
v ol
Ġ1 000
ĠBrook lyn
ĠCycl one
l u
Ġhe nce
Ġh oles
ĠE RA
ĠSh iva
Ġreal istic
ĠPrinc eton
Ġfoss ils
M r
ed ge
Ġex ile
Ġcompan ion
Ġshel ter
ĠTig ers
Ġdes per
Ġbr illiant
Ġfocus ing
ĠRevolution ary
Ġcondem ned
b us
ĠT erm
ik i
Ġdet ected
Ġrom ance
ĠCanu cks
Ġrem ote
Ġbl ast
Ġunivers al
Ġresign ation
g irl
Ë Ĳ
on so
ĠM aced
Ġvers es
ett es
ĠSl av
ĠU k
Ġment ions
Ġm ask
ĠLe eds
Ġreb ounds
ĠSchum acher
R S
og g
ĠShe p
ĠPhill ies
Ġdisb anded
at on
ĠT ests
ĠD ud
ak u
Ġreg iments
Ġcru ise
aud ed
Ġpreced ing
Ġspons ored
Ġconsp iracy
g ener
Ġf ract
ĠJ NA
Ġ18 40
Ġconv ince
Ġst ability
ĠR us
ra ham
Ġstud ios
Ã¶ r
Ġtorped oes
Ġthor ough
G eor
on ly
ĠD J
act or
Ġimp ressive
L A
ĠC ort
Ġtele phone
Ġbe aring
ĠEd die
Ġflow n
c at
ol an
ish ops
Ġsent iment
ĠMal colm
Ġcorrespond ing
M al
Ġas c
ag i
Ġconcept s
M e
Ġe agle
ĠE ld
ĠBC E
ĠWag ner
g arian
h or
et a
id o
aly sis
ĠSm ack
Ġmach ines
Ġswe pt
Ġhybr id
Ġins urance
ĠFre edom
ab ad
Ġro ster
Ġpat ri
ĠCons ervative
ĠGreg ory
Mich ael
Ġf ed
Ġn ephew
ĠR ush
Ġtour ist
b ie
um i
ĠO scar
ĠOper a
Ġt ent
ĠS weet
Ġl ung
ew ise
ub s
Ġconf used
Ġsole ly
B rit
H er
is ode
Ġd iversity
ĠG lee
Ġan nex
ĠR ear
Ġ" .
amp a
ĠWest minster
Ġcreat ure
Ġir regular
t z
Ġbut ter
Ġj ersey
Ġstead ily
ĠFried rich
Ġm ild
ĠAust ro
Ġdirect ing
ĠMor ning
ĠTom my
G r
at ar
st op
ĠIs le
Ġmess ages
Ġprompt ing
L a
l anguage
m m
Ġmy self
e lection
nd a
Ġf ault
Ġb apt
Ġen h
act ic
Ġno ise
ĠEd mund
Ġposition ed
Ġbattle field
Ġfav ored
ĠPok Ã©
w ind
Ġs ulf
om ical
ge ant
Ġtarget ed
Ġscholars hip
H C
Ġen orm
ĠMad ison
Ġw orse
ĠN ation
ĠBr and
Ġmagn etic
imens ional
v or
z ed
un ge
Ġcalc ulated
Ġw artime
Ġl over
ĠM ann
ĠL ud
Ġag encies
Ġtri o
Ġagre es
Ġspac ecraft
Ġmonaster y
B O
s ur
Ġs in
ĠB urg
ri ans
Ġgust s
Ġdr unk
Ġconn ects
Ġacclaim ed
á» ĩ
ank a
ĠBur ke
ĠC row
op ard
Ġref uses
Ġop ined
Ġs av
Ġc otton
Ġin ning
iz ers
Ġdist inction
ĠStud ies
Ġox id
Ġrecon struction
Ġr ice
i ors
Ġg ear
ĠThe ater
ĠBar cel
Ã ł
ĠH ull
ĠP ay
ĠF uture
Ġsug ar
Ġ186 3
ĠMcKin ley
Ġex terior
ĠV o
Ġgu ards
ĠCo al
Ġt une
Ġc emetery
ĠC any
ist ical
aul ts
Ġball s
A b
ree ks
ĠAl tern
Ġob st
Ġtro op
Ġmeas uring
Ġcloud s
ar us
ĠH ok
Ġtr uly
Ġsc reens
Ġinc idents
ĠMont ana
Ġchalleng ing
Ġj ew
.. ."
ris es
Ġwalk ed
ĠTerrit ory
l ake
ri um
Ġmot if
ĠHol land
Ġwalk s
Ġelev ated
d am
en h
Ġh osp
ĠS quad
ĠH ood
Ġconf ig
Ġven ues
Ġconsequ ence
Ġthan ks
Ġconduct ing
Ġthe aters
ĠR an
Ġfund amental
Ġkilomet ers
s ing
ing e
ch w
ĠD in
Ġ188 7
ĠThe odore
Ġarg uments
Bl ack
Ġcommit ment
Ġaccompl ished
Ġcompliment ed
B ig
ĠD ennis
Ġcur ve
Ġdro pping
Ġjud icial
Ġcerem onies
ĠCard inals
ĠMicha els
ig hed
Ġro uting
Ġhistor ically
Ġcreat ures
ĠBask etball
Ġin tend
im er
ĠFif th
Ġh ide
Ġl akes
Ġwin ners
E ar
Ä «
Ġb ore
ĠGl ou
Ġf o
Ġwh atever
Ġqu oted
rodu ction
Ġrot ation
Ġpe oples
ĠBe h
Ġvar ies
Ġrad ius
tr ans
ĠAngel ou
it ars
ĠEn ix
Ġprog ressive
aly mp
1 60
Ġm ansion
ĠB our
ĠP el
Ġro ok
Ġterm inal
Ġ188 6
Ġprepar ations
Ġreven ge
ĠAnc ient
Ġon wards
Ġcon ced
Ġrem ake
Ġdec isive
Ġcontrib ute
h as
Ġw rap
ĠN as
Ġdem ographic
ĠPark way
ĠMon th
Ġextend s
el in
Ġsc out
Ġpres ents
ĠOr d
Ġorgan ic
Ġtel esc
he rent
Ġp seud
ĠM embers
Ġrec re
Ġparticip ating
ĠMet ac
Ġbor ough
ed e
ou b
Ġcon vey
Ġind irect
off icial
Ġreb el
ĠHistor ical
arth y
Ġk ids
ash ire
Ġsouth western
ĠMus ical
ĠK el
Ġsp ots
ĠSc iences
Ġimp osed
ĠSol ar
ĠDen ver
Ġprosp ect
ĠGlas gow
C ar
g ary
ĠC ox
ĠY ard
Ġsw ing
Ġachie vements
Ġiniti ative
he ll
ol ars
ĠB erm
ĠLe o
Ġlog o
F ar
Ġch ann
Ġout come
Ġbow led
Ġweak ness
Ġinstruct ions
ĠN ad
ĠRob in
h t
ĠL S
Ġmin isters
app a
Ġpost er
Ġheav ier
ĠOl ivia
ĠPier re
Ġm ad
Ġsp ell
Ġair borne
ĠC S
ag ic
Ġy d
ĠHe b
Ġdec ay
ĠHer bert
alt ies
gu ard
ĠSmack Down
Ġinter mediate
Ġtri umph
mit ting
iron ments
Ġproper ly
ĠDer by
Ġdepos its
B r
em porary
ĠW atch
Ġcould n
rew s
Ġdark er
ĠNev ada
Ġconsider ation
I C
e le
Ġp enn
Ġp aying
ĠK az
Ġâ Ļ
oin ts
ĠIs ab
Ġtour ists
Ġrit ual
in ated
Ġch a
ĠHel en
Ġveget ation
ĠMerc ury
k ing
Ġt ap
ĠD od
Ġco aches
Ġdep iction
Ġtrans mission
20 12
Ġbre ast
Ġ188 4
Ġphys ically
Ġmel od
ĠVen ice
as ia
Ġe cho
ĠU nd
Ġun h
ĠMar l
ator ial
Ġestim ate
ĠMy ster
Ġexerc ises
en berg
os c
ĠCarl os
ĠJul ian
Ġ10 5
ĠPar alymp
Ġless er
Ġtax on
Ġrevolution ary
Ġsp ite
Ġ3 50
ĠAlb any
Ġsubt ropical
Ġautobi ography
Ġencom pass
ĠB orn
ri ages
Ġcontin ental
Ġcrit ically
r ange
Ġb orders
ĠA M
ĠO il
ant astic
Ġenv ironments
ĠCE O
ol o
ĠR ound
ĠN am
Ġqu arters
Ġbr ings
ĠIs les
ĠOtt awa
Ġdeleg ates
B rien
ar ians
ĠJ ake
Ġhon ors
Ġflow er
ĠNAS A
ĠJama ica
c ock
Ġf ru
Ġnort heastern
Ġwid th
Ġjournal ists
Ġsail ors
Ġdeliber ately
ĠS oph
ĠR ivers
ĠL amb
Ġachie vement
ĠSal v
Ġperman ently
Ġwitness ed
Ġamph ib
Ġm asc
ĠC ond
ĠP oe
Ġis n
ĠK il
Ġperform ers
Ch ar
Ġassass ination
ĠAl am
ĠComp osition
head s
Ġpun ishment
Ġupd ated
Ġc osm
Ġh arsh
Ġl ib
ĠB es
ĠK id
ian g
ĠSpr ings
Ġmo ist
Ġdoct rine
ĠBarcel ona
Ġm ate
Ġh urt
ĠK ill
Ġpr ince
Ġdisp atched
ĠT u
Ġ12 5
Ġsum mon
Ġtransform ed
Ġorchest ral
, '
p it
s er
ch t
ust y
Ġdis abled
Ġmar g
Ġelect ro
Ġb in
as i
ĠH ubbard
Ġcontr ad
ĠLanc ashire
st own
ĠN ass
Ġrem inis
Ġarg ue
Ġ187 7
ĠRon ald
U nder
Ġin put
ĠP S
ĠChe t
ĠOper ations
Ġintegr ated
D r
ĠT as
ĠChurch ill
1 10
is ations
ĠS ri
ĠF oster
oin ting
Ġexam ined
Ġvari able
Ġbelong ed
Ġbelong ing
Ġas cend
ĠN athan
ij ing
ĠPolit ical
ĠCany on
J ames
Ġpre f
Ġmanag ing
Ġelig ible
Ġcomple ment
merc ial
ĠBul garian
Ġarchae ological
Ġreluct ant
Ġhypothes is
G B
Ġd ock
Ġre h
ĠB ased
ĠD aw
ĠE sc
ĠSte am
ĠMil an
ĠAdvent ure
Ġrout ine
J ack
P a
T unes
Ġprevent ing
ec hes
im mer
Ġst aged
Ġun anim
Ġdam aging
Ġexecut ives
ĠT intin
ĠCal gary
Ġsw itched
Ġpsych iat
Ġdistingu ish
ĠAren a
ar med
om ys
Ġcon fer
ast on
Ġ187 6
Ġunsuccess fully
Ġmunicip al
Ġg ates
ĠR osen
Ġround ed
Ġhom osexual
ĠRichard son
Ġmechan ics
u ke
z ig
od ied
Ġact ively
Ġep it
Ġeight een
Ġdisp uted
Ġcoach ing
ĠBra h
Ġg entle
ĠG ang
te am
Ġfin est
Ġposs essed
ĠX I
ĠPer cy
Ġobject ives
Ġproced ure
Ġphenomen on
G u
Ġintern ationally
Ġreve aling
Ġboy friend
Ġphilos opher
Ġfrig ate
ĠV erm
Ġform ations
Ġdirect ions
R C
ĠMer cedes
ĠCons erv
k il
ĠM i
ir k
op ol
Ġse al
Ġen lar
ross ing
Ġencour age
Ġexpect ations
Ġlat est
ĠM ak
Ġg host
Ġwh ales
ĠW is
Ġ18 30
Ġland mark
Ġadv ocated
Ġlo ose
ĠPokÃ© mon
Ġre op
Ġle agues
Ġlength s
Ġscient ist
Ġpropag anda
ĠD elta
ĠW inn
ist ocr
Ġvent ure
in qu
ĠH us
ĠUn it
amp ire
pr ing
ier ra
Ġexpl oration
Ġdiscuss ing
Ġtrib ut
ĠMidd les
b ach
Ġh oney
ĠC ou
Ġpres idency
ern ess
ĠComm ons
ĠGro ve
ĠCa es
Ġa ided
es h
ang ered
Ġopt im
Ġsearch ing
Ã¨ re
ĠGoth ic
h anded
w affe
ĠH erm
ĠE isen
Ġcomp rising
Ġall ied
ĠAr c
ĠSe as
ĠNorth west
Ġaut on
Ġrequire ment
Ġo v
ĠS or
od ium
ĠFilm ing
Ġg est
Ġship ped
arm a
apt ist
ĠCelt ic
Ġm arsh
um s
Ġmet als
ĠM ult
ĠM ills
ĠW here
Ġdes ired
ĠEx pl
Ġintrodu ce
ĠFer din
ĠCirc le
st able
Ġcontrib uting
al id
Ġgr id
Ġlist ening
Ġcur ved
Ġdepend ent
ĠPalest ine
Ġcompr ised
R O
l ength
Ġt asks
Ġto m
av il
ĠAn y
Ġacc us
200 1
Ġopin ions
Ġabund ant
s ic
it tle
ĠF ly
Ġint r
Ġspec ulated
Ġest ates
Ġtem ples
Ġemer ging
ĠA P
Ġl iv
ut ely
ner y
Ġblock ade
Ġic on
Ġrefuge es
Ġsubmer ged
j ud
Ġmil k
ĠWe ather
Ġpay ment
1 20
A D
n ut
on i
Ġcon vert
ĠBr id
Ġgen es
Ġce iling
ĠRod rig
Ġp overty
Ġd a
il ogy
id en
ĠDr ake
Ġadj ust
Ġmolec ular
Ġimmigr ants
Ġro ot
Ġpart ners
hen tic
Ġundert ook
ĠHend erson
Ġnavig ation
ĠBl air
Ġgu itars
ĠFl oyd
ĠRay mond
Ġturb ines
Ġmyster ious
Ġst aying
ĠMar qu
Ġaver aged
Ġimpro ving
Ġhabit ats
Ġresemb le
ore n
head ed
Ġassoci ate
ĠRoc he
Ġcub ic
rehens ive
N ot
ĠS ad
ĠI b
ount ain
Ġfin ance
ĠCar r
arch y
Ġsil ent
Ġconsist ently
ĠHead quarters
re ction
ĠB ud
ĠP ack
un ar
Ġr ider
Ġen hanced
Ġass ets
Ġexpl ored
Ġcompos ers
st ad
ĠCh ang
ĠRoman ian
Ġcompl aints
ĠDun can
Ġnat urally
E D
c omb
el ia
ĠEx ped
su ing
ĠFilm s
Ġnetwork s
struct ed
Ġfrag ments
Ġo ct
Ġd ive
Ġcoast line
ĠAn at
mar ine
Ġprior ity
ĠMill ennium
igg ins
Ġsh aped
Ġen suing
ĠManu el
% )
Ã ª
ig o
Ġst air
Ġan ts
Ġcan on
Ġcent ered
Ġgener a
Ġvers us
Ġaccept ance
otyp es
ĠLeices ter
Ġchann els
ĠP ick
ograp hed
ĠGu adal
ĠTe legraph
Ġconsequ ences
ic us
ĠJ ose
Ġsum mar
Ġz ero
Ġpriv ile
Ġfact ion
Ġ187 5
Ġphot os
ĠR if
ber y
Ġsuff er
ĠReg ion
bo ats
O ut
Ġse eds
Ġres on
ott o
Ġcame o
200 2
ĠA ub
Ġcar ved
Ġcontem por
Ġto ugh
ol ith
iss a
Ġcons ensus
Ġinc om
ĠCol omb
Ġdiss olved
ĠMas ters
ĠV oy
ĠCol in
ĠAd ela
Ġhom eless
ĠPerson nel
ĠMetac ritic
b rown
r ang
ul k
Ġsign als
ew ard
Ġunder water
Ġsing ers
b ian
ĠR aid
ĠK in
ĠV ic
Ġout standing
Ġdisc our
Ġele ph
Ġ188 1
Ġsymb ols
Ġi Tunes
Ġreserv es
Ġlem urs
Ġben ch
Ġunve iled
Ġperc ussion
Ġm bar
ĠN ak
ĠBe ijing
ĠDes ert
Ġerupt ion
Ġcomprom ise
ĠM ut
ĠP ine
ist ence
Ġad equ
ĠComp uter
ĠDep uty
ordin ary
ĠS ever
ov sky
Ġint act
Ġvar iant
Ġ188 3
Ġf ears
Ġh az
Ġplay able
Ġrel ied
Ġdef enses
Ġcor ruption
Ġqual ities
Ġsurpass ed
ĠDiam ond
th is
Ġr ushed
Ġland ings
Ġinteract ions
s ome
ĠC ulture
off s
Ġlength y
Ġbattlecru isers
Ġcruc ial
ĠDud ley
m eter
Ġb ars
Ġn ice
ĠIn sp
Ġ10 9
Ġspect ators
Ġwh ale
Ġrep ublic
Ġel dest
ĠMe ga
ĠEm ma
ĠT ree
ĠO cc
Ġteacher s
Ġdoct ors
ĠLuft waffe
ĠL uther
Ġmon ster
aun a
Ġimpro v
Ġr ational
ant le
ĠFr ances
Ġthreat ening
Ġmyster y
E very
Ġin eff
ĠT alk
ĠT ucker
Ġcomp aring
ass ed
ĠMc N
aur us
Ġamb assador
ol ine
Ġwe ighed
ĠDev il
Ġgross ed
Ġnerv ous
ĠCraw ford
og s
Ġcost umes
ĠBer g
Hung arian
Ġs ib
ig rated
em a
th lete
ĠV lad
Ġsong writing
Ġam id
ĠTr inity
ĠAg ric
mon ton
Ġemot ions
Ġloyal ty
Ġassess ment
H A
at em
it i
ash ing
Ġmanufact ured
Ġhonor ary
ne ath
ĠSe b
ĠF a
ist ance
Ġpro claimed
ĠFl ames
Ġ186 9
Ġprin ting
d ed
Ġt ensions
Ġse ar
ĠNew man
Ġrun ner
Ġprocess ing
Ġsym ph
Ġkil og
ĠBerm uda
f ast
t ra
Ġf abric
ro ximately
Ġinstruct ed
ĠCab inet
l ov
Ġc ave
ĠP ly
Ġcl ip
Ġ186 6
ĠSoviet s
Ġbacter ia
ĠDak ota
Ġde alt
Ġinter f
Ġappe aled
Ġdise ases
Ġinstrument ation
ĠCry stal
K e
ed ar
ĠT ol
ĠSe e
Ġrock et
ĠChe m
Ġess ay
Ġaware ness
Ġpatrol s
ĠWol ver
Ġh urricanes
ĠM ail
ir i
Ġr ally
Ġdisapp oint
Ġmill ions
orient ed
ur se
od on
Ġar istocr
Ġtri ps
Th ough
Ġcollect ing
Ġbats man
p y
re z
ĠM ile
ĠB ody
Ġrev ived
ĠA L
ĠF ood
ump ing
Ġfra ud
u its
Ġst om
end ar
Ġrel ating
ĠSp eed
ĠWat son
uton ium
Ġo wing
Ġh ier
ĠF ur
ĠL P
olog ically
ĠTr uman
Ġpsych ological
Ġrefere e
ĠP unk
ul u
Ġ0 4
Ġconscious ness
is ch
Ġen rolled
omet hing
ĠPlan et
Ġalleg ations
ĠMeth od
Ġf lesh
Ġde als
ĠCl if
ĠBe a
ĠMcC arthy
U C
ĠR BI
ĠK y
Ġinters ections
Ġw ishes
le nd
ĠD j
ĠF un
ra id
Ġwood s
ĠStand ard
ĠExped ition
Ġpro xim
Ġrep et
ĠEu ro
Ġinvol ve
ĠAng le
M ay
ĠH ass
ich i
Ġman ages
Ġsub ordin
Ġpost hum
Ġexhib ited
Ġet c
Ġquant ities
Ġoverwhel ming
Ġdislik ed
Ġch lor
orm al
Ġj aw
Ġread er
roll ing
ĠGib son
m ass
as aki
ri pp
Ġshe et
Ġadd s
ĠMon roe
Ġvocal ist
ĠVer onica
Ġlif ted
Ġmathem atics
Ġte lev
anc ock
ĠMc D
K ing
m ay
n am
ra h
Ġover come
Ġsub d
ĠPl at
Ġjoin s
Ġhar bor
ĠWell ington
ĠProfess ional
L et
ĠM ull
ke ley
Ġhar vest
Ġchap ters
Ġproceed s
Ġgodd ess
ĠS yl
Ġcl an
Ġmet all
ĠSur rey
produ ced
ĠC hes
Ġcult ures
bu ilt
ĠAdela ide
O R
w ig
Ġph osph
Ġins ufficient
Ġslow er
Ġdeclar ation
J apan
Ġexp ense
Ġ10 4
clus ive
ĠEs sex
occ up
Ġsynd rome
Ġmush room
M D
ĠW ant
Ġsp ores
ĠAl t
Ġstr ings
mit t
Ġwid ow
ĠWood s
k inson
ur ers
ĠâĢ ²
ops is
Ġsuppor ter
20 13
199 0
Ġmach inery
Ġpan els
ag ons
Ġass ign
Ġcoun sel
Ġinterview ed
Ġathlet ic
Ġgall ery
grad uate
ain ted
ant o
ĠMad rid
ĠTim ber
Ġlocomot ive
Ġhorizont al
ĠF ather
ĠL is
ble m
Ġimport ed
Ġcomment ators
ĠMach ine
ĠShel ley
u rop
on ed
ar re
ĠCh oice
ik h
ĠBut ler
ĠEll en
Ġmist ake
ĠIn side
Ġ187 1
Ġ186 7
Ġthick ness
at hetic
Ġg am
ot illa
Ġrep aired
ĠCl oud
Ġcust ody
Ġmolec ules
ĠGon z
N Y
st ration
ĠP ent
ap a
ĠSh an
Ġfight s
ĠUr ban
Ġcir cles
Ġproxim ity
P aul
R ober
ĠC e
ĠE C
Ġpl um
Ġtrad em
ĠMal ay
Ġgrap hic
Ï Ĥ
ur bs
ĠE agle
Ġsh aft
Ġpolit ically
Ġ188 2
ĠAg uil
ĠBosn ia
s outh
ĠF ischer
Ġan them
ĠCh uck
Ġab st
ĠLt d
Ġin cl
Ġst abil
Ġres ur
Ġcur ves
Ġtact ical
g ood
p ress
x ide
Ġ ion
ĠT otal
ĠB ass
Ġun aware
te gr
Ġsuccess ive
ĠÃ ī
Ġshop ping
ĠPubl ishing
Ġredes ign
it ects
Ġh unt
im ir
os ity
Ġan x
ace ous
eb e
d imensional
Ġc ro
Ġm igration
ĠAguil era
ol ves
Ġsh aring
Ġinter ference
ĠSe x
Ġunder go
elf th
Ġri fle
i ary
ĠU B
ĠNew port
Ġeng aging
Ġterm ed
ung le
Ġacqu ire
M eanwhile
ĠZ ero
Ġsepar ately
Ġdiscuss ions
ĠPhill ips
er ia
che ss
Th ree
Ġbit ter
Ġflo ors
Ġlin ear
z ac
Ġo l
Ġl ane
um ar
Ġtrans it
ĠTr av
Ġcurren cy
ĠFerdin and
h aul
Ġd uck
ĠB rew
Ġbank rupt
c i
Ġf rog
an che
ĠR ange
Ġ187 3
Ġmem ories
Ġcontest ed
ĠEngine ering
Ġmaneu ver
Î ½
Ġa viation
ĠM k
Ġall ocated
Ġ10 1
Ġscrap ped
B orn
S axon
at ri
Ġb ol
ĠR PG
ĠK em
ĠCom ple
Ġmod est
Ġmiss ile
Ġl ip
sh i
Ġfarm s
ĠAdmiral ty
s im
Ġre ef
ĠH il
Ġ187 8
ĠRom ans
ĠRena issance
ĠM eyer
ist le
ĠSel ena
Ġenorm ous
Ġh atch
ĠC ut
ĠHe ath
Ġwork er
Ġadv ances
Ġtw entieth
Ġrul ers
ĠNob el
Ġnom ine
C D
Ġp uzz
ĠR iley
ins p
Ġcontin ent
Ġstr ange
Ġnorth western
Ġdam ages
ĠVi enna
hous es
ĠTas man
n an
Ġbe er
Ġ9 00
ĠMov ement
ĠLaure n
ĠA viation
Ġg aming
Ġdem anding
ĠThere fore
Ġphot ographer
Ġprel iminary
ĠH ond
ĠSp it
Ġhal ted
found land
Ġcyl ind
ĠFlore nce
l ook
Ġb ills
Ġm ail
ĠAl pha
Ġinter rupted
Ġhorse power
Ġdemonstr ate
Ġinstall ation
ĠArk ansas
d an
ĠP sych
ĠW ool
ĠLe igh
Ġbr ut
onn ell
Ġeditor ial
A P
Ġg olf
h ang
ath a
Ġsong writer
Ġgr an
Ġreminis cent
Ġw eld
Ġwas hed
ĠP orts
Ġup rising
erv ing
ĠAb raham
bre aking
ĠChand ler
Ġdiscontin ued
ĠSp encer
Ġaff ord
ĠBel ie
Ġneighbour ing
ĠBeng al
Ġreg ained
ram id
Ġscreen ing
18 0
Ġ187 2
Ġflu id
ĠOt to
Ġf are
The se
oth s
ug u
Ġdisp utes
ĠDaniel s
r av
ĠB uch
ĠH om
ĠR NA
ĠAd rian
cy cl
Ġcompar able
ĠML B
Ġtherap y
ĠF ellow
ĠK err
Ġtour ism
Ġult imate
Ġflu or
Ġsubs idi
Ġabsol ute
ĠBald win
" :
ĠM ick
Ġal ly
ĠV olt
ĠPer th
ĠRoman ia
A M
R ad
Ġun rest
Ġpubl ish
ĠId ol
ĠGameSp ot
Ear ly
Ġ" '
op al
Ġz ones
ĠTur ks
ingu ished
b irds
f in
ch ief
ĠW ald
Ġcapt ivity
Ġce ase
Ġmass acre
Ġintellig ent
P er
ĠG enesis
Ġinst ruction
Ġknow ing
ĠEll is
ĠFer gus
b et
n al
Ð °
ĠBar rett
Ġproject ed
ĠNor se
Ġmass es
Ġaccompl ish
isp here
le w
Ġ0 3
less ly
Ġdiscip line
ĠPly mouth
Ġc raf
Ġp aved
ĠNew foundland
Ġless ons
ĠBur ger
ĠKn ights
Ġdeploy ment
Ġdeleg ation
Ġs ew
ĠH at
ĠSt ories
i ast
un s
ab et
Ġtr ick
Ġpriv ately
Ġvolcan o
ĠCirc uit
y ers
er vers
Ġst roke
ĠCh ase
Ġqu it
Ġcor ridor
ĠSen ators
ĠA aron
ot us
ĠBe ginning
Ġdel ays
Ġregard less
ĠKe pler
Ġload ed
achel or
ĠPrest on
n or
r ates
ĠH ancock
ĠF landers
ina e
Ġsport ing
p ur
ect ors
Ġsub urb
Ġbus y
play er
Ġdescend ants
Ġib n
Ġf inger
ĠM ounted
Ġan ger
Ġopen ly
ellig ence
Ġfat alities
ĠLanc aster
ĠB ot
ĠB reak
Ġbu ff
ĠMc Donald
ĠSt ore
Ġche ss
ĠCurt is
Ġm im
Ġcont ing
ach i
ĠBl ake
Ġprot ecting
Ġplan es
ĠCap itol
Ġcontr acted
Ġsens itive
ĠMar x
Ġgener als
ĠHen ri
Ġnecess arily
ĠEr n
Ġcoal ition
z i
ĠC u
Ġn ests
ĠH um
oc ene
Ġdecl aring
el ic
Ġr aw
Ġteam mates
ĠFl ood
fic ial
ĠCap ital
Ġrap per
ĠGar c
ĠGeoff rey
D ue
P rior
Ã £o
Ġper f
Ġe ject
ĠH ous
av our
ĠJ en
op ular
Ġout door
ĠLe ban
Ġed iting
ĠOr thodox
Ġcoll ision
l ies
el i
Ġpro ud
Ġsh ops
Through out
ĠS ax
Ġl ava
ĠB ent
Ġg ains
Ġg amb
ĠSt age
Ġfarm ing
ĠAdvent ures
t ailed
is ans
il ia
ĠBar n
Ġseem ingly
ĠMax well
Ġdescend ed
Ġcooper ation
B oth
M L
ad ian
ĠM obile
Ġun employ
Ġdis gu
Ġreal izes
Ġsym met
ĠElect ronic
ĠH erman
ĠSc reen
ĠMot or
ĠMarc us
Bet ween
f old
Ġm embr
ent ric
orm an
ĠAll music
Ġhon ours
Ġ186 8
yr ight
199 9
Ġiron cl
ĠP rison
ĠRe ading
Ġgr ain
Ġstory lines
or ge
ĠK ub
ov o
ĠRe yn
elf are
ĠEd monton
Ġt rophy
ĠG host
Ġdec omp
Ġcre ates
Ġdevelop er
Ġk itchen
Ġoper ator
Ġsix ty
Ġfind ings
ĠSk inner
ĠArch ae
Sh ort
ĠFem ale
C o
ay ette
ĠW rest
Ġde eper
Ġelimin ate
Ġprohib ited
Ġd awn
Ġgener ate
ĠE sp
Ġoper as
let cher
Ġrecogn ize
hol m
Ġcab in
ĠProduct ions
G S
d ing
z o
ĠC rom
ĠW ings
ĠK ens
Ġlic ensed
Ġpregn ancy
Ġgather ing
Ġaggreg ate
ĠR ams
Ġed ges
ĠPl aza
ĠCommission er
ĠForm er
Ġcitiz en
Ġmerch ants
ĠMot ion
Ġsurf aces
Ġconj unction
l ay
Ġa uction
Ġg reet
Ġg auge
ĠTh om
leg iate
Ġproceed ings
Ġsurpr ising
Ġnickn amed
ir s
ĠH amb
qu arter
ib l
Ġmin im
Ġke en
Ġdisapp ear
ĠRel ations
ĠL ogan
Ġreg ist
Ġscen ario
h orn
h urst
Ġl ux
ĠL ie
Ġj oke
Ġam bit
oph ical
ĠMet al
Ġacqu isition
P art
ist ically
Ġdec omm
Ġrestaur ants
Ġru ins
ĠC urrent
ĠG y
ĠPar achute
Ġstrugg ling
Ġadapt ations
bro ok
ĠH ait
Ġopt ed
imens ions
Ġatmosp heric
Ġstead y
ĠNash ville
D ay
an an
ant i
Ġgr ants
Ġcre am
arm s
ĠSur v
ĠProt ection
ĠS ierra
ĠB ron
ĠK es
Ġmotor way
pound er
Ġadminister ed
Ġch ances
D o
ĠS r
Ġfre ed
ĠPan ama
Ġstream s
Ġo ak
ĠOn line
sp eed
Ġprog ression
Ġpack age
Ġmut ual
Ġlob by
Ġninet eenth
Ġrevers ed
t aining
Ġtr igg
Ġdraw s
Ġfat al
Ġfest ivals
d rop
u ine
ĠM ang
Ġexper ts
ĠMin ogue
ĠKore ans
Ġstrengthe n
ĠBudd hist
Ġveter ans
Ġca ution
ĠBrig adier
ro zen
Ġinv ented
ĠTr ue
Ġpost pon
ĠPal mer
ĠArch itect
Ġtun nels
ĠDev on
Ġd ug
Ġcl ay
ĠUs her
spe aking
c ap
Ġt ennis
us hes
ĠK er
Ġper pet
ĠSp y
W orld
Ġroll er
Ġsket ch
g s
Å ¾
iv ic
ĠO w
ik es
uch i
Ġmod es
Ġspe eches
Ġdemon stration
Ġincorpor ates
ĠIndust rial
b ours
Ġd ors
ol ades
ov ich
ĠMan ning
ĠComb at
Ġ ËĪ
Ġm uzzle
Ġtop ic
Ġer osion
ĠMo z
Ġflood s
Ġri ff
Ġlif estyle
Ġwor ried
Ġjump ing
ĠHe aven
Ġsub stance
ipp ing
ĠT all
Ġpl utonium
ĠGr an
ĠÂ µ
Ġdel ight
Ġnight s
ĠS uz
ĠC ool
Ġsh ar
Ġsec ular
Ġsub sc
Ġpar am
ĠRes ident
ym n
ĠArmen ia
Ġt um
Ġh iding
ant om
ĠCar n
ĠSen ior
Ġfunction al
Ġincom plete
p re
ĠB ast
ĠW a
ast ing
Ġres erved
ĠCon sequently
Ġmod ifications
ĠForm ula
Ġsufficient ly
Ġa f
Ġp ine
ĠT ask
Ġn am
Ġover th
Ġam endment
ĠGu atem
ux ili
ĠStr ong
ĠUs ing
Ġpros ecut
Ġped est
Ġf ir
Ġh ur
ad ows
ĠP ale
ĠJ unction
Ġres ort
Ġass essed
Ġtrans c
Ġfle e
Ġaut hentic
Ġdyn amic
Ġcent res
Ġintern et
Ġput s
Ġerr ors
Ġalleged ly
ĠLyn ch
r aine
w y
ĠD rama
ĠL af
row ing
ĠChar acter
Ġcal m
ĠMax im
Ġcamer as
s by
ĠN av
Ġpr inc
Ġso ap
Ġinvestig ated
Ġambit ious
w oman
il ian
im id
ĠE y
ĠO ri
Ġsub tle
Ġimp ress
ĠNot able
Ġham let
âĢ ľ
Ġsupple ment
R T
Ġst ance
Ġsec uring
ĠAll Music
ĠPow ell
b ird
is le
Ġcons ent
Ġupgr ade
A ust
d ict
ĠS uff
ere k
Ġar bit
the n
Ġcr ust
ĠBer keley
Ġdiagn osed
Ġin ject
ĠS ans
Ġhe ct
Ġnot ion
ĠSh adow
Ġmet ab
Ġgener ations
Ġthough ts
Ġlack s
ĠHol mes
Ġtend ed
readn ought
ĠS ib
op ters
ong ue
Ġch ord
ĠCh all
Ã© l
com p
ĠBow ie
ĠTurn pike
ĠBroadcast ing
ĠM ol
ĠJ ur
qu et
Ġen able
over ning
ict ions
Ġwater line
ĠHer gÃ©
Ġqual ify
ĠWind sor
oca ust
C ap
M ad
ĠUn til
Ġback up
ĠHar per
ĠGu ards
Ġexcess ive
Ġbare ly
onge Bob
Ġs aving
ĠB ear
im ination
ig u
Ġj oy
Ġconf ined
Ġ187 9
Ġattract ive
Ġmaint ains
ĠG ust
Ġor gans
so on
ĠY ok
Ġesc al
Ġimm un
C om
Ġs hed
ĠH off
Ġsp o
Ġj okes
Ġelect oral
Ġhon est
Ġcolle ges
Ġo rient
ne um
Ġne arest
Ġtem po
Ġgrad uating
ĠLeg ion
Ġmob il
ĠAdv ance
I N
an iel
Ġatt achment
ĠAir borne
ĠCarol ine
ĠSound track
ĠVi ew
Ġsacrif ice
osy stem
F r
Ġc oc
Ġb onds
ĠS H
Ġcons ul
ĠGl ass
E T
H ow
h ower
o i
ĠT ales
oun ce
ĠCh in
per ed
Ġart if
ĠJer emy
on ing
Ġf ile
Ġe ase
Ġtr ap
ĠAr ctic
Ġsuccess es
Ġexplos ive
Ġsh adow
ĠÃ ģ
Ġkeep s
ĠFinal s
R uss
os ely
iel berg
ĠSh ank
Ġread s
Ġmer ger
Ġflag s
ÅĤ aw
Ġapprec iated
ĠGriff in
ĠChair man
Ġp hyl
ot ted
ĠPar amount
Ġdig it
Ġemphas ized
Ġclimb ing
h ot
Ġmon ks
Ġesc apes
ĠFranc o
bu ilding
chang es
ĠT iger
Ġtrans p
Ġintrodu cing
rie ved
Ġincorpor ate
Ġple asure
ĠLind wall
Ġd iving
ĠHe at
ade qu
Ġmus cle
ĠSo ft
Ġunus ually
Ġmart ial
p es
and in
osp here
oph one
Ġappl ic
Ġlay out
Ġgrav ity
Ġelder ly
Ġcompens ation
Ġ ump
ĠM VP
ĠG eneration
ĠBus ch
at um
ll a
Ġtrack ing
Ġdefe ats
ĠSer bs
rif ied
b ing
an ian
ĠF ab
ĠCh op
ib al
Ġele venth
ĠTun nel
Ġw ounds
Ġc ere
Ġin ver
ĠS ep
od ia
Ġpre val
Ġpop ulated
umn i
Ġsyn th
Ġens emble
Ġstrengthe ning
Ġf ox
Ġh i
ĠB ri
Ġit em
Ġread ily
ĠMcC ain
Ġconsequ ently
Ġmaneu vers
D P
E m
w yn
er als
ĠM oney
ĠH ip
Ġsp ur
Ġspe aker
Ġbar rier
Ġdiv ine
Ġmanif est
is or
ri ke
Ġmet ropolitan
ĠBor ough
ĠB ott
ĠG az
Ġex ceeded
ĠV ern
Ġmon key
Ġfront ier
Ġmiss iles
can al
b ul
Ġs el
Ġs oci
Ġre ly
ct ive
ĠGar field
Ġcomfort able
ent ry
Ġinv itation
Ġunp opular
Ġfil ter
Ġspawn ed
ĠA ur
ĠG ener
Ġpres um
ĠCal vin
Ġslow ed
Ġconclud es
Ġinhab ited
b red
l ance
Ġb er
ry ing
Ġinc ons
Ġline up
ĠSol omon
Ġinsc ription
Ġrook ie
ĠC ec
Ġan arch
Ġmid night
Ġthr ust
Ġre per
Ġloc ate
ĠWar wick
Ġmeasure ments
ĠBas in
Ġtra its
Ġmonarch y
Ġcompet itors
Ġdi ary
ĠAddition al
ĠMaur ice
b ase
Ġp ushing
Ġdr ives
ĠMan or
Ġdest ination
Ġemploy ee
ĠVal ent
Ġmist aken
nd um
ol ics
ch air
ĠBo oth
osh i
ĠGard ens
al ogue
ĠC os
ĠR av
ĠE qu
Ġtr am
ĠAugust us
ĠEd win
Ġpup ils
M on
ĠCl aire
yl um
ĠCub an
Ġretro sp
Ġs us
Ġass ignment
Ġam pl
ĠDel hi
ĠStan ford
ĠHop kins
Ġenthusi astic
ĠBulgar ia
M at
ĠT axon
av ity
Ġcomp uters
Ġass ume
Ġref it
ĠPr ice
Ġneighbor ing
Ġsynthe sis
ĠP i
Ġcons umed
Ġdist ances
Ġblack s
Ġproced ures
ĠMond ay
Ġc ats
ot on
Ġbut t
ters hire
Ġcor p
Ġsex ually
Ġphys ician
Ġnegoti ated
Ġfrag ment
Ġpredecess ors
Ġflo ating
ĠP irates
Ġpos ed
Ġtop ics
Ġprof its
ar u
ir med
Ġcap abilities
au er
ĠAthe n
ĠBang l
Ġto ol
ir ate
ĠEm ily
ĠTre asury
Ġcoff ee
ĠR andy
ĠCh ancellor
ish i
Ġj ail
Ġcare fully
ĠSw ord
Ġhon ored
ĠLou ise
ĠArt illery
Ġcho osing
Ġrang ed
ĠRhodes ia
Ġaccur acy
ĠFinn ish
orig inal
u ates
Ġh ung
Ġfor ts
ĠL akes
ĠSt arr
Ġ11 5
Ġconst r
Ġtest imony
Ġsat ir
Ġ184 8
ĠMir ror
t urn
Ġre vel
ĠC ann
be it
Ġ187 4
199 7
Ġdark ness
Ġmemor able
ĠT ib
red ited
ĠJenn ings
ĠJan et
ĠF ac
Ġbet ray
ĠNe pt
ĠPe g
ĠSus sex
rim ination
Ġt ide
Ġw itch
ĠS aints
Ġsu ited
Ġant iqu
ĠIll ust
Ġreflect s
pent er
h arm
ĠS under
Ġcon ve
vi k
Ġdec iding
Ġdu et
Ġmoment um
Ġpreced ed
Ġbes ie
Ġbrig ades
tem po
ĠGuadal canal
Ġdisappoint ment
ĠM ead
im an
Ġrequ ests
Ġreal ize
I m
r aska
z h
ĠD y
ĠE aster
Ġac ids
Ġcho ices
Ġillust rations
ĠGab riel
d is
ĠM C
Ġnorth bound
Ġsett ings
ĠDam age
ĠWW F
Ġexha ust
Ġf ever
ĠP un
ĠF letcher
ess a
Ġab d
Ġste pped
Ġstrugg les
ĠWars aw
Ġlegit imate
ar se
ĠT yr
ie v
Ġdet ached
ĠHay es
Ġdrain age
Ġstom ach
ĠE SP
che z
ĠRuss ians
ĠRh ode
struct ure
Ġlimit ations
Å Ħ
Ġd orm
Ġreg ret
Ġfre ight
vers ely
Ġnob ility
ĠUnivers e
v as
Ġf usion
ĠM om
et e
ĠH ale
ĠY et
Ġcar n
ĠPl aces
Ġcour age
Ġhard ware
ĠCont emporary
ĠPre par
ĠChap man
Ġarc ade
ĠArgent ine
ĠPier ce
Ġsub urban
ĠLe ad
ĠSouth ampton
Ġident ification
Ġhealth y
Ġcelebr ity
Ġmir ror
Ġabol ished
m us
ĠH ess
ĠH oll
Ġmonth ly
Ġaff ecting
Ġadvoc ate
i ott
ĠB og
ĠK ot
ĠMar tha
ĠSp ielberg
ĠPres ley
ĠAI DS
Ġaccord ance
ing le
Ġv it
Ġle ather
Ġ0 2
Ġd imensions
Ġher ald
Ġkn ock
ĠSh ar
Ġprom ising
ĠSup erman
ĠIr ving
os al
ĠN L
oc ese
Ġcomp rises
ĠCom mercial
Ġresemb les
Ġcong regation
v ae
ay ers
Ġany where
Ġtw elfth
ĠDou g
Ġbass ist
b oth
ad ic
ĠSt alin
ound ing
Ġunder neath
Ġstri pped
ĠMun ich
Ġenh ance
ĠEisen hower
Ġs ink
it ating
st ock
Ġn aked
ĠB aptist
ãĥ ¼
Ġille g
Ġcontroll ing
a que
in ite
an ning
Ġst all
ĠW id
Ġr ush
Ġse iz
ubl ished
Ġhero es
O ld
ĠG reeks
ip el
Ġteen age
pow ered
ĠB od
ĠR up
est e
Ġwar riors
ĠAd ri
ĠEd gar
Ġsusp ect
ij i
ĠTw enty
O h
p ol
Ġfe es
Ġmat urity
ĠColumb us
Ġmunicip ality
N orth
o an
ĠM ember
ber ger
Ġor al
ĠCol lect
Ġtotal ed
Ġrepe at
ĠGlob al
Ġimprison ment
mod ern
S outh
c are
Ġp atch
ĠP ra
Ġsp are
Ġte a
ĠSur vey
Ġske leton
Ġlem ur
Ġm es
ĠP orter
Ġrele vant
Ġsaf ely
Ġsecret ly
r ically
Ġse ize
Ġconqu ered
un n
ab ling
the y
ĠGo eb
Ġevolution ary
ĠGer ald
Ġendors ed
or p
ig hest
Ġpro ven
ond e
ph an
Ġmet aph
Ġconv inc
Ġpain ter
ĠHam mer
ĠJenn ifer
is bury
es ters
Ġto ss
Ġe cl
ĠM ing
Ġat oms
out ed
ĠBer ry
Ġmill imetres
Ġnegoti ate
Ġkick ed
ĠBol ton
Ġrum ors
Rober t
g rossing
u cc
ĠS ite
ĠW als
Ġrest r
af e
ĠArt ist
Ġ185 1
Ġemb arr
Ġprec ise
ĠPow ers
ĠB alk
pl ing
Ġpre view
Ġqu e
Ġcust oms
t age
Ġin g
ĠM unicip
sh op
Ġsoc ieties
Ġinf ected
agon ists
Ġsoph istic
ĠFergus on
Ġw are
em pl
Ġunder lying
Ġbre ad
Ġlim estone
Ġspecial ized
ĠCr ime
imet ers
Ġpron ounced
L ittle
ĠN y
ace ae
ĠBr andon
ĠMan ager
Ġhosp itals
ĠTaxon omy
Ġan at
Ġext ant
Ġfact ions
Ġincor rect
Ġmurd ers
Ġenforce ment
Geor ge
S im
V A
ĠG as
ĠE U
Ġsc ope
Ġover d
Ġret aining
Ġwant ing
Ġcrowd s
ĠHend rix
ĠÅ ł
ĠObs erv
Ġunn amed
Ġsubsidi ary
Ġp ian
Ġun t
ĠCh i
Ġsc ales
ĠTh ings
na e
Ġgif ts
ĠReyn olds
ĠR ugby
so ver
che str
ĠFr anz
ĠMon ster
ĠArt icle
Ġbur st
ĠCont in
ĠVar iety
Ġentert aining
ĠS ed
Ġcom merce
ix ed
Ġinvestig ations
Ġmerch and
Ġsac red
Ġjudg ment
Ġdors al
1 40
M en
N S
j ar
or o
ĠM umb
art her
Ġle ase
Ġdesign ers
Ġext inction
ĠQu arter
Ġnation ally
ĠLithuan ia
Ġw ool
ĠM am
ĠE ighth
ast ed
ub a
Ġcat alog
Ġintercept ed
Ġhelic opters
ic on
art e
Ġcop yright
ĠCr ane
ĠKenn y
Ġfair y
Ġconfron ted
Ġsumm ary
E nd
Ġde pr
Ġreal m
ĠRoad s
Ġconv iction
Ġremark able
Ġl ion
ĠR ight
Ġpr ayer
Ġpres c
Ġrun way
Ġsexual ity
ĠMort on
Ġp ige
ĠN OK
az on
tend er
Ġpress ed
Ġdiv ide
Ġspecial ist
agon al
ĠCast ro
Ġtrib al
ĠSub sequently
Ġtot ally
ĠPatt on
ĠStef ani
Ġs ou
Ġin quiry
Ġeff iciency
aul ted
ĠRock y
199 8
ĠVen us
Ġwel com
Ġ á
is b
ĠW ed
ass ic
Ġper mit
ott a
Ġspe akers
ĠAssoci ated
ĠSt yle
Ġres olve
ĠSp in
ĠBel le
Ġex port
ĠK os
ov an
Ġintrodu ces
Ġsevent een
Ġpros ecution
Ġfresh man
Ġvolunte er
Japan ese
ac co
ĠH anna
ĠN umber
Ġcont ents
Ġserv ants
Ġ0 1
Ġbreak down
Ġoccup y
Ġder iv
ĠCath olics
ĠHawai ian
ĠH utch
Ġthink s
Ġund ers
Ġdecomm issioned
P e
or ters
ay e
Ġst unt
ĠG am
Ġsol utions
ĠLight ning
Ġpitch ing
ĠInt elligence
ĠS port
Ġreal ised
ĠGl enn
Ġavail ability
ĠDist inguished
Ġeat en
ĠSout heast
ĠPorts mouth
ĠL ed
Ġper ception
ĠFl ag
Ġdraw ings
ĠSal isbury
Ġsubstant ially
ĠSeb ast
k ind
Ġf ib
Ġb out
Ġr er
Ġpl astic
ĠLe ader
ĠSp ect
ĠSch w
Ġachie ving
Ġdoub les
Ġh ol
Ġsouth bound
Ġmag ical
Ġbar b
Ġvol unt
aud i
Ġinnov ative
cliff e
ĠS au
Ġv ow
ĠCom ic
Ġcolon el
Ġdom ain
Ġgar age
P ar
P ol
m id
ro ft
Ġwould n
Ġcare ers
ĠCan ber
gr im
Ġvac c
e ight
it ory
ĠS ue
ĠP end
Ġsub urbs
Ġbl og
Ġmon uments
Ġfac ts
ĠScot ia
Ġrefere ndum
Ġin adequ
ĠS qu
ĠC P
ith m
ĠR ice
Ġcomp act
ĠHam mond
ĠAnt i
Ġancest ors
ĠBright on
b age
Ġa ug
ĠB av
all ow
Ġcomp rehensive
ĠSp ongeBob
Ġperform er
Ġinf ant
Ġgen uine
Ġliter ally
ĠScout ing
Ġnam ely
s pring
ĠS ter
Ġpl acement
Ġdepend s
ĠBanks ia
Ġkeyboard s
Ġw ors
Ġp sy
ĠR ever
ĠR acing
ore y
se ven
ĠRe y
Ġtend ency
Ġadm ired
ĠPeters burg
ĠSic ily
Ġbar racks
C ont
I T
r ina
ig on
ĠP age
io let
ex per
m ons
r ush
Ġmon sters
Ġeffect iveness
bor o
ĠDomin ican
Ġadopt ion
Ġdece ased
ar ity
Ġcomm ended
ret ion
Ġsem if
eld a
cour t
L ater
Ï ģ
ad oes
Ġj am
Ġsub stit
Ġdr agon
Ġcountry side
Ġdepart ments
ĠLaur a
U P
t or
Ġo z
Ġal ert
Ġan k
Ġ4 50
hy d
ĠSw an
Ġball ot
Ġconclud ing
Ġcitizens hip
Ġdin osaurs
ĠWrest le
m ov
Ġs id
ar ium
ĠC ave
ĠP ut
ĠSt rait
ord e
Ġun ited
Ġmet eor
ĠHis pan
iffer ent
ĠNeb raska
Ġth roat
ĠW ander
ĠAr ms
ĠFr aser
Ġfort ified
Ġhang ing
M P
Ġd ome
ĠS z
Ġl ocked
ĠD re
ĠL ag
ack er
Ġvar ieties
Ġins ect
ĠHol ocaust
ĠAnn ie
ĠO ber
Ġch ains
ĠGame play
d ec
ĠS hen
am y
ĠP ont
Ġ2 20
ĠSh a
Ġexc iting
Ġdomin ance
Ġtradem ark
U p
Ġw atches
ĠB atter
ĠD ian
est ock
Ġro de
Ġear s
Ġhom age
ias m
ĠBah amas
ĠEug ene
Ġunh appy
Ġthe or
Ġc it
ĠW ake
ĠG ren
ĠJ G
Ġr am
Ġr ape
ish na
Ġresp ected
Ġfav oured
Ġsol ve
Ġgoal keeper
ĠSing h
Ġrid ic
Ġcolle ague
Ġperfect ly
Ġinstall ment
Ġbot an
Ġpuzz les
ĠSunder land
Ġsh irt
Ġorgan isations
uther ford
Ġa thlete
ĠC ant
Ġg ren
ĠR hys
amp ed
Ġhigh lights
Ġcorrespond ence
Ġrecon cil
Ġmathem atical
% ),
v ia
er os
al an
ĠM ade
og ical
Ġvis uals
ope z
Ġobs ervers
Ġpers isted
writ ers
ĠRoberts on
unc iation
Ġisot opes
uxili ary
z ing
Ġf ake
Ġst ip
ĠR are
Ġdown ed
Ġph ases
ĠJeff rey
ĠBa iley
Ġanth rop
W ar
e xt
un ion
Ġj e
ob s
Ġrel ax
Ġnational ist
ĠAx is
id ance
Ġrel iable
ah on
Ġbas ement
Ġcontr ary
ĠBu enos
ĠPop ular
Ġinher it
ĠS old
ĠD awn
ick ed
Ġexc ited
ĠLo is
ĠC oul
ĠL odge
ĠBl aine
Ġremark s
ĠTimber lake
Short ly
Ġb ishops
al and
ĠA ires
ĠE ss
qu in
ĠK om
ĠâĢ ĺ
Ġrece iver
ĠBrit t
aged y
Ġfort une
Ġdiagn osis
o j
ĠC itiz
ĠP and
Ġend angered
ĠFor bes
ĠWill is
Ġcry stal
ĠDur ham
Ġin ch
ĠW end
Ġsp here
ĠSc andin
Ġworld s
20 14
ĠRec reation
Ġwood land
ĠEngine ers
Ġles bian
ĠJoy ce
ou fl
id y
id ity
ĠD erek
ĠW ilm
ĠL av
ist or
ry s
Ġseason al
Ġpres ervation
Ġmat ched
Ġmar itime
ĠQu inn
Ġbusiness man
Ġens ured
E F
ar in
Ġl od
ĠP red
Ġbe nd
aun ton
Ġmor ale
199 5
ĠBoy d
Ġorb its
ĠLess er
ibl ical
Ġal umin
cc entric
Ġ11 1
Ġactiv ist
Ġcou pled
Ġincorpor ating
ĠJac ques
Ġdisagre ed
Ġconfig uration
Ġreh abil
M art
g i
at che
ĠL an
ri et
ĠHe in
Ġspec ified
Ġperform s
ex pl
ĠEl s
Ġmot ivated
Ġexhib its
ĠMichel le
Ġd ign
ĠR af
Ġen acted
Ġte nder
ĠSh ack
Ġ12 00
Ġboard ing
Ġlands l
Ġautom atic
Ġexplicit ly
ovak ia
á»ĩ m
ĠR overs
ĠN ed
Ġle aked
ĠPl ate
Ġdet achment
Ġsl opes
ĠLu is
Ġec osystem
ĠWhit ney
Ġintent ions
ĠI X
ct uary
ĠE agles
Ġ24 0
ĠDu chess
Ġcollect ive
Ġavoid ing
Ġreun ited
Ġborrow ed
P D
m atic
en ary
Ġc ement
ĠH IV
ĠD iet
art z
Ġdesc riptions
Ġbus es
as se
as ures
act ical
ĠAn a
Ġinc red
Ġaver aging
Ġer up
itte es
Ġsil ence
Ġtalk ed
Ġacceler ated
ĠD art
op ing
Ġcl uster
Ġreflect ing
Ġfemin ist
ĠESP N
D ec
R ed
Ġexp elled
Ġdevelop s
19 80
Ġportr ays
ĠFerr ari
th ird
Ġtr ilogy
ass ing
Ġout lets
Ġreg ain
Ġmin eral
Ġgovern ed
Ġinfl icted
raw l
play ed
Ġtre m
ĠDay ton
ĠNort on
Ġvari ants
Man ia
C rit
] .
g ov
it ational
Ġb icy
Ġafter ward
ph al
ik er
sh ot
Ġ184 5
Ġpromin ence
am us
av o
air d
Ġdep ot
ene z
Ġcrown ed
Ġpersu ade
Ġfrust rated
r ington
at z
om ous
ĠH M
Ġal iens
ĠHe y
Ġover haul
ail and
ĠDist ribution
Ġprec urs
Ã¤ n
Ġcinem at
Ġfrig ates
Ġm ere
Ġr is
ĠV ul
Ġfound ations
Ġlow ered
Ġsil k
Ġp ocket
Ġst uck
ĠR Ã©
pl ane
per fect
Ġlar vae
Ġgr ace
Ġgen ius
Ġscript s
ĠPhilipp ine
Ġsatisf ied
Ġpoison ing
ĠCanber ra
v ous
at oes
Ġd rift
ĠT ampa
ĠH iro
ĠV a
ens ing
Ġmed ian
Ġrespons ibilities
Ġthr iller
ĠGal ile
Ġattrib utes
ĠWeb ber
c ies
if ax
Ġor chestr
ĠK le
ord ination
Ġret iring
Ġgr am
ĠSh awn
gr aded
ĠMon ica
Ġbow ler
Ġshel ters
fam ily
Î ¹
he res
om orph
Ġl ingu
ĠC redits
ĠN ME
Ġprot ective
Ġpresent ing
Ġconduct or
ĠArab ian
cles iast
Ġ es
he y
Ġm ouse
Ġro d
medi ately
ighth ouse
ĠConc ert
zy me
ĠGard ner
Ġjuven ile
ĠCaes ar
ion ed
ĠA A
ir us
ĠP itt
Ġch or
Ġ10 2
ĠAust en
Ġimm une
ĠEconom ic
Ġski ing
ĠHamb urg
th rop
ĠG av
ĠK iss
ĠK ann
Ġsp ont
ĠTri p
Ġroof s
ĠHug o
Ġcontinu ously
Ġs aves
Ġ1 19
ĠM aple
ĠN um
cl osed
cl amation
che l
uc lear
Ġfail s
Ġdoub led
Ġax is
Ġtox ic
Eng lish
ĠMumb ai
at ab
Ġb ure
ĠH V
Ġun ity
Ġreg ulation
Ġsuper hero
Ġ185 9
Ġroll ing
ĠAdri atic
s up
Ġf us
Ġe ccentric
Ġal beit
ĠK ath
Ġacc ent
ĠJo el
Ġste ering
Ġscreen ed
ĠEll iott
d irect
ĠT ake
el age
ĠP ix
Ġrespons es
ĠMet all
199 4
ĠRet rieved
Ġadvent ures
Ġmanuscript s
ĠDod gers
Ġh ipp
Ġhe ll
Ġch ambers
Ġtr ails
ĠSh ir
ĠBe ast
Ġactiv ated
hold ers
ĠÎ ¼
Ġaccommod ation
Ġdream s
ĠUlt imate
Ġanch or
ĠOm aha
Ġexclud ed
Ġb old
Ġd io
ĠM ale
iv ided
ĠH umph
ĠTr ad
alf ord
Ġfre ely
unk er
C redits
os er
vi Äĩ
Ġcent imetres
Ġrun ners
cont rolled
c ount
Ġin ability
od ing
Ġpoin ting
ĠEngine er
Ġreven ues
ĠO g
ard ing
oy le
Ġam ino
Ġdet on
Ġorgan ize
ĠAnd ers
ĠDemocr at
Ġnarrow ly
ĠâĤ ¬
avil ion
insp ired
O L
w ord
ĠW ong
ĠCh al
ĠY ang
Ġconv oys
Ġgrad uation
Ġfinanc ially
ĠLind a
Ġovers aw
ic ia
ĠD oc
ĠW u
ĠL ions
ĠK as
Ġstr ain
omet own
Ġcommand s
Ġimm igration
Ġorb ital
.' "
Ġabol ition
ĠL ac
Ġex agger
ik k
ĠSy rian
ĠRh ine
ĠAlexand ria
Ġcontempor aries
ĠC N
ĠG ross
Ġr ises
Ġshort age
Ġjud ged
Ġdeterior ated
R ich
Ġ à
ic z
Ġv eto
und y
ĠY u
oy a
Ġter restrial
ĠTor res
Ġreleg ated
Ġrejoin ed
ar ious
al ine
am ous
ĠM ine
ĠN u
ĠIn formation
Ġactiv ists
Ġgal axy
mill imeter
C omm
Ġt ales
ĠW ang
ĠL ear
art a
ĠTr uth
Ġtechn ologies
Ġaccept ing
Ġstop ping
ĠDan ube
oe uv
Ġquant ity
ĠÂµ m
w rote
Ġd ish
ĠS my
id an
Ġsc hem
ĠNew ark
ĠMore over
Ġtourn aments
Ġpoll s
Ġdefin itely
ĠBrun s
Ġaccum ulated
h uman
z ens
ĠP all
the med
Ġent ries
ĠGu err
Ġdrop s
Ġenlar ged
f ilm
h im
z ym
Ġd ent
Ġre app
ĠP s
ĠD uck
ĠW oll
ĠJ ag
Ġsh apes
Ġk it
ra its
ib e
Ġbl ame
Ġship ments
ĠWill ie
Ġbo om
Ġlink ing
Ġgrand son
ĠLuc y
B ar
H en
b i
c ul
ĠD oll
se nd
br ates
Ġenthus iasm
Ġrecommend ation
Ġunw illing
Ġsovereign ty
Ġwelcom ed
Ð ¾
ĠB ened
ĠO st
Ã© r
Ġbreak through
Ġevac uate
ĠPear son
ĠCru z
ĠP on
ĠF alk
ĠKing ston
gr and
Ġcoun ted
ĠNon etheless
Ġphyl ogen
in ate
it ative
ĠW as
rib e
ĠTr in
Ġmed ley
Ġexpress ing
L ife
g reen
Ġt ables
Ġf ut
op us
ell es
Ġwar rant
Ġeconom ics
ĠUlt imately
olith ic
m al
Ġcl er
Ġab rupt
Ġconc ur
Ġleg ally
Ġlaw yers
Ġcas em
load ed
Ġinte g
Ġkid ney
ĠPruss ia
Ġsib lings
ĠBangl adesh
ĠM Ã¼
ub les
ind s
ĠSchool s
Ġpurs uing
Ġsymb olic
Ġlaunch ing
Ġspect rum
ĠSav age
p ret
Ġtr ump
Ġ18 20
Ġrel ay
Ġbr ass
ĠX V
Ġsuper structure
Ġpoll ution
ou k
Ġbe ings
ĠD over
Ġhe s
Ġac ute
Ġsmall est
Ġsubject ed
Ġisol ation
S ch
d ish
ĠG aza
ud ed
ĠV as
Ġprop eller
Ġsound ed
Ġmeant ime
Ġfavour able
ĠMod el
igg s
Ġnick el
Ġtelesc ope
Ġo t
im o
Ġacc idents
ting ham
vious ly
ĠX III
Ġfr ames
Ġphys ic
Ġmean while
Ġinvestig ating
Ġpeace ful
ĠHal ifax
ĠObs erver
ĠDyn asty
a ude
an ic
ic ism
ĠA ven
ĠH ers
ĠG one
ie g
sh adow
Ġann oy
Ġsit com
Ġcat ches
Ġnarr ator
Ġtransform ation
Ġnucle us
s ed
en heimer
Ġg ig
ĠD ock
ĠN ame
Ġpl ag
Ġcont acts
ĠBl ock
ĠCap com
Ġconfront ation
O f
Ġc ros
ĠA j
ĠH ast
ress ing
Ġcrit eria
Ġaver ages
Ġpri ests
Ġwrest lers
ĠEnvironment al
S ec
ing ers
ĠL opez
ĠJ azz
ke e
Ġover time
Ġarr ay
Ġplat oon
Ġlov es
Ġadm its
d em
on el
Ġin ev
ĠS ag
ĠD iana
ĠMon ument
ĠWin chester
ĠArab ic
Ġcompar isons
zer b
ropol is
ĠKnow les
Ġdemocr acy
at as
ĠL ay
Ġan onymous
Ġman or
ĠCon v
Ġtro ut
ĠEx am
ĠLar ge
Ġblow n
Ġpostpon ed
á ¹
ĠK ang
ĠBro ck
Ġreview ing
Ġfr atern
Ġche er
Ġunc ons
ĠHold en
Ġp neum
Ġh ometown
ent e
et ing
ĠAr med
ful l
g ard
Ġl auded
ut z
Ġsm art
Ġview er
Ġmanag ers
Wh ite
Ġsymp athetic
an as
ĠH ollow
ch ant
Ġobs erve
Ġ185 7
Ġdispl acement
ĠBudd h
cycl op
w ill
Ġb ag
Ġg ills
ĠK aren
pr ising
ĠSh ore
ĠBrit ney
Ġref usal
Ġste al
ĠHall ow
ĠBer k
ĠSn ake
Ġtelev ised
h aus
ĠI sh
ch y
Ġhe ating
op old
Ġpro long
Ġep id
Ġbul let
Ġnit rogen
G o
Ġb eds
Ġh aul
ĠN em
Ġv ibr
Ġnew er
Ġunder graduate
Ġrebu ilding
Ġthunderstorm s
Ġrecre ational
Ġa ster
Ġs aint
ĠC reat
her d
ĠL ook
Ġtr ace
Ġcapt ive
Ġcal endar
oh l
Ġautom atically
Ġalt ogether
ĠMcM ahon
Ġtheore tical
G ood
Ġw elfare
ol ving
Ġper m
Ġdec lining
ĠFre eway
W R
Ġst ake
ĠL omb
Ġr av
ĠK ra
Ġdis k
Ġexp enses
ĠAll an
Ġclim ax
Ġg overning
ig uel
ĠF ear
ĠL ans
Ġpl anted
ĠTh ailand
ĠJohn s
fl ies
ĠAss istant
Ġtend s
Ġimplement ation
r ise
ĠD rew
Ġimag ination
Ġc ig
Ġf ins
Ġwh it
ag ara
Ġche ap
Ġden omin
Ġencour aging
Ġsend s
Ġrecommend ations
Ġhapp ens
c r
w alk
x ter
ĠC ert
ac a
ĠG at
ill ian
ĠV on
Ġper ipher
Ġrec apt
Ġ12 7
ĠMin ne
Ġbig ger
ĠInter ior
Ġkind s
Ġir re
Ġmanufact urer
Ġtruck s
k ed
on er
an or
Ġpre ference
ĠAir craft
ĠIndian apolis
ĠUnder ground
Ġextra ordinary
Ġspok es
Ġmonitor ing
Ġc ott
id ian
ĠR ather
ĠL or
ĠL ich
oc ate
Ġbl ank
to o
ĠMed icine
Ġ185 4
Ġfit ting
ĠDest iny
Ġadvertis ement
ĠBruns wick
Ġt yr
he nd
Ġw ages
Ġl ibr
Ġl unch
am o
id ium
ĠJ in
ber to
ov ny
ĠComp an
in os
se at
Ġsu ed
ĠTr ain
Ġdram atically
Ġri ot
ĠHaw k
ĠHann ah
f ires
r at
Ġd olph
il us
ĠK arn
ĠRe id
erv es
Ġmar ble
isc al
ĠDi á»ĩm
ĠHy d
Ġoverl ook
Ġneighborhood s
F irst
c over
ors et
ank ovic
Ġpar ade
Ġconf isc
ĠCanad iens
ĠReview s
Ġwel come
ĠRoche ster
T om
b ank
i ability
l if
re qu
Ġl ined
ĠG and
ĠJ ava
Ġinter rog
s ometimes
iz able
omet ry
aster ly
Ġfre estyle
eal ous
Ġcerem onial
Ġdrown ed
ĠTraff ord
S o
m ail
st a
Ġ" ,
Ġal k
ĠJ ets
ab i
Ġ18 12
ĠBe au
Ġnation wide
ĠDam asc
Ġmort ality
Ġbats men
ĠAntar ctic
ĠF C
Ġsh ale
ah o
ĠPri est
Ġded ication
t ail
Ġs ax
ĠC ai
th ood
ĠCom pton
Ġshow c
oot ing
Ġgu idance
Ġtro ubl
Ġtorn adoes
ĠCost a
ĠMiddles ex
Ġl oses
ĠH utton
if ier
Ġde er
ĠK ur
ast rop
Ġcivil ization
Ġconcent rate
Ġdisturb ed
Ġsupposed ly
ĠBah rain
Ġpublisher s
ĠLithuan ian
Ġportr aying
Ġtrigg ered
un ct
ĠD ob
ong s
cl air
Ġcap ability
Ġpass ages
Ġobject ed
Ġrow s
ĠDisc overy
ĠH aven
ĠP ike
ĠR oth
em ics
iff s
h ighest
et ics
ig uous
ĠF iction
Ġsc ream
Ġapp rent
Ġstat ute
Ġval ued
ĠWrit ers
l ot
n ort
Ġt ongue
Ġw ond
Ġc ater
ĠC ock
Ġpl ug
ĠK end
ok en
Ġam ounted
ĠComm odore
ĠPresident ial
ĠEven ing
ĠVar ious
Ġcontroll er
Ġexha usted
om i
ur ated
ĠB ever
th al
Ġgu ided
ĠMy c
Ġcelebr ations
Ġtim ing
ĠLim ited
j ord
ĠB le
ĠK or
Ġad mission
Ġinst ances
ĠSing er
unt a
Ġpow der
ĠGlou cester
ĠS N
el ong
ĠB j
ĠIn g
ie u
che v
ĠGre ene
w he
Ġn urse
ĠCh an
gest ion
Ġprom ises
Ġcommun icate
umber ing
Ġfilmm akers
Ġrect angular
M att
Ġw it
ĠI g
Ġorder ing
ĠMo h
Ġclear ing
Ġfarm land
g overn
Ġcl erk
Ġdis rupt
Ġpe as
Ġprim itive
Ġboard s
Ġmoder ately
Ġsand stone
ĠStaff ord
Ġdemol ition
R ob
Ġtest ified
Ġculmin ated
Brit ish
ĠNept une
i em
Ġl or
Ġl aying
ren cy
Ġdet ective
Ġshort ened
ĠWrestle Mania
ec a
Ġreg ards
Ġ11 2
ĠDr um
Ġcomplex ity
Ġqual ification
l antic
al though
im i
Ġne uro
ven ge
ĠBy rd
Ġsk irm
Ã³ w
ĠAp art
Ġtherm al
ipel ago
is ure
Ġsp arrow
Ġ10 6
Ġoper ators
Ġlabel ed
Ġcanc ellation
G old
c aster
ĠHar bour
ĠPhil os
ĠDuch ovny
Ġfier ce
Ġconced ed
d ated
Ġg re
Ġco aster
ĠAfter wards
Ġaff ection
ĠBrad ford
ĠCorn ell
ĠJess e
y on
ĠCl aud
Ġposs essions
On ce
Ġinvest ed
ĠIm m
Ġinfer ior
ĠM ake
ĠJ ak
ass ium
Ġinc omp
ecess ary
Ġbroadcast ing
Ġdissip ating
ĠTib et
in tend
ĠTh orn
amp h
Ġpe ers
ĠPal m
Ġ185 8
ĠAsh ley
Ġing red
F rench
c os
Ġp p
ĠB irds
ĠV augh
ĠRich ards
oul t
Ġviol in
Ġdon ations
Ġprem ise
zerb ai
S m
in f
ĠR utherford
Ġper imeter
ĠTh urs
Ġinter face
ef e
Ġpat ent
ĠIraq i
ĠDamasc us
S C
Ġt et
ĠS E
ĠR ama
ne g
ĠPer u
ĠNor wich
Ġgrand mother
Ġi P
add y
Ġmanufact ure
Ġpure ly
N T
ing ing
ĠP itch
ĠF ul
Ġbu ying
Ġcr us
ĠSer geant
W rit
k rit
Ġm ock
ĠE rie
Ġsh ocked
Ġcl ient
ator ies
Ġviol ation
ĠLouis ville
Ġaccount ing
Ġd il
ĠT ab
ap or
Ġcur ric
Ġkilog rams
n ant
ĠL az
Ġdis rupted
ĠAv on
Ġrend ition
Ġdio xide
Ð ¸
Ġs its
Ġh alt
il ight
Ġex empl
Ġsc orer
Ġhel ium
Ġarch itects
Ġ184 9
Ġdivor ced
Ġtort ure
o qu
ic ating
ent in
ĠS iege
ĠV ince
ely n
Ġinvest ors
Ġradio active
Ġ185 6
Ġparallel s
Ġancest or
Ġadequ ate
Ġuncons cious
F R
d al
g ae
z el
Ġn ost
qu el
ĠV enez
ath on
Ġrecip ient
Ġaccus ations
Ġo ath
Ġd ys
ĠC C
Ġg ospel
ĠF aith
Ġint rig
Ġout s
Ġsub mit
Ġgu ys
Ġcorn ers
ĠEld er
Ġt iny
ĠC ly
ew ays
ĠU ran
Ġtr igger
ered ith
anc er
ĠAd ult
Ġvict orious
Ġhard er
Ġbal let
aver n
r ative
Ġt ired
al ore
as ma
id ad
Ġoff spring
Ġevery body
ĠCo ch
sequ ent
ĠVol unte
d el
p ers
ĠJ oker
ĠSt op
Ġdefend er
Ġrelie ve
Ġdischar ge
Ġabb ey
Ġplum age
Ġ Ì
ĠS es
ĠM iy
ĠR id
Ġdev ised
ĠCub s
ĠMah ar
Ġliv estock
O ct
Ġf og
ĠF en
ĠN im
ĠN iger
Ġdecl are
Ġren t
ĠStew ie
Ġremn ant
Am ong
Ġhorn s
Ġdimin ished
Ġaest hetic
ĠSebast ian
M ore
Ġs acked
ĠB un
ĠR ac
ĠL anka
ib les
ĠAr d
ĠTo o
Ġreason able
ĠJul iet
Ġmort ar
Ġrub ber
ĠS A
ad os
Ġst un
Ġbe aches
ĠG ould
ĠG Ã¶
land o
Ġco ached
ĠBr isb
ĠFr inge
empt ion
Ġcolon ists
Ġox ide
ĠBuck ingham
Ġtack le
l ord
om ans
ĠK ol
Ġher b
Ġcl usters
ĠSh aron
Ġback drop
Ġland sc
ĠCo hen
ros se
ĠPrim ary
m aker
Ġl ady
ĠD ry
ĠL il
ab ul
Ġpres umed
Ġ11 3
Ġsl ot
Ġperson a
Ġpar ad
ĠWy att
D T
E ven
G od
b one
f iction
Ġd ining
ou x
Ġn a
ĠR ip
ĠD ana
ĠD onna
Ġman oeuv
ĠWhe eler
P res
s uper
y cl
ar ck
ĠT ank
et ers
ĠD h
Ġmet er
ĠAngel a
Ġpay ments
ĠBet ty
Ġcommemor ate
ĠLex ington
Ġo re
im son
ĠG iant
ĠK iel
ov ed
act ions
ind a
ĠAr cher
19 70
ĠCo ach
Ġannoun cing
ĠStud ent
Ġphilos ophical
ĠSug ar
ĠBrisb ane
B i
Ġf et
ĠA way
ĠE uras
ĠLe ft
led on
Ġsk illed
ortun ately
Ġfeed back
ĠShak ira
def ined
Ġmos que
Ġschem es
b ig
É ª
ĠC ret
ĠV ed
pl us
ren ches
ces tershire
ific ate
ĠMil ton
hib ition
Ġpen alties
Ġnest ing
Ġn as
ĠTh ir
Ġarch bishop
Ġdiss atisf
Ġcompan ions
Ġvir al
ĠA U
th ouse
ĠMar cel
ĠZ oo
ĠRhodes ian
Ġconsum er
ĠStock holm
Ġencl osed
O W
o que
re lease
Ġc ooking
Ġb inding
Ġn erve
Ġdisc rimination
cont inental
Ġhi atus
H op
b ors
ĠC G
ĠM its
ly ph
omin ated
Ġlim bs
Ġren owned
ĠLeban on
Aust ral
W ork
l ass
Ġa ims
at ible
Ġm ast
ĠL og
ĠN an
ced ented
Ġcor poration
met re
ĠBas il
ĠOpp enheimer
ĠMethod ist
occup ied
iv ier
th irds
Ġal tar
and ra
Ġam end
Ġrad i
ĠNe g
Ġstar ter
Ġinstruct or
Ġcam oufl
Ġd ull
el est
Ġsp ans
by ter
Ġnon etheless
Ġrail ways
ĠPers ians
Ġconvent ions
estab lished
b in
ĠT ell
ĠS audi
ĠH od
ĠZ elda
aster ed
Ġcoun ts
Ġred dish
Ġaccept able
Ġprem ier
ĠGrand e
Ġconcent rations
Ġsle e
ĠAst ron
Ġic onic
Ġbes ide
ĠHem ing
prof it
ĠLaf ayette
S mith
it us
Ġc ogn
Ġcon ning
ĠY ankovic
ĠCle ment
Ġsed iment
Ġoutf it
Ġuncertain ty
ĠSaf ety
Ġorient ation
il is
ent er
Ġsp arked
ĠAl onso
Ġsen ator
Ġmechan isms
Ġwild life
Ġthrow s
ĠRem ix
ĠDog gett
Ġlect ures
leb rit
ar ius
ag ne
Ġcl ause
Ġform ats
Ġbre ach
Ġfun k
ĠMov ing
it ia
ĠS AS
Ġst y
Ġcol ored
Ġam p
Ġ13 1
Ġant agonist
Ġbroad er
Ġfund ra
ĠWild life
Ġcool er
Ġdiff ers
Ġadvertis ements
I tal
l ore
n ch
ĠS ul
ut ors
ĠF ow
ill on
Ġnum er
ĠAng els
ĠChet nik
ĠMinne apolis
Ġw ears
Ġh ollow
ĠF olk
Ġman ned
ĠLe ip
Ġsl ope
ĠHam pton
Ġbox es
ĠBey ond
Ġsle eping
ĠThor pe
Ġcateg or
ĠWor cester
ĠM iguel
ater ial
Ġrep orters
uc hed
sc opic
Ġinf ilt
aut y
Ġsocial ist
Wh o
ĠAnn ual
ĠOrig ins
Ġposthum ously
Ġconvinc ing
Ġ ell
Ġpro c
res cent
ress es
Ġadd itions
ĠWar riors
Ġland own
Ġref using
Ġmake up
Ġcomb ine
Ġresemb lance
Ġobserv ing
Ġshar ply
Ġinadequ ate
ul ent
Ġse am
Ġ17 5
Ġdeb ated
Ġhum our
Ã± a
Ġfram ework
Ġinnoc ent
Ġsophistic ated
b en
Ġh ub
Ġl ac
ĠN ig
ĠE t
ĠGr ad
Ġsouth ward
Ġkey s
Ġdeterm ination
idel ines
O M
S T
or um
az ed
Ġgu err
ĠOr k
Ġstat ues
Ġcle ver
ĠJul ia
Ġstrict ly
Ġlisten ers
ĠPant hers
ĠHok ies
Ġnomine e
ac ters
Ġtr aced
ann i
ĠPl aying
Ġpartic le
Ġcour ty
ĠVol ume
Ġclim bed
Ġru ined
ĠJosh ua
ĠPrincip al
Ġhect ares
ĠHumph rey
f ork
p ath
ĠH ig
op oly
Ġen abling
Ġdef ine
ĠBe atty
umb ent
ĠCr ash
Ġdies el
r ust
ĠM iz
ĠB end
ĠP ath
Ġcharacter ised
Ġop ener
Ġgross ing
r imin
Ġt ears
ĠC IA
Ġbe friend
um er
ĠE min
Ġmon soon
ĠTr avel
199 6
ĠHistor ian
Ġdemocr atic
Ġpromin ently
lebrit ies
u y
or g
ist on
Ġcl oth
Ġwhere by
ĠPro s
Ġuniform s
dr iven
ĠLiter ary
Ġdesper ate
Ġp ard
us ive
aw i
Ġmus cles
Ġdisapp ro
Ġancest ry
F I
m are
Ġl ords
ĠM eredith
ĠW ade
ĠL och
ĠE yes
Ġr abb
ess ing
Ġcomp osing
ĠY ale
Ġship yard
ram atic
Ġsimilar ity
Ġcat aly
Ġhot els
Ġri f
clesiast ical
t ically
le af
Ġl ith
ĠB irth
Ġhe ated
op ran
Ġins urg
Ġassoci ates
ĠBer gen
ĠAlb ion
Ġwrest ler
Ġcurren ts
ĠCoal ition
ĠWed nes
D OT
b ot
c reat
ur u
Ġsp ear
Ġevery day
ĠGl ac
Ġpurch asing
Ġdead line
Ġ185 2
ĠHun ting
Ġteen ager
ĠFull er
ĠHast ings
Ġkn ight
Ġfl ies
Ġsm oking
Ġserv ant
by e
Ġcounter part
Ġexped itions
Ġpatron age
ĠCinem a
ĠR ot
ĠK Ã¶n
sc enes
Ġang les
ĠScient ific
Ġcomed ian
a ic
g iving
Ġs au
ĠW ess
ĠG ret
ĠJ a
Ġex changed
ĠPr adesh
ĠNe ither
Ġrein st
Ġvirt ual
ĠAut o
ĠâĻ Ń
Ġf oul
ĠA zerbai
ĠH ank
ĠI vy
Ġch ron
ans en
Ġ10 8
ĠOr lando
Ġdig est
Ġ184 6
Ġrid ges
B L
k ill
k ward
ĠR ah
ĠR esp
ĠW ey
ĠG wen
ĠE MI
anc a
ĠSup porting
ev o
ĠVis ual
Ġsummon ed
Ġreop ened
Ġf als
ig ion
ul i
Ġres ource
ne o
Ġent ity
ĠShe ar
ĠBar ber
Ġaccept s
agn etic
ĠCorn er
ĠHor ror
Ġspir its
ĠVenez uel
b oys
Ġt renches
ur ai
us k
th an
Ġhe ter
um ing
red it
ĠSe ym
Ġpract iced
lit er
Ġsuperv ision
Ð µ
Ġe ager
ul atory
Ġv in
Ġun official
Ġass ured
Ġgener ic
ink s
Ġagre ements
Ġz inc
Ġpur ple
Ġboil er
a q
Ï Ħ
Ġm ating
Ġse ating
ĠIn flu
Ġen zym
ĠMor oc
ĠVir t
Ġovert urn
em ia
up id
ĠNorth umb
Ġtri angle
Ġsuggest ions
Ġbi ology
Ġcompl aint
Ġ185 5
ĠSystem s
imet ime
rell a
Ġclin ical
Ġpsy ched
Ġp ub
Ġh aun
Ġdo zens
sh am
ĠGu am
Ġeight eenth
Ġcollect ively
Ġmagn et
Ġguarant ee
ĠMans field
ĠSeym our
ĠS tern
ĠA chie
ĠW r
Ġse aled
Ġj ealous
Ġover night
ĠBel grade
ĠCamp us
Ġcounter parts
Ġ184 7
Ġspeak s
Ġaffili ated
Ġp ac
Ġm ills
us a
Ġ( â
Ġde leted
Ġcons erv
ĠAd olf
ĠCar penter
ĠByzant ines
ĠOak land
I r
Ġt ear
Ġcom eb
Ġde ity
Ġrel at
Ġloc als
Ġrep ly
ĠGu est
Ġste als
199 2
imb ledon
Ġri ots
Ġbackground s
Ġpup pet
I P
u j
Ġp s
st aff
ĠH undred
ĠD und
ze gov
Ġemer ge
Ġrecover ing
ĠWin ston
Ġstret ched
Ġske let
K O
he art
Ġth read
ĠK amp
Ġdis in
Ġelect rons
ĠGeorg ian
Ġ183 2
ogen ic
Ġdevast ated
Ġurg ing
3 30
Ġl ord
Ġst alk
rit z
ĠCh a
ĠLe opold
ph ae
ane y
Ġimp acted
ĠCl are
Ġport raits
omb at
Ġassoci ations
Ġcontem pl
Ġgas oline
ĠKr ishna
ĠHallow een
om o
Ġn u
Ġsp y
Ġen zyme
Ġpo ets
ĠGeor get
ĠAnt illes
Ġutil ized
Ġinsc riptions
Ġcongress ional
Ġfron tal
ĠRup ert
m atch
Ġf ond
Ġl av
ang o
ĠLe y
Ġmin ers
Ġref lection
Ġsomet ime
Ġfac ial
ĠVer de
Ġreform ed
Ġoverl ap
Ġsket ches
ĠPriv ate
f ax
it he
ĠT omb
ĠB ard
Ġpro se
Ġle nd
ty m
Ġtransport s
ĠItal ians
ĠTrans it
Ġelement ary
agre b
ĠAnim ation
f inger
ĠC ome
Ġun beat
og ram
Ġdis qual
aren ts
Ġbar n
for ward
ĠArab ia
Ġsculpt ures
Ġabund ance
ĠMcL aren
mans hip
t w
ĠB ess
ul ative
Ġle an
ĠSh ane
ĠInd eed
Ġcor onation
Ġel ong
ĠWe ber
Ġcollect or
Å¡ e
Ġsymp ath
Ġconstitu ency
ĠShack leton
B ut
ĠC risis
ĠI C
ĠL iv
ok a
Ġpr ide
ĠCar roll
Ġext ract
Ġ13 5
ĠKn ox
Ġjoint ly
ĠCart e
ĠAngl ican
Ġs izes
ul ator
ĠL ak
av ier
qu is
Ġtr aces
Ġwhe els
ace y
Ġinter im
ters on
ĠCom plete
Ġcomb ining
Ġinform s
ĠMet roid
ĠCard inal
Ġpione er
Ġguarant eed
ĠWes ley
F our
Ġf arther
ĠD ame
Ġacc ounted
ĠRe form
Ġem bed
ĠPr imetime
Ġcampaign ed
ael ic
Ġshoot s
Ġge ographical
Ġaf raid
T op
f ired
Ġs her
Ġb ra
Ġh ate
Ġl ots
ĠN olan
Ġr ud
Ġdef icit
Ġreal ism
iment al
ĠArab s
och ond
ĠWis den
ĠHait i
E P
b ands
n on
Ġf illing
ĠA w
ĠC ay
ail able
ĠAr ist
Ġhand ful
let te
vers ion
Ġbroad ly
Ġfung i
Ġrenov ation
UC N
intend ent
f i
an za
ic ol
ab bed
Ġj ungle
Ġbet a
Ġam azing
Ġsm ugg
ĠZ agreb
Ġpost ing
Ġter rible
Ġsurve ys
ĠHeb rew
Ġcha os
C onn
w hen
Ġt rop
el ius
am oto
ĠM oor
ĠH its
ĠD um
ĠAl ien
iss ues
atter ing
Ġwest bound
Ã¡ r
Ġbox ing
Ġspread ing
organ ized
Ġintegr ation
Ġanch ored
ĠCec il
Ġw ives
Ġto b
ĠH ear
ĠG iro
ĠE ye
ĠMan a
ĠPat ric
Ġlab els
199 3
Ġconfron ts
A ir
in itely
Ġp ump
ĠC ul
ĠW imbledon
ĠK un
Ġinv ention
ape ake
ĠNe ed
olk ien
Ġmel odies
ĠChief s
Ġprin ts
Ġmountain ous
Ġvac ant
Ġremix es
z an
Ġ Ø
en stein
Ġg ases
Ġcon form
Ġfr ight
ãĥ ³
Ġemb ry
With in
ĠWrit ten
ĠWell es
Ġconsolid ated
R ock
ĠS ask
ĠCh ambers
Ġfact ories
Ġsoc cer
ĠNe igh
Ġhost ing
ĠBi ography
ĠHind i
ĠKap oor
ĠGuatem ala
i Ã³n
ed ged
is ely
Ġto uched
Ġm all
Ġd up
ĠK ay
sh ow
Ġchart ing
ĠDou ble
Ġtermin ated
Ġrecru iting
Ġpull ing
ĠAthlet ics
Ġprest igious
Ġtroubl ed
h al
v ara
in as
Ġf eder
ĠR ank
ag ged
Ġr ays
Ġun l
Ġcomp ose
Ġunder m
Ġstar board
Ġbroadcast s
Ġlect ure
ĠUnd ert
j m
ĠS C
Ġon set
Ġal arm
ĠF o
ĠF ey
ĠV ij
ĠV ishn
ĠAl most
aw ak
Ġcons ort
Ġsl ip
ĠSpec ies
ĠCommun ications
ĠJess ica
r ors
y ou
Ê »
or row
ĠT ud
ĠC rist
ĠR i
Ġhe ights
Ġsub pl
19 60
Ġsw ift
Ġbed room
ĠSin atra
ĠPalest inian
ĠVik ing
o at
th or
Ġsp ark
Ġvir uses
Ġhall s
part y
Ġunp re
Ġdownload able
Ġadvis ory
Ġpy ramid
Ġpap al
Ġsupern atural
Q ue
e ur
Ġs ne
Ġo d
Ġatt ain
Ġdeb ts
ĠAir ways
Ġshoot er
isher s
ĠLyn n
ĠExpress way
p a
ĠS MS
Ġrec all
Ġcons oles
Ġinc arn
ern s
ĠBl oom
ĠFl ash
10 5
class ic
Ġseek s
Ġbombard ed
ĠDaw son
Ġerup ted
ĠGuerr ero
n ie
en ic
ĠT at
ĠF M
ĠF ork
Ġrec alls
ĠDe xter
Ġiss uing
Ġprompt ly
Ġreact or
O per
ĠC lear
ĠB f
ĠW emb
ĠAn s
Ġball ads
Ġoccup ying
Ġforg otten
i ology
Ġf u
et erm
ĠR ook
Ġres ume
Ġad ul
Ġrec reation
Ġspec ially
app ropri
van ced
Ġload ing
Ġpresum ably
i op
s ay
Ġh ailed
ĠS pl
ĠM echan
Ġg ale
iv or
Ġal umni
ag her
if a
ob il
Ġfl aw
Ġgr avel
Ġem issions
ĠInd ivid
Ġpress ures
Ġemb assy
Ġi Ph
ĠHy de
lar ation
Ġresid ences
zegov ina
r aged
ant is
Ġpl aque
ĠK re
Ġcons ec
ĠRe in
Ġinv as
aun ch
Ġprof ound
Ġmater nal
Ġ185 3
ĠTel ugu
ĠOrk ney
f ried
on ely
ĠT win
ĠF erry
Ġob taining
rick en
Ġrock y
Ġsurv ives
Ġlo ans
Ġdeg ener
Ġdepict ions
Ġodd s
E urop
g ren
ar an
ĠT ill
ĠD ol
Ġdef ining
Ġey ew
gro up
elect ric
Ġunpre cedented
er get
Ġr ats
ab we
Ġtr agedy
Ġro uted
orm s
Ġdesign ing
Ġcr ack
Th omas
ĠBel arus
ĠDar ren
vest on
Ġnob les
Ġcalc ium
Ġrit uals
ĠHeming way
ĠT roy
ĠB Ã©
Ġun stable
Ġexp ired
ah an
Ġgu ilt
Ġel imination
iction ary
ĠBart on
ĠSpe aker
ĠHoff man
Ġmetaph or
Ġmerchand ise
E ast
N G
ĠO C
ins ki
Ġprof itable
Ġ184 1
Ġcros sover
Ġcomeb ack
ĠWemb ley
ĠB ren
ord ered
ĠFore ver
ĠKr ak
ĠHard ing
Ġmotor cy
Ġneut ron
Ġquad rup
Ġwonder ful
n ine
et ed
ch ard
ĠK ids
Ġcontin uation
ĠBlack burn
GB T
ĠValent ine
Ġm isc
st reet
man uel
Ġend emic
ĠLe vel
ah u
ĠPl ains
ĠCong o
Ġthir teenth
Ġpath s
ĠGet ty
gh ai
Ġch icken
Ġkn ife
Ġdiffer ently
Ġeast bound
imb abwe
bl ack
ĠOtt omans
Ġabsol utely
Ġconting ent
Hen ry
ĠBened ict
Ġinteg ral
S w
n umbered
ĠS aff
ĠB M
ĠW itch
ud er
Ġtrans mitted
ĠCol bert
ĠAnd rÃ©
Ġshould ers
ĠCast ing
Ġstrik er
Ġcoinc ided
pow der
ĠFran Ã§
Ġconcur rency
ĠB ronze
ĠO wn
Ġentire ty
Ġdeliver ing
Ġdiff ered
Ġconsult ant
Ġdispers ed
e als
t elling
Ġp unt
ec he
ĠD ew
ĠG iven
op ot
ĠSt arting
ĠBe autiful
ĠBatt les
ĠSy rac
Ġgoal tender
Ġgrad ual
ĠCr an
ĠSher iff
Ġcurric ulum
E v
a uthor
Ġt ides
Ġd ances
le ading
Ġre acted
il ater
Ġle ased
enn y
Ġce lebrities
ĠAg re
Ġhy phae
Ġdiss ent
udd y
Ġmem oirs
Ġpin ned
ĠChes apeake
Ġbesie ged
f a
Ġo ri
Ġb inary
ĠC edar
ong o
Ġle v
ĠV ocal
ram ent
Ġ17 76
Ġtro ubles
ett i
ĠBut ter
ĠSocial ist
ĠJam ie
Ã° r
enh agen
Ġmembr ane
nort heast
M ark
P eter
ar is
oc o
Ġpl ots
ens en
Ġdismiss al
Ġfirm ly
Ġaccur ately
Ġreserv oir
ĠRepresent ative
Ġbattlecru iser
ĠEff ects
N ov
ĠB ret
Ġfor get
Ġmag ist
sk a
ien cing
Ġenv ision
ux e
Ġpun ct
Ad miral
ĠVoy ager
ĠArchitect ure
atab ase
Ġp amph
ĠT ul
ĠR hy
ug ged
ĠRos a
Far lane
Ġamphib ious
Ġf itness
iv orous
ter ing
Ġmatch ing
Ġfore ver
de veloped
Ġblock ing
Ġresemb ling
Ġkingdom s
Ġment or
Ġshif ts
Ġfurn iture
Ġuncom mon
Ġf a
Ġp orn
ĠSt oke
iz ards
Ġpop ul
ĠSix th
Ġcorrect ly
Ġerupt ions
ĠTon ight
Ġdevast ating
Ġunbeat en
c ill
g as
as is
ĠS eth
us ions
ĠF ine
ĠY osh
Ġcomm ittees
Ġ183 6
Ġworth y
Ġprotest ed
ĠMong ol
Ġregist ration
Ġfus elage
R es
c ard
n ar
Ġc ure
ac ements
op l
Ġsp erm
Ġbut ton
Ġqu ar
Ġed itors
Ġdiscover ing
Ġcirc ulated
Ġ184 4
ĠPerson a
run ning
ĠJenn a
Ġsulf ur
ĠSyrac use
u h
Ġc ord
Ġab n
ĠHe ights
Ġsub mission
Ġele g
Ġpers istent
Ġmob ility
lar gest
Ġham pered
ĠLegisl ative
Ġfru its
Ġprolong ed
g ain
Ġb und
Ġre pt
Ġl unar
ĠCro sby
Ġdiscuss es
ograph ies
chw ader
k an
Ġh ire
ĠS ales
ĠN othing
Ġse ated
ĠSt yles
pl ant
ib an
Ġrank ings
Ġlik es
worth y
Ġquant um
Ġcant ata
Ġbankrupt cy
ĠA val
ĠB ism
ĠJ ain
ip se
Ġprop ulsion
ĠGl ad
Ġdivision al
ĠSub sequent
Ġrecru its
Sc ott
Ġobst acles
ĠTasman ia
e lected
ĠH ipper
oc ial
Ġdec oration
ob e
Ġ10 3
Ġlong time
Ġdet ection
Ġhum orous
Ġdeterm ining
ĠRail ways
Ġrebu ild
ĠWy oming
Ġdanc er
Ste p
ĠLeip zig
er en
ro vers
ĠR ut
ĠD uff
ĠG ore
up e
Ġro pe
Ġwhen ever
Ġfl att
ĠSouth west
Ġexpl oring
Ġcr ushed
ston ecraft
ĠJul ie
Ġcryst als
ĠShan ghai
2 40
l oo
u ana
Ġs ab
ĠU m
Ġimp ed
Ġshort s
Ġtre ason
Ġinsp ection
Ġexcept ions
Ġsat ire
Ġnortheast ward
Ġretreat ing
ĠWeb ster
ĠWander ers
Ġris ks
G et
p ets
Ġt idal
Ġa uxiliary
in h
Ġto y
ut a
ĠR ican
ort al
ĠV eter
Ġinc umbent
uc as
199 1
Ġheav en
Ġconstit uted
Ġwa ited
Ġreleg ation
Ġartif acts
b ad
r ice
en za
Ġb io
ĠE ly
Ġv ampire
ast rous
ĠHe p
ph is
ĠPar ad
Ġsent ences
Ġins erted
not e
Ġswe ep
equ ivalent
ĠEle anor
Ġdepos ited
Ġexceed ing
Ġansw ered
H igh
Ġs urn
il er
Ġun ified
Ġen roll
ĠSp ot
ĠWorld s
Ġrefer enced
Ġobject ions
ĠKh rush
ĠDor othy
ĠThurs day
2 30
Î µ
Ġc age
ol in
ĠH ir
ĠSt ark
Ġhalf way
Ġlab elled
Ġens ued
Ġdownload s
hr er
Ġfaith ful
ĠRand olph
ĠAbd ul
Ġspl its
Ġecho ed
Ġp agan
Ġst ing
Ġwh ites
ĠL Ã¼
Ġan ten
ĠE van
Ġcomp ass
Ġen erget
reat h
In ter
Ġvis itor
Ġprogram mes
Ġec ology
Ġrum ours
ĠSin clair
Ġoutf low
Ġmush rooms
Ġabst ract
b led
f ig
t itled
ã Ģ
Ġt rench
ĠS it
ĠS andy
Ġl umin
ac ious
ĠG em
Ġmin istry
20 15
ĠEx eter
St ate
Ġlik ewise
Ġverte bra
Ġank le
ĠHein rich
B ack
ĠB rom
ĠL ass
uc at
Ġdeb ates
Ġsol itary
ids hips
ĠSing le
Ġtra vers
Ġunn ecessary
A pp
H D
f act
ic hes
ĠG ear
ib ald
ĠAmeric as
ĠGe ography
ĠPar ish
Ġfun nel
Ġvalley s
Ġspr int
ĠCher ry
Ġunemploy ment
ĠKhrush chev
B el
Ġb ark
ĠS ah
ĠD up
ĠU ru
Ġsp or
Ġinc on
Ġvis ibility
Ġgun fire
ĠSm art
Ġrev ision
Ġrend ering
Ġreprodu ction
ĠAub urn
Ġlux ury
ĠiPh one
H aving
n ance
Ġc ob
Ġd y
Ġdisc o
Ġph arm
idd le
Ġsequ els
ĠFel ix
Ġgamb ling
ĠUndert aker
e ason
Ġm aj
ĠM ath
ĠM GM
ĠH imm
ĠR aven
ĠD ixon
ĠG ilm
ĠEx change
ĠNot tingham
rec orded
Ġopt ical
Ġ183 7
Ġlegend ary
Ġdin osaur
Ġweigh ing
E ach
R eg
Ġf iles
le an
ĠM off
im acy
ĠJ et
all i
cl er
ever y
Ġsett ling
ĠComple x
ĠKann ada
k ov
al us
ĠD iss
ĠD ata
ill ance
Ġsu cc
Ġqu ot
Ġam idships
Ġexper iencing
ĠTe en
Ġhappen ing
ĠWeb b
Ġtot als
ĠAber de
Ġb ab
ap y
ition ally
ident ified
Ġ17 90
Ġmar ching
ĠJack ie
Ġident ifying
Ġlo osely
ĠApp eals
pro t
ĠVen et
Ġsoph om
r ator
Ġc aves
Ġb red
Ġm ars
ĠH og
ĠW hy
Ġnot orious
Ġopp ose
Ġperiod ic
Ġbroad side
ĠPe ak
Ġmelod ic
ĠVern on
Ġt ill
Ġs ap
es que
ĠH ew
ĠH ave
Ġst iff
ĠG ospel
ĠCh am
ough ts
ĠJo ey
oot s
Ġinfl ation
ĠX II
Ġpat ches
idd ing
Ġexcept ional
Ne ill
B ad
O rig
s burg
Ġc aut
Ġh ast
ĠS ap
am orph
ĠE lement
Ġend e
Ġgr at
Ġph on
Ġtown ship
ĠRec on
ĠÃ ħ
Ġcounter attack
Ġacad emy
Ġdial ect
Ġshr ine
Ġenzym es
n ick
at os
ĠL ip
um m
Ġpl aza
Ġint ro
ĠCon rad
Ġren umbering
sk irts
ĠVict ory
Ġbow lers
Ġut ility
Ġrecon structed
Ġmoist ure
ĠSans krit
Ġprecurs or
al one
Ġp aired
Ġv est
Ġsc iences
Ġcol oured
Ġimp acts
Ġprot esters
Ġrepl ica
An gel
Ġtal ented
Ġaw kward
ĠCop enhagen
Ġadvis ories
R E
al ong
st idia
ĠB L
Ġde ities
ip eg
Ġtr act
ign e
Ġrem atch
ĠSh annon
Ġcontin ually
Ġgener ating
ĠAugust ine
bor g
ĠQu int
Ġfar mer
Ġder ives
Ġattract ing
Ġmanufact urers
ĠClark son
run ner
C al
p ole
ĠM Ã©
ĠSt reets
Ġun av
Ġman ual
ĠY ucat
Ġsub str
Ġown s
au kee
Ġstri ps
Ġens uring
ĠMid way
ĠEp isode
ĠFeder er
Ġintention ally
ĠTechn ical
Ġsuspic ion
Ġhaz ard
ĠDian e
Ġtob acco
F l
Î »
ĠP Ã©
ag ements
und a
ĠWest on
Ch ris
ĠTest ament
Ġreprodu ctive
Ġcu is
ĠUk raine
Ġsubordin ate
Ġh ab
ĠA CC
ĠP or
ĠL ik
Ġsp iders
Ġint imid
Ġim min
ins ky
ruct ive
ĠDec laration
Ġide ology
Ġcoin age
Ġescort ing
Ġinsc ribed
ĠBritt any
byter ian
b earing
i u
Ã Ł
ed uc
ge on
low n
Ġdis par
ĠWar rior
ĠZ imbabwe
ĠÂ ½
Ġmor ality
ĠMic he
Ġmic roph
Ġreun ion
readn oughts
O s
y ards
Ġb ust
ĠT ong
Ġl ament
ort on
Ġor phan
ast ically
ĠAd vis
Ġturn pike
ĠSl ant
ĠArt ists
Ġfail ures
unning ham
ĠObserv atory
ĠHispan ic
Ġcourty ard
u um
ĠA by
ak ov
urn al
end ous
ann ers
aren ce
Ġste aling
Ġhard ly
Ġconstruct ing
Ġharm ony
ĠWat ts
Se ptember
Ġconcurrent ly
ĠMonth ly
ĠEmin em
Ġp atern
Ġsy ll
Ġpo etic
Ġhost ilities
Ġinform al
Ġden y
Ġintens ification
Ġmission aries
ĠOut side
ĠMore no
ĠSol id
ĠMat ilda
ĠGal veston
ĠDev ils
Ġteach ings
Ġretrie ve
ĠVishn u
Ġo mitted
ĠS ara
ov al
Ġar ches
Ġcar riage
Ġexpl oded
Ġstrong hold
aut s
Ġfood s
ĠTor ch
Ġoverl ooking
Ġisot ope
Ġfir ms
ĠHutch inson
F S
S ub
ar f
ĠT ax
om atic
ver n
ĠD im
ep ers
Ġdisc arded
ĠTr acks
omet er
Ġren ted
ĠBay ern
ĠStud ents
Ġextr as
Ġtrust ees
ĠPitch fork
ĠAgre ement
3 50
S uper
Ñ Ģ
Ġst ressed
ĠG aelic
Ġout skirts
Ġcomm ence
Ġep onymous
Ġdown stream
ĠNorth umberland
ĠChar ter
Ġident ifies
Ġcru el
Ġmist akes
Ġexcav ated
ĠBomb ay
Ġprosper ity
Ġc rick
ĠB ates
Ġret al
Ġrel ate
Ġcritic izing
Ġ183 9
Un like
Ġaw a
ĠTs ar
ĠAndre a
Ġchore ography
ĠAT P
ĠCret aceous
A dd
er ie
ĠA ston
ĠD orset
fore st
anc ial
Ġair play
atch ing
Ġpred ator
Ġreject ion
Ġbelong s
Ġgrav itational
G A
s ign
ĠS aid
ĠG anes
ard i
Ġch im
rit ion
ĠTh ing
Ġim per
sh ine
ĠCar son
Ġmark ings
ĠAm azon
Ġpract ition
Ġapprec iation
ĠTrin idad
ĠWednes day
b eck
Ġp ipe
ĠO z
Ġsh oes
Ġind ication
ific ent
ĠSh arp
Ġmay be
ĠPol icy
umb led
Ġcoll ided
ĠRed s
ĠChe ss
Ġheav iest
Ġcoin ed
ĠBook er
Ġ179 9
ĠJul ius
bro ther
ĠCzech osl
ĠT ina
ĠS elf
th y
ook s
Ġequ ality
Ġappe als
Ġbas al
ĠOff ensive
ĠWork ing
C omp
F M
L ou
ĠS ut
ĠC it
ĠB aja
Ġcl ips
Ġ18 29
Ġgr aves
ĠPh antom
Ġlik ened
Ġsuperv isor
Ġsuperior ity
ĠLi u
Ġsurf aced
ĠMagn us
o os
ĠS K
ĠR S
Ġres isted
Ġref urb
com m
Ġinters ecting
Ġsn ake
Ġham mer
ĠLeaf s
Ġgran ite
Ġw olf
it ical
ĠC age
ĠP rel
ĠD ow
ĠL uz
ath i
Ġind ex
Ġexp end
Ġgovern ors
Ġeng r
Ġeng agements
Ġmen u
ĠEmp ress
ĠAndrew s
ĠId aho
ĠEconom y
Ġterror ist
Ġmarg inal
Ġcraf ts
ĠChall enge
Ġc ents
Ġin exper
ĠB il
ĠB ie
ĠH es
ag ram
aj i
az i
Ġconst ellation
ĠBre ck
Ġstrateg ies
abs burg
hard t
B o
Å Ľ
at ile
st en
iv o
ĠH ack
Ġsu ite
cl ub
ĠMad ras
ĠBet ter
Ġdom est
Ġmel ting
Ġliber ty
ĠBed e
Ġaudition ed
ĠCai ro
A ugust
O l
ĠR ise
ĠK yl
ĠSt ro
Ġun related
Ġacc ession
Ġver dict
Ġind oor
gr at
ĠTe le
Ġbar ometric
Ġpers ecution
ĠParliament ary
ĠProv idence
Ġsubs id
ĠBatter y
ĠSes ame
an ol
ĠS alford
ch ron
Ġcon clus
ri o
Ġro lled
iss ued
Ġinc ap
ĠChar acters
ĠDiv isions
i ago
Ġb og
id able
Ġ( /
ber n
Ġsp ider
ond heim
Ġwe aker
ĠBo hem
Ġbur den
ĠAtt ack
ocol ate
Ġcylind rical
c ats
u ins
it ement
Ġc roc
Ġn atives
ĠM az
Ġatt itudes
ĠAn imal
Ġsl aughter
ĠPar agu
Ġnovel ist
Ġquestion ing
Ġresemb led
Ġmemorial s
Ġtow ed
Ġgrant ing
Ġbreat hing
or ers
ĠP ole
ĠP hel
Ġbe et
ĠR ox
ĠL akers
op a
ip le
Ġun ions
Ġj umped
Ġ18 35
ĠSl am
ĠLad ies
Ġspan ning
Ġcryst all
Ġeleph ant
ĠP aper
ĠK ant
Ġro wing
In it
On ly
Ġcult ivated
Ġfacil itate
) ".
w aters
Ġf iscal
ar ound
ĠT uls
ad vant
ĠG aming
ĠL ines
ia e
ĠMar ian
ĠCom merce
Ġam alg
Ġpol es
Ġcare ful
rodu ced
ĠHer zegovina
ĠRiver a
reg or
field s
Ġoccur rence
Ġrob ust
book s
Ġgreet ed
Ġdigit ally
Ġimmin ent
0 1
n Ã©e
v ana
ĠT yp
ĠR ag
ĠF actory
af ts
Ġinfl ict
Ġball oon
Ġmodel ed
Un ited
Ġtheat res
Ġyield ed
d ist
Ġin herent
Ġp ose
ĠB rett
ot he
ĠW orth
Ġcomp uls
Ġup stream
oin ing
ĠPl ain
row th
Ġlight ning
ĠMon ten
iec es
Ġcreat ors
ĠSl ayer
Ġmarket ed
Ġir rit
Ġcong reg
Mc C
Ġkidn apped
Ġmetab ol
h it
w aukee
le igh
ou ble
il ib
el ed
ĠK w
Ġwar rior
ĠDe al
ĠBe ing
Ġsl ide
ĠÂ ²
Ġorgan izing
Ġpersonal ities
Ġ180 1
ols he
ĠNaz is
ĠNik ol
Ġansw ers
Ġineff ective
ĠIllust rated
Ġc odes
ro up
Ġst alled
ĠD ot
ĠRe bell
Ġind ie
Ġgr ades
ism atic
Ġasp ir
Ġmuseum s
sole te
acc ur
Ġtrunk line
Rich ard
k ar
w elling
Ġp uzzle
ĠA N
ac cess
ly wood
ag ua
ster dam
Ġunc overed
Ġ184 2
Ġamb ush
ĠPruss ian
Ġpreval ent
7 50
Ġf ring
ĠI ss
ĠR I
ill as
Ġcor al
Ġcompl ications
gl ades
ĠRev ival
Ġdisapp ointing
Ġraid ing
Ġwebs ites
fort able
ester ly
Ġbot tle
ĠCov enant
Ġpian ist
ĠT olkien
iv ities
ĠN om
Ġass erts
ĠBar ack
Ġpost season
Ġsex es
Ġviol ated
Ġec ological
ĠAbb as
agu ar
ĠMaur it
Ġspir al
icular ly
ĠLoc ke
Ġemotion ally
ĠGeorget own
H urricane
m ist
v als
Ġb ush
ec uted
ĠP emb
ĠN S
ĠTh irty
Ġind ef
Ġdiss olution
Ġmill imeters
Ġintegr ity
Ġintercept ion
anth rop
lyn n
Ġinnov ation
song writer
ĠBes ides
ĠVlad imir
D er
ĠS ons
ĠR otten
Ġstr ang
ĠCal iph
Ã¡ l
Ġdomin ate
ĠKey s
Ġanth ology
haw k
ĠWinn ipeg
ĠMetall ica
B ill
or an
ĠT ues
ĠM ell
ĠH ipp
Ġ( '
ul ance
Ġle ak
og le
Ġinter l
Ġunder going
ax ies
Ġgun nery
Ġaff ects
Ġlim iting
Ġsevent y
Ġ183 8
ĠAlb ania
lim ited
ĠIb n
Mat ters
B ro
G reat
o op
Ġa unt
Ġdis astrous
Ġout post
Ġunder way
Ġmus k
Ġrep uls
ĠBar row
Ġden ounced
ĠGal axy
ĠInit ial
ĠAnim als
Ġaffili ate
ĠMem phis
Ġaqu atic
Ġconsul ted
ĠPrepar ations
Ġf rozen
Ġp its
ol ation
ĠK ind
ok i
Ġelect rom
gr ass
Ġfle eing
Ġmother s
Ġcommission er
ĠProg ress
Ġfrust ration
Ġwrap ped
Ġspokes man
Ġpeas ants
Ġell ip
N ow
c ip
s chool
ĠT aft
am ination
ĠL GBT
Ġpl asma
ĠK ell
Ġcl ients
Ġteam ed
Ġbar rel
Ġill umin
bl ood
Ġsle nder
Ġcock pit
Ġjack et
ĠFace book
b ons
p oints
r ane
ĠS ang
ĠM oss
ĠR OK
Ġcomp elling
Ġdist ract
Ġvill ains
Ġprob able
Ġtemper ate
Ġbene ficial
ĠPlan ning
ĠLev ine
P R
P at
W W
f aced
in ating
ed o
Ġc razy
st ones
Ġn ave
Ġdis hes
ik ing
ger ald
ĠChrist ina
Ġsusp ects
ĠApp roximately
Ġtext ure
imet re
Ġexplos ives
Ġsuperv ised
Ġculmin ating
Ġcens orship
former ly
ĠBelie ve
A lex
Ġp ond
Ġex iled
Ġint imate
ach y
ĠAm azing
Ġins ight
ĠKr usty
ĠMatthew s
Ġauton omy
' ".
M et
N ever
Ġal ike
ass ment
ĠTh anks
Ġexp ecting
year s
Ġdisp osal
ĠMiddle ton
Ġcert ification
Ġexpress es
Ġcart oons
Ġupd ate
ĠVerm ont
Ġcamoufl age
i ya
È Ļ
Ġt uber
Ġw age
Ġst ems
th on
ĠSe venth
its u
Ġgroup ed
ij uana
bour g
load ing
ĠGood man
ĠBeh ind
Ġenvision ed
Ġp ad
Ġr ay
ĠO kin
Ġcontrib utor
Ġattract ions
Ġvirt ue
Ġmini ature
Ġassum ing
Ġforb idden
in ished
Ġb anner
ic ious
ĠR he
ĠR ao
Ġal gor
Ġr all
ĠSt anton
Ġare n
ĠV ett
Ġsup ers
Ġfl uct
Ġposs ibilities
Ġmid st
app ers
Ġpot assium
Ġproblem atic
Ġ183 1
Ġvin yl
ĠBism arck
b uck
re v
ist ice
pp e
Ġ20 2
Ġinter changes
ĠSc outs
uss els
ĠPr inz
Ġlight ly
ĠGro s
inn ers
ĠLand mark
ĠEver glades
ĠHass ett
Ġprinc ess
ĠAchie vement
O ff
S I
b ard
h oe
re ally
ĠH absburg
ĠR ide
ĠE gg
ĠK au
Ġacqu iring
Ġupgr ades
ĠIsab ella
R ep
c amp
g il
Ġt ens
he arted
ir able
Ġex otic
ĠV ent
ke f
Ġ18 15
Ġdep ressed
Ġstr ained
ĠDream s
anth a
Ġrepet itive
T ime
b ably
c ad
w ould
Ġb ail
Ġre work
ĠS P
Ġl uc
ĠB ram
ut ies
ĠP rec
ĠJ ed
ĠAl leg
Ġpre jud
Ġappe aling
Ġsurround ings
Ġenjoy able
ĠTw ilight
Ġut ter
Ã¸ r
ĠMot ors
nd on
at ro
id as
ile m
Ġinc ent
Ġ10 7
sp ace
ĠQ ual
ĠGl ory
Ġdefend ant
ĠTre vor
Ġburn t
Ġreign ing
ĠNap les
Ġcinem atic
Ġparas ites
ĠCe lebr
Ġb ast
ĠS axon
ĠM ets
ĠB rest
ow l
ag ogue
Ġover c
Ġprov oked
Ġdism ant
ĠLeg al
ĠBat ista
Ġdispl aying
Ġunexpected ly
Ġconstr aints
S am
d id
h ole
ĠC T
Ġal pha
ĠN one
ĠN ES
te e
any a
Ã¡ s
Ġaut o
ĠMag gie
ĠGreen land
Ġdoub ts
Ġec clesiastical
Ġanticip ation
Ġmetall ic
f ielder
le en
ĠP ond
ĠR as
ag asy
ĠCh ron
ĠV HS
ok u
Ġup held
Ġver b
ific ant
ĠWar ning
ĠEm b
Ġ179 4
Ġdemonstr ations
Ġpack ed
Ġalter ations
g em
Ġf ingers
Ġd rought
Ġh ij
st ick
ĠR ough
ĠL anding
Ġsh y
Ġdis advant
Ġ14 5
ps y
Ġaddition ally
Ġcost ly
Ġindivid ually
ĠMur d
Ġamb ition
Ġadvis or
cal iber
Ġdischar ged
ĠShep herd
tym ology
f al
ĠC ensus
ĠM old
Ġab ortion
Ġmon k
ĠBr aves
Ġprot agonists
Ġtre asure
ĠEurope ans
Ġcolumn ist
Ġelimin ating
Ġcorrespond ent
Ġredes igned
r ag
Ġt u
Ġt ips
Ġc ivic
Ġg orge
ig ue
em er
ĠL anguage
ĠE bert
Ġob l
Ġ11 7
Ġjust ified
ĠPer fect
que z
Ġplant ation
ĠAlexand ra
Ġexcav ations
Ġreper to
J ones
R L
l ooking
Ġthe ology
ĠC M
ur k
ir ie
ĠE b
ĠDe uts
Ġref use
na i
Ġanim ators
ĠReg ular
board s
ĠAg ent
Ġemer gence
Ġcust omer
Ġprogress es
Ġspect acular
Ġcoordin ated
ĠGaz ette
Ġsus cept
ĠDart mouth
C ube
r ace
ĠE rik
ĠSt am
Ġfe as
ĠAm sterdam
Ġgl am
epend ent
uff ed
ĠGod d
Ġexam ine
Ġ184 3
Ġtarget ing
ĠWork ers
198 9
Ġcool ing
ĠBry ant
Ġinterpret ations
ĠAgric ulture
ĠChem ical
f illed
Ġt ier
et ically
ĠThe od
ĠI st
Ġst ellar
ĠG entle
Ġv ector
Ġsp ore
Ġwhe at
ind y
Ġdec ree
pr ises
Ġback wards
yl on
Ġflow ing
Ġ180 9
ĠClass ical
Ġclim bs
Ġastron omers
ĠRand all
ĠGene va
ĠEmer gency
Ġoxid ation
Ġtribut ary
G l
i w
Ġl ocks
im inals
ĠCh o
Ġout line
ĠHigh lands
ĠÃ ĸ
Ġconcept ion
ĠCongress ional
Ph il
rank ing
ĠBosn ian
ĠCornwall is
press ure
) ",
Ġst atic
ĠL oyal
Ġpre tend
ount y
Ġchar itable
ĠBr ussels
Ġage nda
Ġobs erver
str ument
Ġplanet ary
Ġdress ing
ĠRest oration
Ġs odium
om al
ĠE ston
Ġun changed
ke eping
Ġmod ification
ps il
ĠMer cy
ĠBor neo
Ġimpl ied
Ġtall est
Ġreward ed
ĠAberde en
Ġc ites
ĠS T
ĠM atch
ber ht
Ġar che
Ġinst antly
ĠDavid son
ĠRock ets
Ġdead ly
Ġvac ation
ĠNic ole
Ġthorough ly
ĠSalv ador
ĠKem p
B E
W here
b omb
il ated
us an
ĠF arr
ĠF rost
ĠN g
ist ani
Ġâ Ĩ
Ġvi able
Ġsac rific
ĠTun is
Ġsurge on
Ġobsc ure
Ġmerc ury
ĠParalymp ics
C he
Ġd rif
ĠC asc
ant as
ric s
ĠMar ion
Ġ23 0
ĠNe gro
Ġpun ish
Ġunf inished
ĠBon o
Ġsomew here
ici ary
Ġdiver ted
Ġrede velopment
Ġfert il
Ġinterven e
Ġmit ochond
Ġironcl ad
ĠWals h
Ġhab its
C R
p ose
Ġb a
ĠA ch
Ġe ch
Ġal igned
Ġrel ates
ĠCom ment
ĠOn o
Ġnumber ing
ĠCl arence
Ġtw ist
Ġhum ili
ĠCor p
Ġcult iv
Ġve in
Ġcou ples
ĠField s
Ġdeliber ate
Ġchrom os
Char les
ĠHep burn
M ax
R un
Ġc ope
im us
ir ling
ĠH itch
Ġst aging
ĠK et
ra red
per t
Ġob solete
enn es
Ġstr anded
ĠMan it
Ġcr ater
Ġi OS
Ġhero ic
Christ ian
f iring
m art
Ġm our
ĠC umberland
ĠM it
ol and
ĠP od
ew ood
Ġtr im
Ġfe eds
ath am
ĠNo el
ĠPer iod
ĠMic key
ĠHon ours
Ġcann ons
enz ie
ĠMaj esty
Ġrehears al
ĠAmb assador
Ġtom bs
count ry
g one
ĠC unningham
ĠG ott
Ġch ords
iz arre
Ġmin erals
ĠNe ville
ĠGod win
Ġpsych ology
Ġcontinu ity
ĠLegisl ature
ĠAltern ative
ĠErn st
ĠThom son
Ġbicy cle
il itary
Ġl ighthouse
ĠB elf
ĠE k
ĠV iv
Ġdis orders
ĠY uk
Ġfin ed
ĠCan ning
Ġfact o
Ġeight y
Ġwid ened
ĠMil waukee
Ġdefend ants
ĠÎ¼ m
ĠTud or
Ġsophom ore
p end
v re
Ġl ig
ur us
ĠH ook
ĠN avig
res c
ĠIn stitution
Ġsu its
any e
Ġair ports
ĠMcC l
ĠPop Matters
ĠRod gers
Ġgal axies
Ġsupple mented
ĠSoft ware
Ġcorp se
ĠWoll stonecraft
govern ment
J uly
Ġo st
al is
ĠM CC
ut nant
art et
ĠMcC le
Ar t
Ġhun ter
Ġrob ot
ez vous
Ġninet een
Ġdisagre ement
ĠLiter ature
Ġconsc ience
Ġflex ible
in ers
it ivity
Ġf ool
ĠT aunton
Ġn mi
ĠF ighting
ĠCl aude
ĠOld ham
ĠCle m
Ġpick s
Ġfix ture
Ġsymp athy
Ġconsult ing
Ġprofession als
Ġlad der
he ed
Ġin accur
st roke
ĠC ord
ĠI TV
ĠW ords
Ġpl ains
Ġapp lying
Ġ11 4
Ġstrike outs
ĠGib bs
Ġglac iers
Ġhomosexual ity
Ġredesign ated
Ġol ive
Ġgram mar
Ġembed ded
l ia
Ġh orm
ĠT ip
ĠF ight
se en
rit e
ek ing
ik ini
Ġdem ise
ĠPres byterian
Ġdev otion
ĠNot re
Ġpan ic
Ġspons or
Ġphenomen a
Ġprest ige
ĠMarl borough
Ġbrut al
ĠShir ley
1 15
J une
R NA
p rom
r ÃŃ
y g
Ġs a
ro le
Ġl ent
ec on
ĠR az
uss y
ox ide
ĠEurop a
ĠChrist ine
Ġcr iminals
Ġneg atively
het amine
ĠSu ccess
R oman
m ere
ar ios
Ġm aid
Ġd uel
ĠA us
el ope
ĠM ih
ra e
pl ate
ob ic
ĠSh op
Ġinst ant
Ġ14 1
Ġlast s
ĠGold man
ĠEr in
Ġalleg iance
Ġoblig ed
estab lish
south west
ĠHimm ler
b ral
v ie
Ġp ound
Ġh oly
om ac
Ġl aser
ĠI B
ch urch
if iers
ĠAl c
Ġem blem
ĠWh ig
Ġsix teenth
ĠBar r
ij a
efe ated
ĠiP ad
ĠSaff ir
Ã ī
Ġre int
ĠR ings
qu ality
ĠIn ch
ial s
Ġwe ird
sh aw
ĠCol ony
uc us
Ġredu ces
Ġmer it
Ġundert ake
Ġmunicip alities
Ġtrend s
ĠComb ined
Ġscr ut
Ġow ed
ĠFil ip
ĠBark er
Ġcasem ates
ĠRebell ion
' "
Ġm aiden
ĠE instein
ĠK ombat
Ġso ils
ĠHar ald
Ġdam s
Ġpar an
Ġarch ipelago
Ġinvest ments
Ġrelig ions
ĠRel igion
ĠSant iago
Ġcomed ic
ĠWolver ines
H istor
M ac
e ven
n amed
Ġd itch
Ġ" (
ĠF an
ĠN ep
ra ul
Ġ18 14
Ġrest ing
Ġ21 0
aun t
Ġdepart ing
Ġsevent eenth
ĠLam bert
Ġrehabil itation
Ġreperto ire
H ere
t ank
Ġw and
or por
Ġin und
Ġchar m
Ġrel inqu
Ġemploy er
ĠWal ton
ĠFre eman
Ġnorthwest ward
Ġtal ents
Re illy
quarter ed
elest ial
at aka
en b
ĠP ill
ĠL one
Ġsp ells
Ġsub du
ĠPl atinum
Ġcampaign ing
Ġconclud e
Ġmission ary
Ġ179 3
Ġ179 8
Ġmind s
Ġbal anced
Re view
Ġcompens ate
Ġinherit ance
ĠMoff at
Ġt ying
es ome
Ġb ite
Ġst amp
ĠP omp
ĠE g
pt ical
Ġ7 50
Ġhel met
ĠEl vis
Ġground ed
ĠGro ves
ĠMart y
Ġtreat ments
Ġsen ators
Ġhun ted
ba um
Ġfulf ill
ĠCamb odia
Ġbapt ism
ĠCrom well
ĠBott om
ĠWilm ington
Oct ober
ĠGlac ier
ĠJ ourney
Ġtr unc
Ġdec ent
io ch
Ġfolk lore
Ġexplo it
Ġsurve illance
Ġmim ic
Ġretrosp ective
Ġpsyched elic
Nov ember
F rank
g ang
Ġp iv
Ġm asters
Ġd irt
ĠB uc
ĠD id
ĠG ul
Ġcl ade
Ġpr one
Ġdist ress
less ness
amb a
ĠMac Donald
ĠFin ancial
ĠAlb anian
J im
m ember
re f
Ġm ould
Ġtr uce
ĠMar se
Ġshort ages
Ġinf ect
ĠSand ers
ĠPay ne
ĠMunicip al
Ġbure auc
D H
S l
n ear
o it
p resent
Ġt iger
al ie
st ep
ĠH ag
ĠP ione
ĠD ru
ers ed
oc ative
ra il
old ing
ĠAr gy
ley s
Ġvis ually
Ġcelebr ating
Ġang ered
ĠSar awak
Ġappoint ments
Ġsculpt or
ĠCas ino
ĠDick inson
pres ident
ĠFern ando
Ġprol ific
Ġweld ing
Conn or
ĠT H
ĠT able
ĠT rent
ĠS ounds
Ġn ar
Ġst ained
ĠJ ut
Ġse ap
ish a
ond a
Ġmet re
Ġcapt ains
ĠFar mer
Ġdecor ations
ĠAI F
Ġcyl inder
ĠJohann es
Ġunanim ously
M arch
ro be
Ġh iring
ĠB ax
Ġg ill
ĠH ert
ĠL ux
Ġview ership
af i
Ġstat istical
Ġins ert
Ġess ays
ĠDet ective
Ġathlet ics
Ġvolunte ered
ĠNob le
Ġmand atory
ĠColomb ia
ĠClif ton
lew ine
ĠMoz amb
ĠGust av
Ġconve x
ĠRever end
N L
P M
ĠT z
ĠH uff
Ġcont amin
Ġout law
Ġbu ck
pr int
Ġrepl ay
ĠHer oes
Ġtechn ically
not es
Ġintens ify
ãĥ «
198 7
Ġspect ral
avel ength
aston bury
Ġenerget ic
Ġthe sis
it ism
ĠT otten
ĠM oses
ĠB elt
Ġg ymn
ĠP resent
ĠR anch
Ġen forced
Ġday light
Ġexpl ores
Ġequ ation
ĠSup port
unk ers
Americ a
oz o
ĠNad u
ĠAlam os
ĠShank ar
d ep
s an
ĠT osh
Ġme al
Ġfl ames
ern er
Ġcomment ator
ĠWil f
mark et
Ġraid ed
Ġhun ters
Ġble w
ĠFitz gerald
he avy
as urer
le z
ent on
ol son
Ġcon gestion
ĠO uter
Ġdes k
Ġinter fer
ĠGr aves
Ġtrad ers
Ġstation ary
Ġbreak away
ĠRel ief
Ġdisappear ance
Ġcon grat
ĠW ick
ĠV ery
Ġret ains
ll er
ĠUS AF
ĠCour se
Ġhy mn
Ġfort unes
ĠWild e
Ġlegend s
Ġconfirm ation
Ġsear ched
Ġsher iff
Ġf antastic
Ġd ried
ou st
ig ma
ĠRe bec
Ġmon itors
Ġrest oring
uk ov
Ġz oo
Ġphot ographed
ĠOl ivier
Ġbank ing
ĠCharl eston
198 6
Ġingred ients
Ġh aven
Ġn an
ĠR ita
Ġat om
Ġ18 19
Ġwar ming
ĠPr att
ĠPr ague
yn the
Ġboard ed
Ġscript ed
ĠApp l
ĠEr lewine
ĠBu ild
Ġwars hip
ĠMaurit ius
H P
e i
h orse
es is
Ġm ol
Ġh airs
Ġ( Â
and ro
ĠL C
ich o
Ġex its
ip ed
ph abet
Ġins ign
ĠSch olars
ev il
Ġir rig
Ġcriticism s
rep resent
ĠMalays ian
hist oric
Ġconven ed
Russ ian
Ġelong ated
M us
V N
ĠN uclear
od ont
ore sc
ĠCh ak
oy ne
Ġsome body
ĠAd vanced
ĠPh ot
ĠPot omac
Ġru in
Ġbutter fly
Ġcroc od
0 5
4 50
Ġg onna
ĠW enger
ĠN et
ĠK ip
Ġle isure
Ġinv ade
Ġcar c
Ã© d
Ġdiffer ing
Ġdem ons
ĠMin aj
Ġemploy ing
Ġcommercial s
Ġaim ing
Ġautom obile
ĠEver ett
haw ks
Ġrehears als
ĠNig el
R ou
f ar
Ġhe x
Ġhe aling
ĠCl imate
ĠAct s
ĠSch u
ĠMcC oy
Ġcommission ing
Ġaltern ating
ĠLion el
ĠPic ard
ĠBrid g
ĠHond uras
Ġaccomplish ments
G reen
im ated
ĠSe v
ek a
Ġbar rage
Ġ28 0
Ġtechn ological
ĠMal agasy
Ġmamm al
rank ed
eli hood
Ġware house
ĠâĨ Ĵ
R oy
ĠT ate
Ġg lee
ĠH ogan
ĠG amb
ĠV il
Ġ18 10
ron es
anc o
Ġ11 8
ĠWe in
Ġesc aping
ĠGro ening
ĠWil kinson
ĠMat hem
ĠHan over
Ġcontend er
ĠSurv ivor
A round
s w
Ġ ions
is se
ĠA ce
Ġe man
ĠB enson
ĠThe mes
ĠL ana
ĠSt ructure
Ġdest inations
Ġpeak s
Ġprem ises
cont rol
ĠPak istani
ĠLet ter
Ä ĳ
ĠI gn
ĠG ob
ĠL ooking
ian ces
te f
ĠMar co
Ġne o
Ġ17 75
Ġany way
ĠÂ ±
ae a
Ġglob e
Ġdecre asing
ĠKey nes
don ald
ĠSche er
ĠLen in
ĠClay ton
ĠAzerbai jan
Ġo urs
il ot
ĠI rene
Ġst int
ĠV ari
hed on
ĠAr row
Ġfin anced
Ġcult ivation
be ing
12 5
ĠÃ ĵ
ĠTom atoes
Ġang ular
Ġsupp ress
friend ly
Ġnob ody
ĠJenn y
Ã± o
Ġtack les
Ġfold ed
ĠEuras ian
u o
ĠT orn
ĠB rent
Ġg lands
Ġdec ks
Ġfl anks
ĠSp ike
Ġmat rix
Ġ15 00
Ġfinanc ing
ĠArm oured
Ġcouncil s
ĠLind say
Ġastron omical
ĠAh mad
ĠIran ian
Ġanx iety
. :
2 20
L ong
ver age
ĠJ MA
Ġad mit
Ġapp ar
Ġen velop
Ġpe er
ĠFl otilla
ĠAm bro
ĠBlack s
Ġgrad uates
yr ically
mark ed
Ġeth anol
ĠRome o
ĠSuff olk
0 8
u i
Ġh ood
Ġg raz
Ġdet ention
ves ter
Ġmot iv
Ġdev ot
Ġge ographic
ĠChap ter
Ġconvin ces
ĠEug en
ĠJar rett
Ġimprov ised
M er
M iss
S O
ĠT oul
oc he
Ġover head
ne v
ĠCl ose
ĠCol ts
Ġsl am
Ġdest ructive
ĠHer c
ĠSil ent
ĠMort al
Ġairfield s
Ġpip eline
child ren
ĠChop ra
f ortunately
m inded
ĠH BO
ĠP ain
ater mass
Ġgro ove
ĠGu in
Ġsal mon
pro v
Ġagg ression
Ġuncom fortable
ĠCase y
Ġchlor ide
Ġcuis ine
ĠAby ss
u ity
ĠC ust
ĠB olshe
th ms
ĠG oes
ĠE cho
ap arte
ew orth
Ġ18 24
Ġcent red
Ġend ured
ĠCl iff
ĠX en
ĠHigh land
ĠMed ieval
Ch ief
ĠCoast al
Ġrac ism
Ġrend ezvous
fle et
ĠTitan ic
Ġexagger ated
3 20
b ins
t ures
z t
al most
ĠR onnie
un al
ĠF ast
Ġpres eason
Ġcompet itor
Ġste amer
Ġvarious ly
ĠSecond ary
Ġcomplex es
ĠInter active
Ġbad ge
Ġtouch ing
Ġremix ed
ĠBrun o
Ġmal aria
ĠRodrig uez
nae us
s ch
ĠP P
ĠL oren
Ġse ab
ud i
ĠV ander
ann ah
Ġinf ections
ourn als
oph on
ĠSav oy
Ġump ire
ĠOkin awa
3 80
ĠC ald
att on
Ġdep osed
Ġpop e
ĠBy r
ĠMon k
Ġreason ing
Ġ179 5
Ġmorph ology
Ġboot s
ĠVick ers
Ġoverlook ed
ĠTues day
k ick
ĠT ren
Ġl uck
ĠM orm
ly ss
Ġwh olly
Ġr het
Ġ18 25
Ġrem astered
Ġ15 5
ĠEd g
Ġcor rupt
ĠPol es
Ġamb itions
Ġpal m
Ġconsum ers
Ġveget ables
Ġphr ases
ĠNum erous
ĠFow ler
opran o
ilib rium
ĠRebec ca
I D
r ays
or ian
Ġc ass
ĠS ometimes
Ġg low
ĠF ry
est ing
ĠK art
ĠU g
ĠAn alysis
Ġsup reme
Ġfin ishes
Ġed it
ĠGr im
ody n
af ia
ĠSal am
ĠEv olution
ĠFort ress
Ġ180 4
Ġoverth row
Ġvertebra e
ĠYucat Ã¡n
) )
0 4
b anks
f ight
Ġm antle
Ġfor aging
us ually
ĠI OC
ĠE state
Ġout right
aus es
ĠSh ock
Ġ16 5
Ġtreat ing
Al ong
Ġexc itement
198 8
Ġfresh water
Ġvolcan oes
Ġprosp ects
fr ame
ĠNi agara
ĠParalymp ic
Ġdup l
' ."
d ad
p ox
Ġt issues
ĠM ales
Ġas ylum
Ġag round
vi ated
ik ovsky
wh at
ĠTown send
Ġund efeated
ĠNass er
Ġf ence
Ġd atabase
Ġn ude
ow itz
her ical
ĠR umble
Ġtr ait
ĠAl ger
ft ime
Ġref ined
uff s
ĠAnt ioch
ĠHy der
ĠChap lin
Ġturb ine
ĠBed ford
ĠHem isphere
ĠAR IA
ĠGriff ith
Ġf uck
Ġb urg
ĠC ull
ĠH our
ĠH ole
ce ans
ĠL ing
ip es
ĠSt ones
ĠSt rike
Ġint ensive
Ġ17 80
ĠAll ison
Ġprec isely
ĠBet a
Ġoverwhel med
Ġinterf ere
abul ary
ĠVett el
A pril
S il
al ach
Ġcomb ines
Ġinf ring
Ġpreced ent
Ġmo ons
ĠBuff y
ĠStevens on
ĠInvest igation
stad t
er un
an us
ĠH i
ĠH oney
est a
Ġr amps
op ath
ew ater
aw k
Ġkn ights
ĠAs ide
Ġmon etary
ĠCon an
Ġgu idelines
ĠGerman ic
Ġdet ained
ĠDav en
Ġbar ons
ĠHel ena
Ġchemical s
Ġfisher men
Ġdim ension
ĠPhel ps
W il
Ġt ab
Ġo val
ĠS abb
ĠL ars
ment ioned
und ers
Ġcomp ares
Ġad miral
Ġdis l
Ġinter vals
ll an
Ġexp ans
Ġem ission
ĠBr ady
ĠRep orter
Ġbomb ed
ĠRes erv
col ored
Ġimpl ies
Ġhear ings
Ġsatisf ying
Ġsight ed
Ġunanim ous
ĠPeg gy
f orth
in flu
Ġg ast
ĠIn ner
ĠCh amp
ress ions
hy ll
Ġtrans mit
Ġbar rels
rict ion
Ġ27 0
Ġsepar ating
Ġprem ature
Ġcat astrop
Ġ180 5
Ð ½
ac erb
ad h
ĠM is
ĠU tt
Ġtr agic
Ġcons ume
ual a
air y
ĠBro oke
ĠMal vern
Ġproduct ive
Ġshif ting
ĠWhe el
RI AA
ĠSac rament
Ġlibr aries
ĠCly de
in ridge
Ġl ions
Ġn oun
ĠW er
um my
Ġch ased
Ġsu ck
Ġ12 2
Ġ' ,
198 5
ĠHun ters
Ġadministr ator
ĠBol lywood
Ġmathem atic
Ġplate au
Ġnom inal
Ġbreat h
Ġinver te
ĠWess ex
appropri ate
L ive
us ement
ĠD irection
os se
out heast
are z
Ġhead quartered
ĠPro per
ĠMan ila
Ġstand ings
ĠMil ky
Ġdefin itive
ĠTal bot
Ġreluct antly
Ġobvious ly
ĠMozamb ique
B en
v ideo
Ġa irst
Ġp istol
ĠW augh
Ġcl ad
az y
ĠZ ach
Ġvill agers
Ġlog ic
Ġ178 9
Ġteen agers
ĠPhys ical
Ġassum ption
Ġlad ies
Ġtribut aries
shadow ed
J os
i ew
er at
Ġst ir
Ġbe es
od o
Ġex ported
Ġ12 8
fl ight
ĠCar ne
Ġcommun ists
Ġtotal ing
Ġord in
Ġhost age
Ġrequest ing
Ġlif elong
ĠSol o
Ġconfisc ated
Ġsurn ame
Ġ ãĢ
Ġw avelength
ic uous
ĠC reation
ur ities
th s
op ed
Ġcar b
ĠGl astonbury
Ġlet ting
ĠBo one
Ã¼ hrer
Ġpick ing
Ġexerc ised
Ġdecor ative
ĠHere ford
M ed
S E
S ee
b eth
g io
l iest
Ġ à¤
Ġt iles
at hed
is ner
ĠT ah
ĠS as
el ves
ĠC yn
ul ing
ĠG M
Ġse als
Ġ18 21
ons on
Ġfound ers
Ġlist ened
11 1
Ġassist ing
ĠPat terson
Ġdi ocese
road s
Ġpip es
ĠPriv y
kef eller
Ñ ģ
ar as
ĠS ale
ĠS uk
oun ge
ĠCh ip
iz a
ĠAr j
sp ect
Ġconc ession
Ġcur tain
Ġmid fielder
ĠPhil harm
Ġge ological
ĠCatholic ism
Ġdepth s
ĠAnat omy
ĠVaugh an
ĠManit oba
h anna
p m
Ġs ectors
ĠM uss
Ġst ole
ĠL ob
ĠK ash
ĠK oh
Ġun lock
Ġar ise
Ġinter mitt
Ġlater al
ĠRe yes
sc rap
oul ton
ĠMac L
ĠFle m
ĠLaw s
ĠAcad emic
Ġ180 6
Ġ179 7
Ġexec ute
Ġstret ching
ĠCart oon
rep rene
Ġlat itude
Ġrenov ated
Ġeval uation
ĠConserv atives
2 10
M od
d aughter
m ire
Ġt ally
it ious
ĠC H
ĠR anger
ak on
Ġrest ed
Ġstory telling
Ġpost ers
Ġten or
ĠHam let
Ġcandid acy
Ġmeasure ment
Ġrot ating
Ġcatch ing
ĠRat ings
ĠInn oc
Ġcrick eter
0 3
C P
S oon
u er
on al
Ġin ception
ĠB onnie
Ġst ricken
Ġal ign
our g
ĠTh ur
Ġmet h
ey ed
Ġmed ic
ĠChar ity
Ġide als
ĠSy nd
Be ginning
ĠSpart a
ĠExper ience
Ġty res
Ġmotif s
ĠSoph ia
Ġeject ed
Ġrevel ation
Ġrer outed
M ary
h on
m issions
it ations
Ġc um
ol utions
ĠF lynn
ĠV ale
ĠZ ack
ĠPl uto
Ġemploy s
ĠMa o
ĠOs wald
Ġhero ine
ĠCart man
ĠConc ord
ĠSum mit
cyclop edia
0 2
st ra
ĠK ru
ost ic
ang erous
ars ity
ĠCon versely
ĠPh on
Ġpress ing
Ġyour self
ĠSa igon
ĠRap ids
Ġexcav ation
Ġsubpl ot
ĠTotten ham
Ġc ort
Ġp all
Ġcomm issions
Ġshow case
Ġfin ances
ex cept
ĠPh ase
Ġlist ings
ĠIm mediately
Ġconver ting
Ġess ence
Ġexpress ions
Ġillust ration
avor ite
ĠBuddh ism
0 6
W er
f un
Ġt ang
Ġthe ft
ĠB agh
ia o
Ġj umps
Ġappro ve
Ġgun powder
ĠBen ch
Ġ179 2
Ġtun es
enge ance
Ġfur ious
ĠEst ab
Ġrepr inted
Ġrig id
ĠNass au
Ġepit het
Mad onna
Ġp ec
st ars
ĠB ella
ĠD res
ul se
ĠL Ã©
ĠN ell
Ġch oral
ru ff
Ġsc rew
Ġte leg
Ġ11 6
esc ue
Ġche ek
Ġtur tle
Ġwreck ed
Ġf earing
ĠB ly
ĠG ir
Ġadv iser
Ġins ists
Ġclear ance
ĠCarl isle
Ġadvant ages
Ġdescend ing
Ġcliff s
Dec ember
ĠPix ar
ĠKarn ataka
Oper ation
W hy
Ġm a
am en
ĠR ising
Ġimp ending
ĠApp eal
Ġbenef ited
Ġkick off
Ġdiam onds
Ġsurvey ed
Ġspok esp
Ġinnov ations
stan bul
Ġderiv ative
W S
l ash
r and
Ġf auna
le ep
Ġst re
ĠW igan
ain es
Ġr isen
oc hem
Ġch icks
ĠK umar
ĠV atic
Ġear nings
Ġbar riers
Ġfif teenth
Ġneg lected
ĠOff ic
ĠTim othy
Ġ183 4
Ġhyd raul
Ġauth ored
bre aker
ĠEver ton
Ġhal ftime
Ġid ol
Te am
ĠTerr or
ĠUru gu
D ream
ĠD odd
ĠF av
Ġr ic
oun cing
Ġrec ur
act ing
ĠAs hes
Ġdown graded
Ġgu ides
ex c
Ġmar riages
ĠGeor ges
ĠDaven port
Ġw rought
ĠM W
ter min
ĠR um
Ġqu arry
ĠSc r
ĠDe e
Ġattack ers
Ġkill ings
oll s
Ġsuff rage
ĠPe pper
ĠBer ger
ĠGar rett
Ġinstit uted
ĠColon ial
Ġdecre ases
Ġaddress es
Ġrow ed
ĠJane iro
Ġorn ith
ĠCrow ley
ĠBuch anan
Ġtrem endous
B rown
s quare
t rick
es i
Ġb ike
ĠS earch
ĠH appy
Ġst ays
ĠF resh
up pe
Ġad verse
ten stein
Ġline age
ĠCanad ians
Ġneg lect
Ġcommission ers
hold er
ĠNort heast
ĠMaria h
ĠNapole onic
Ġscholar ly
Ġdrag ged
Pres ident
ĠMoroc co
c ity
in ning
ĠC rete
ĠL if
Ġch anc
ĠK anye
Ġchar ging
Ġcol oration
ĠCom et
ĠSh Åį
Ġsing ular
Ġback s
ĠMin h
ĠEl iot
Ġcat alogue
Ġeth ics
Ġobserv es
Ġign or
ĠPhill ip
Ġpron unciation
Ġmasc ot
y ah
Ġw is
Ġc ables
ar ine
Ġb ent
Ġth res
ĠF ritz
ip oli
Ġout ages
ĠY ar
19 50
ĠQu atermass
Ġeconom ically
ĠNick el
Ġtra uma
ĠAcc olades
ĠCole man
Ġsucceed ing
Ġcompr ise
hor st
Ġseiz ure
Ġpige on
ĠAmbro se
b els
Ã ¯
it imate
Ġnot ices
In t
Ġam ended
Ġinst ability
ĠOr ion
ean ing
Ġpar ap
Ġauthor ised
Ġsupp ressed
Ã¨ res
ĠGi ov
Ġproport ions
P I
R et
d ig
k as
Å Ł
Ġto ys
Ġm g
Ġd unge
ĠC oin
ud ge
ould er
pl an
Ġqu ote
ĠRe x
ĠÂ ·
Ġtri angular
omen cl
Ġplant ations
ĠStep han
ĠNic ar
ĠSquad rons
Ġmarg ins
Ġsatir ical
Ġaug mented
ĠEls ewhere
h un
Ġb oring
Ġp ic
ĠC otton
ĠB iden
ir al
Ġbe ef
th ia
Ġk in
Ġres ent
Ġdis reg
Ġout rage
Ġout numbered
att a
Ġche ese
tr ak
ĠPart isans
ĠRes olution
Ġprob ability
ĠPet erson
ĠLy on
spec ific
L U
Ġc ripp
ĠA e
ĠN ike
Ġex ports
Ġadd iction
Ġbel ly
Ġ13 2
Ġinfl amm
ĠHam m
ĠMac donald
Ġacqu aint
Ġmount ing
Ġanaly zed
Ġblood y
Ġtrain er
ĠFin ance
Ġsn akes
Ġimag ine
ĠLo op
Ġspons orship
Ġsuspic ious
ĠSud an
ĠBelf ast
O N
U N
Ġto ile
ĠF erm
Ġcom et
Ġex acerb
ĠV id
Ġsc utt
Ġne ur
erv ille
Ġjust ify
Ġequ ity
isc opal
Ġnatural ist
Ġpit ches
Ġ183 3
Ġadvert ised
cons cious
0 7
C r
g au
es y
Ġb achelor
Ġp od
Ġl umber
ĠâĢ ĳ
Ġsing led
ĠAt omic
Ġwar mer
ĠBe ech
ĠAnd ri
ĠDr agons
Ġmot ivation
Ġanaly ses
Ġagg ress
ĠMir anda
Ġconqu er
ĠChronic les
Ġpel oton
Ġgest ure
n ever
Ġt apes
Ġs aga
or ate
ad in
ĠM und
im on
Ġst anza
em i
os o
ĠL ap
Ġj un
Ġshe ets
Ġ15 2
cy l
ĠBy ron
Ġbas ically
Ġsol ic
ĠSch war
Ġdev il
Ġaccess ed
Ġconstit ute
Ġprin ces
ĠGall ipoli
char acter
ĠLet ters
ĠRoc kefeller
hous er
Ġinnoc ence
ĠGarc ia
Que en
t land
Ġt ut
Ġl one
ĠW hedon
ĠG le
Ġk its
pp ers
Ġun released
ond o
ĠBrit ten
Ġorgan ism
omb ie
ĠSch ne
Ġtransition ed
Ġspend s
m ounted
Ġf ission
Ġb ells
Ġm otto
ĠB ene
ĠR ory
ĠR AR
ĠD as
ĠN ir
port ant
Ġass aulted
Ġsever ity
vent ional
Ġsl ate
ĠComp et
ĠStr at
Ġcompos ite
198 4
ĠEp stein
ĠKen ya
ĠBon aparte
Ġflash back
ĠUk rain
Ġbureauc r
G C
ĠT in
ĠC razy
Ġsm ell
Ġ' "
Ġcapt ained
Ġdiscover ies
ĠPers ia
ĠLow e
Ġagree ing
ãģ ®
prof ile
ĠSyn opsis
Ġpsychiat ric
ĠAthen ian
ĠLik ewise
Ġpatern al
c op
s outheast
Ġo mn
an ne
ĠC over
ĠM illion
ĠThe me
Ġr anch
Ġpl enty
ĠK erry
Ġcont empt
Ġcont ention
Ġ18 28
ĠAr g
ĠRe vel
Ġarr ange
Ġwood ed
Ġcollect ors
Ġnecess ity
Ġinterp re
ĠSil va
Ġcommemor ated
Ġtoler ance
Ġinev itable
S up
Ġp ension
ĠG ris
ill and
Ġsp elling
pl aced
Ġsub stances
Ġpar achute
Ġmer ge
Ġamb ient
ĠProdu cer
ĠBor is
ĠRow land
Ġnurs ing
ĠDuch y
Ġjew el
Ġdrif ted
c asters
Ġp uls
ig i
ĠJ ab
Ġsh out
Ġcl ash
Ġapp end
Ġass umes
Ġprop he
ĠX L
Ġprocess ion
Ġap ology
ĠClass ification
ĠBru ins
Ġcommemor ative
ĠSpart an
Ġpneum onia
2 70
r ide
t echn
ĠT ale
ĠB ung
ir atory
ay ana
ĠK ron
ign y
ult imate
ĠRe venge
Ġship ment
Ġpass ive
Ġsupport ive
Ġposs esses
Ġcomb inations
ĠBut ton
Ġcert ificate
Ġdeleg ate
Ġcad ets
grim age
ĠBreck inridge
F e
d ays
ĠS F
ĠA ccess
ĠM ode
Ġg rief
ĠI z
ĠW ine
ag ar
Ġv ault
art ments
Ġsh ores
sc ill
ĠGame Cube
Ġmax im
Ġextr av
kin en
ĠJer icho
Å¡ iÄĩ
ĠDest roy
ĠLib ya
Ġvolunt ary
atche wan
. ),
p os
Ġre nder
ad vert
Ġg rie
ĠV it
Ġher d
Ġ3 000
Ġag ing
aw ks
Ġno on
ĠZ hang
aff ected
con n
Ġins istence
Ġthreat en
Ġtax i
Ġvac uum
chang ing
ĠKub rick
T ake
f ers
l oe
ĠT et
Ġl odge
ical s
Ġdes erted
Ġinc ub
aj an
sp oken
Ġdisc s
ĠTr ondheim
ĠMon key
ĠMy st
ĠCont rovers
ĠAv atar
ĠSid ney
ĠVul can
m ind
z b
ĠBr as
Ġche aper
Ġz ool
acher s
Ġsplit ting
ĠLes ter
Ġimpl ications
Ġastron omer
Ġastron omy
Ġspr ings
Ġpenet rate
ĠTob y
ĠRif les
Ġspokesp erson
O ur
n ell
Ġ ul
Ġd well
ĠG olf
ĠN ina
ĠK atherine
Ġme g
ĠBe aver
ĠSm ash
writ e
urt les
ĠLiber als
Ġliber ation
Ġexplos ions
Ġabsor ption
ĠHav illand
Ġmasc ul
Ġphysic ist
ĠVenezuel a
ĠJut land
T oday
h olic
p rop
w ave
in ely
ĠT rial
ĠC ope
ĠC anton
ĠB ag
Ġas cent
Ġat he
ĠL ance
up on
Ġpl edged
ason ry
ĠAn ime
Ġend uring
ĠEd en
ĠWe aver
Ġsw amp
umb ers
Ġnomin ate
Ġadop ting
ĠHel m
ĠMaced onia
ĠLud wig
M or
Ġf ountain
ĠA V
ĠB acon
ot le
ĠI o
rom b
um en
ap est
Ġch asing
pp elin
Ġcl ashed
Ġ18 16
Ġover ly
Ġfl ame
Ġ7 47
Ġcre m
Ġproject ion
Ġtreat ies
ĠCr imson
rown ed
Ġtraff icking
stitution al
Ġexperiment ed
Ġmut iny
Ġsan ction
ĠPhys ics
Ġembr aced
Ġunav ailable
Ġchim ney
D E
M o
on ium
ĠS ally
ac l
ĠP oor
ĠF ro
ill ard
ĠO S
Ġar ter
ĠMar ina
Ġfour teenth
ĠEd dy
Ġcr ude
ĠDr ag
Ġbi as
gu y
Ġneigh bors
Ġtrail ing
Ġflo at
Ġexplo ited
Ġwire less
Ġfilmm aker
Ġindu ced
Ġhier archy
Ġpresc ribed
mid t
Ġ(â ĪĴ
Ġmotorcy cle
Ġc ree
il o
ac ies
ot rop
ĠL ark
ĠHe br
Ġfl aws
sh a
Ġke el
Ġconfl u
Ġ179 6
ĠCharl ton
Ġguard ed
Ġprefer ring
Un til
Ġcorpor ations
Ġcontrad ict
Ġfrog s
ĠRÃ© union
ĠBie ber
D es
O H
st orey
ol ence
ĠB uzz
ab el
ud ing
ĠK ry
ĠV ie
Ġ201 7
Ġcan als
Ġminor ities
ĠRain bow
Ġreorgan ized
ĠAven gers
B ey
J am
f unction
Ġl overs
ĠN WA
Ġsh irts
Ġsp ine
ib re
ank ing
Ġass aults
Ġco ordination
sh ops
ĠPr ayer
Ġrev ive
ĠEm erson
Ġdra ught
Ġcontrast ed
Ġcollabor ator
John son
ĠGram mar
Ġspin ning
Ġconsp ir
Ġreson ance
ĠNorthumb ria
A ss
N ational
f u
al am
Ġp ending
et ry
ĠB ury
ĠH urricanes
ĠD ix
ĠG an
if iable
ĠO val
Ġcomp elled
ie gel
Ġrec ycl
ace ans
Ġup wards
ĠCl an
oss a
ĠQu ick
At lantic
Ġprec ision
Ġmem oir
ĠHart ford
Ġcommit ments
ĠCru ise
ĠDub ai
Ġjuven iles
rews bury
Ġincl ined
Ġretal iation
w on
is odes
Ġas ym
ĠH ence
ĠK ah
ĠTh ous
ĠAr r
ĠRe formation
Ġmus ically
Ġfavor ably
Ġple aded
ĠExt ra
ĠTow ards
Ġadmir ation
Ġincons istent
p unk
ĠT ara
ĠM aterial
Ġsp ray
ting u
fl oor
ĠTr an
ĠEar p
Ġins ult
ĠAc ross
ĠCongress man
Ġsoundtrack s
Ġdetail ing
Ġdisin tegr
M a
Ġt a
er i
en o
st ed
ĠC ell
ĠM ud
ĠB ian
ĠR ash
em in
ĠL ore
ĠE z
Ġpro claim
ĠO din
Ġ3 70
Ġcar riages
ĠBe auty
Ġdem os
Ġmy st
Ġevery where
ĠMil itia
ĠMy ers
ĠPaul ine
pro bably
ĠConfeder ation
Ġment ally
cha ikovsky
Ġpseud onym
Ġsear ches
Ġre lying
ĠI w
em ing
ĠG amer
og enesis
Ġint ric
are th
che t
Ġprop oses
com es
ĠOl ga
Ġge ometry
Ġexhib itions
Ġinstit ute
Ġur ine
ĠRom antic
Ġoverse e
Ġancest ral
Ġmarry ing
ĠCob b
Ġelectron ics
Ġembr ace
ĠÏ Ģ
Ġstair case
M ajor
ĠD olph
op ers
ĠK nown
ell us
og ene
Ġsur plus
Ġpres ided
Ġbro w
Ġ12 1
Ġ13 8
back er
gro ve
Ġstrip es
ĠProm otion
ĠVik ings
Ġindirect ly
ĠClif ford
ĠBri ar
G ame
T imes
r one
in ting
em ann
Ġmon astic
Ġwar n
Ġfr anc
Ġfle ets
Ġble eding
Ġclean ing
ĠSteven age
Ġtheore m
ĠJur assic
ĠKle in
ĠGand hi
ĠSacrament o
S ir
f rey
ĠP eck
ĠG aul
ant ing
ĠIn former
Ġrest art
ĠMac Farlane
Ġcontest ant
ĠConfeder acy
ĠCirc us
ĠMerc ia
Ġdrink s
ĠSpart ans
Ġprivile ges
Ġsymph ony
End ers
pend icular
w old
ĠM uk
ĠSt re
ass es
Ġass im
orn ed
sh ima
Ġcharacter ization
ĠReg ina
Ġhon oured
ĠSl oven
ĠStr ateg
Ġcrowd ed
Ġmaster piece
Ġexplo itation
Ġcoordin ate
ĠEC W
Ġdecomp ression
Ġrepuls ed
! .
h ound
Ï ħ
ic hel
Ġg ut
ĠI P
ĠF iji
op en
Ġoff ence
ib i
urn ing
end ers
Ġdep leted
Ġair plane
Ġsuccess ors
Ġgovern ance
ĠRec ent
ĠThere after
ĠMon itor
Ġcop ied
Ġ26 0
Ġamb iguous
ĠCrit ic
Ġdyn amics
Bl ue
Ġuns ure
ĠAz ores
ĠAnim ated
Ġwheel chair
ĠPil ot
ĠRecon struction
ĠMcCle llan
influ enced
M ur
T O
g ue
k iss
n ation
z ko
Ġw agons
Ġl ing
ol io
ĠH ern
Ġst ro
ĠP av
ĠD ahl
ĠD oyle
ĠK ad
Ġover run
erm aid
Ġany body
sh ort
Ġdisc retion
ink er
Ġpar odies
Ġcoun cill
ĠSal em
Ã¨ s
ĠLow ell
Ġquiet ly
Ġswitch ing
ĠVeter ans
ĠKyl ie
an ity
st ring
ut ory
ĠR ib
ĠD ion
ĠJ ill
Ġout lined
Ġsup rem
ĠRe e
Ġair lines
sh aven
Ġfootball er
ĠStud y
Ġchief s
Ġillust rate
equ ipped
Ġsan ctuary
found er
Ġprev ailing
Ġelectrom agnetic
d ue
m ain
Ġa fore
Ġb iblical
Ġto u
ĠM itch
ĠH orses
ay ne
ĠL uk
ĠY ah
Ġrem inded
ug a
Ġne u
aj o
Ġinst inct
Ġdep ended
uck land
urg ical
Ġinsp ir
Ġrail s
arn horst
ĠPaul o
Ġtransfer ring
Ġcontest ants
Ġaddress ing
ĠReturn ing
Ġshield s
Ġsimpl icity
Ġabrupt ly
ĠSask atchewan
ĠFranÃ§ ois
Ġflatt ened
o ise
il ocy
el man
ĠW ise
Ġhe red
ĠK aw
ĠK appa
ok ane
Ġshe er
Ġfl otilla
ĠAt ari
ĠMy s
ĠAtl antis
Ġadj usted
rog amer
Ġlic ence
Ġhang ar
Ġpedest rian
Ġrif les
3 70
Ġs inc
ĠS ina
ĠB A
ĠH iggins
ĠR CA
ĠD esp
ul in
ĠF actor
ct ica
ond uct
ĠEx c
apt or
Al so
ĠCr iminal
Ġtransport ing
Ġpun ch
ĠReview ers
ĠBudd ha
Ġoutf its
Ġcooper ative
Ġcoff in
Ġconce aled
ĠKend rick
w ulf
ac cept
ow ell
ĠN K
um o
if erous
Ġatt aining
Ġam mon
rap hic
fl in
Ã¨ ne
Ġexpress way
Ġrailroad s
Ġcoordin ator
Ġoblig ations
Ġsubstit uted
or os
ĠB achelor
ĠI on
ĠN iss
ĠK iller
are l
ll i
Ġsystem atic
ĠPr ide
Ġmid way
ĠAm ber
oll ar
ĠCal der
ĠMass a
ĠBu cc
ĠWater loo
Ġgall ons
Ġrecruit ment
ĠTrav is
Ġspont aneous
D C
z omys
Ġt s
Ġs ect
ĠT il
am on
ĠM ats
ĠL ic
Ġatt ach
ĠBar oque
Ġcoast s
Ġtransl ations
ĠOrig in
Ġenter prise
Ġsort ies
ĠIndust ries
ĠStra its
Ġdolph ins
Ġfundra ising
Ġmicroph one
ĠJed i
ĠPhilharm onic
F inal
re cht
it ud
el ton
Ġg aps
ĠP ound
Ġpro be
Ġme als
az ar
ĠBr ain
Ġprov ing
Ġext ensions
Ġreal izing
Ġpat rolling
ĠPres idency
Ġscreen writer
Ste ve
des ign
Ġsynthes izer
ĠKit ty
ĠHerman n
Ġcott age
B art
Ġb ays
ĠR ous
ri ka
Ġex cluding
ine as
ĠCh ick
per ors
ĠPro f
Ġreal igned
Ġstruct ured
iser ies
Ġelev ator
Ġfranch ises
Ġcry pt
Ġpup il
Ġsatisf y
Ġprohib ition
Ġadvoc ates
Ġneighbour hood
Ġantib odies
b at
f if
Ġ umb
ĠC oke
Ġv ass
Ġex h
Ġsp herical
Ġcomp atible
act ivity
ĠWe hr
Ġsw orn
Ġdestroy s
Ġcounter ed
ĠTrans ylvania
ĠAsh ton
ĠRub y
ĠMong ols
ĠThan houser
Ġeleph ants
ĠGalile o
ĠExam ples
% ).
Ġp igs
th ard
Ġv ag
erv ice
oss ip
Ġexpl orer
ĠPar ade
ĠReg arding
hys ical
arr ang
Ġcru ising
ĠIm ag
ĠKh mer
Ġadj oining
edd y
Ġdescend ant
Ġhang ed
ĠSuz uki
haus en
ĠOC LC
ĠSabb ath
n t
Ù Ħ
Ġc avity
Ġb ubble
ĠT aking
Ġr ab
Ġprov es
ret to
Ġhand ic
Ġsk ating
Ġpri zes
ĠMcC ay
ĠChe v
ĠDun n
ĠPublic ations
Ġreserv ations
Ġdepos it
Ġprev ents
ĠHur on
ĠShep ard
ĠRBI s
Ġperf ection
Ġwors ened
ĠElement ary
psil on
ä ¸
ĠM ersey
ĠG ong
ĠY oun
ĠAust rians
ink a
Ġsent iments
Ġinflu x
ĠAng les
Ġge ology
pro of
Ġspecific ations
Ġemphas ize
Ġdivers ion
Ġrevol ves
Ġcod en
Ġmonaster ies
Ã« l
ĠPatric ia
cyl inder
c ross
h Pa
es a
Ġb ud
Ġin ert
ĠS isters
et us
ĠW izard
oc us
ĠTh reat
Ġev angel
Ġrem od
Ġbuild s
Ġext raction
Ġclass ics
ĠWilliam son
Ġequ ilibrium
Ġvol ley
ĠCap t
ĠPat rol
Ġemb ark
ĠLiber ation
Ġsynthe tic
ĠPolit ics
ĠTerm inal
Ġlandsl ides
Ġori ented
ĠAdvis ory
ĠNavig ation
ĠCarne gie
M uch
] ."
Ä ±
Ġw eren
ĠM au
ĠI stanbul
ch an
ĠAr chie
Ġinv alid
ĠNorth western
Ġtw ins
Ġsyn onym
Ġenjoy ing
ĠAnn iversary
Ġeth n
Ġearthqu akes
Ġscen arios
Ġreass igned
P ort
m acht
Ġad he
ru ce
Ġac re
ges chwader
Ġcycl es
ĠRock s
Ch ap
ĠEv a
ĠHaw ks
Ġunivers ally
Ġunf air
ĠCook e
Ġsurpass ing
Ġplag ued
ĠVenet ian
ĠDres den
B us
D ark
Ġt ense
Ġh ail
ĠS ou
ĠS iber
ĠP ry
ĠL ands
ĠLe h
Ġrev is
Ġcrew men
itor ium
Ġcycl ing
Ġcontrast ing
ĠTw elve
Ã¤ ikk
ĠExp o
Ġrhy thms
ĠCelt ics
Ġpassion ate
ĠCitiz ens
cul osis
Ġsab ot
l itz
t ropical
w atched
Ä Ļ
É Ľ
Ġw rist
Ġo ught
Ġc af
ĠS porting
ĠN os
ĠJ ard
if ully
Ġover flow
Ġout ward
ĠSh rewsbury
Ġmar ijuana
ĠBro ken
Ġsol ved
Ġcal iber
Ġcat cher
ĠÎ ±
Ġlic ensing
Ã¶n en
ĠRaid ers
ĠInsp ector
Ġoverturn ed
Ġsubstr ate
Ġmour ning
C ity
C raft
F ilm
H ey
] ".
c ular
t ake
ĠA uckland
ĠB iz
ĠW it
Ġex empt
Ġnot ified
Ġab duct
com ple
ĠAb ove
Ġer ect
Ġill usion
ĠOper ational
Ġexam ining
198 2
ĠDam on
ĠMid land
Ġactress es
Ġfil ters
Ġhapp iness
Ġimmun ity
Ġanat omy
ĠCN N
Ġconclus ions
ĠHitch cock
ĠReserv oir
. ;
W V
c oun
m iss
at ts
ĠO dd
ĠK od
Ġsp un
ool s
ĠUS C
Ġ' .
St r
Ġbar red
Ġhold er
het ics
ĠCam den
eg ro
Ġshut tle
ĠColl ier
ĠNich ols
Ġconflu ence
Ã¤ikk Ã¶nen
e o
ĠH ed
Ġal phabet
ri ents
ĠMar riage
ĠBrit ann
ĠHar riet
ĠSw im
Ġpred ation
ĠAri el
Ġsimultane ous
Ġsemif inals
Ġpractition ers
lyss es
Ġb ru
ĠA min
ĠM if
ĠP R
ĠO rient
Ġpl ac
ans on
Ġdis emb
Ġno ct
Ġ17 77
Ġmin t
Ġgl ory
Ġpain ters
Ġrecogn ise
Sp ace
ĠLy d
Ġinstall ations
Ġtact ic
ĠDomin ion
Ġbes ides
Ġelabor ated
Ġhat red
T w
m akers
ĠC ult
ur rection
ĠW ord
Ġex tingu
ĠK ess
ĠK ok
Ġsub gen
Ġsw allow
ĠSch arnhorst
ĠMcC orm
Sp ec
Le od
Ġcheck ed
ĠRecord ings
cour se
Ġfratern ity
ilater al
B ur
c ould
j oys
å ¤
is ors
Ġe uro
em atsu
ul iar
ĠF ont
ĠU se
ĠAl g
Ġinter active
Ġcan opy
ĠSp ector
Ġsim pler
ling er
Ġhel m
Ġbas eman
ĠWe iss
Ġpat rons
Ġgl ider
int age
Ġrecogn izes
Ġsyn agogue
Ġforest ed
Ġri ft
ns ic
Ġsoul s
ĠFem ales
Ġconven ient
Ġvig il
ĠGarc ÃŃa
ĠYok o
Ġlav ish
Ġsuscept ible
ĠByr ne
h ra
in ia
Ġf raction
Ġd ocks
Ġh p
ĠS eward
ĠR ole
ame y
ru z
Ġj aws
Ġ18 18
Ġver bal
pr us
ĠInd ex
ĠPl ans
ĠCo ff
Ġche f
ĠGl oria
Ġpot tery
bl ock
ãĤ ¹
Ġinaug urated
Ġmand ate
Ġorn ament
Ġglac ial
ĠOd ys
Ġforth coming
ĠInv inc
ĠContin uing
ĠByrd s
Europ ean
ĠGiov anni
r ary
Ġf res
Ġp acks
Ġp avilion
ĠM aiden
Ġst airs
Ġrec k
Ġj ournals
Ġdis gr
Ġdis ruption
Ġcons on
Ġsl ogan
sc oring
ĠAir bus
Ġinf ants
Ġlog ical
ĠAp ost
ĠJud y
Ġconvers ations
ĠRel igious
ĠCa ucas
ĠProv incial
Ġalt itudes
Ġhighlight ing
ES CO
ĠWilhelm shaven
R ay
s ac
Ġt il
Ġt am
Ġs ake
Ġm ant
ĠA very
ĠC av
ĠI ch
ĠD ictionary
ĠF ram
ĠE lection
Ġun rel
ĠV H
ĠV ig
Ġoff set
Ġpre quel
Ġport al
Ġinflu enza
ĠNor ris
Ã¶ l
ĠEv angel
Ġang el
Ġmill ennium
ĠKa hn
ĠOpen ing
Ġautobi ographical
Ġpref ers
Ġreinst ated
Wer ff
ic ates
ĠT ac
ĠS idd
ĠS aga
ĠS Ã£o
ol esc
ell ites
other apy
Ġsever ed
Ġsmall pox
con f
Ġthreat ens
ĠSam antha
Ġoccup ies
Ġge ography
Ġlif esp
Sp anish
ĠJac qu
ĠSher idan
ĠJer ome
Ġske ptical
Ġfeud al
Ġwilling ness
Ġcompuls ory
N R
Ġs andy
Ġf aint
ar ab
Ġh ob
ĠT ry
et to
ol ini
ĠB olt
un ks
ĠO DI
ĠSt o
Ġtr an
og o
Ġev id
ener y
oss ibly
ĠBar ney
Ġsuff ers
Ġtax ation
ĠSuper ior
Ġrhythm ic
Ġnucle i
Der Werff
ĠHyder abad
T ropical
b les
ĠA FC
ĠH enson
ĠR KO
ĠF oss
Ġhe d
ĠK rie
Ġout c
Ġsome how
ey e
Ġsl ated
Ġsw ords
ĠSm oking
Ġfort ification
light en
Ġund ivided
Ġsun light
Ġsky scrap
Ġinaug uration
ĠMP s
Ġprovision al
role um
N or
b ecause
Î ·
Ġm asts
ĠC osm
ĠSt rip
ass is
Ġcl o
ĠY a
ĠCon way
Ġdiv ert
ste en
Ġraid ers
Ġhall uc
ĠPeng uins
Ġrelax ed
ĠScandin avian
opot am
ĠPione er
ĠSchwar z
A f
M ill
S pe
k ie
u en
it ored
ĠS uther
ĠC ore
ĠC rescent
ĠR iv
Ġpro st
Ġall oy
Ġ17 3
ĠSc apa
Ġresp iratory
Ġwid ening
Ġmot ors
Ġbreak fast
Ġviol ations
Ġabs urd
Ġtorpedo ed
Ġmist ress
Ġsymbol ism
Ġpul p
Ġabsor b
kil omet
Ġresur rect
Ġimped ance
orpor ated
H omer
r acts
Ġt in
Ġw agon
ĠT iber
ĠS G
ĠA gg
ĠC ott
ĠC ertain
ĠL ec
ĠN HC
ell an
ary a
ĠCh rys
Ġdec eption
Ġent reprene
Ġmark er
Ġten ants
Ġmot ives
ĠMil ne
ĠChe shire
Ġdistrib ute
Ġcho oses
Ġnegoti ating
ĠâĢĿ .
Ġrepr ised
Ġdraf ts
Ġendors ement
Ġintend ing
ĠJen kins
Ġunders ide
ĠWehr macht
G irl
S ex
en ium
le utnant
ĠH ost
ĠP asha
Ġsp at
Ġinter red
Ġsup erm
Ġsub way
Ġacc olades
ĠSp aniel
pen se
Ġsl ipped
Ġgovernment al
Ġprot otypes
Ġste amed
Ġhost ility
Ġemploy ers
ĠMac beth
ĠBrown lee
Ġdeal er
Ġappl ies
Ġinvestig ators
Ġacknow ledge
Ġspons ors
Ġreprodu ce
ĠAle c
Ġprev ailed
Mal ley
ĠArc ade
ĠNicar agua
0 9
L R
Ġp irates
ĠT imb
ĠH et
ĠE tty
Ġpl ural
Ġdis ability
ren s
Ġinv ites
Ġbr ack
Ġback stage
anc ies
Ġgener ous
Ġed ible
Ġcr ashes
Ġfre ighter
Ġimm ense
Ġdemonstr ating
Ġstraight forward
ĠVol can
Ġpale ont
ĠRif le
Ġaristocr acy
Init ially
ĠSchne ider
c roft
m ast
is ible
ĠM ant
ĠI ro
Ġsh afts
Ġco hes
Ġconf ession
ĠGo ogle
Ġextr acted
Ġsens itivity
Ġpack aging
ubb ing
ĠEth iop
ĠRus so
Ġlung s
Ġannex ed
Ġfa Ã§
Ġdismant led
Ġin advert
ĠM ansion
Ġg ly
ĠThe ory
ĠE ra
ab lo
Ġen joys
ck er
ĠCl ap
ĠAm ph
Ġsoc ially
Ġinf inite
Ġer oded
ĠRou ge
ĠHol t
eck er
ien ne
ĠGar land
Ġrecon struct
Ġcard inal
Ġpenet rated
r ance
s eries
Ġt ones
ĠS I
ĠH ors
ĠR im
ĠR ules
ĠR Ã¤ikkÃ¶nen
oc on
Ġdis organized
ach lan
Ġreg ulated
Ġpe ac
Ġ14 4
10 2
ĠEast Enders
ĠJackson ville
ĠUp anish
ĠVan DerWerff
ĠDark ness
Ġstret ches
Ġninet y
Ġrever ted
Ġscar ce
ĠCoch rane
W ell
g ins
h ind
Ġa ide
Ġd ose
Ġre issue
ur istic
ĠW ins
ĠG ert
ag ree
ĠV in
Ġdis cl
ĠY as
ĠSe jm
Ġtake over
ĠIntern al
Ġdial ects
ĠHay nes
ĠHo oper
ĠPur ana
ĠLin naeus
ĠZe ppelin
J on
e pt
f und
at al
Ġf ug
Ġre prise
st all
st ellar
ĠM ob
ĠB ash
Ġcomp are
Ġmod ule
ĠRes ources
ĠArch ives
ĠHaw kins
Ġ180 8
ĠEp iscopal
Ġdens ely
ĠHans en
Ġmart in
Ġlandsc apes
ĠBagh dad
c irc
f elt
g uez
k n
x es
on te
ĠC redit
ur able
ĠD ante
ĠL ocated
ĠN T
ĠU P
form ing
Ġsur g
Ġshow er
Ġdet ach
ĠMin isters
Ġfac ade
ĠRo ch
Ġundert aking
Ġproceed ing
Ġintercept ions
ĠNich olson
ĠFront ier
ĠProgram me
Ġfert ile
Ġsynthes izers
Ġabd omen
ĠParad ise
F orm
d ark
Ġt att
Ġin appropriate
ĠH ib
od ic
ĠO ry
Ġch ick
ĠK i
Ġ5 50
Ġfe ast
rop ods
vent ure
Ġgener ators
ĠBar bar
Ġprop ose
Ġtimes lot
ĠMe gan
ĠHam mers
Ġseg regation
ĠBre nd
Ġselect ions
Ġtoll s
northwest ward
Gr and
Ġsymmet ry
Ġmonkey s
D el
F i
F ive
S ix
f air
g eneral
h m
t ight
Î ¼
ĠS EC
ĠA FL
Ġl ia
ĠI UCN
Ġv amp
Ġv ivid
ak o
all a
Ġdis ple
Ġacc using
19 79
ĠWe ap
ĠCor inth
Ġnational ism
for cing
Ġneigh bours
ĠRos berg
Ġextr ater
Ġrob bery
idel ity
ĠDal mat
ĠPle asant
Ġhem isphere
Ġnost alg
Ġcogn itive
Ġnumer ical
ĠSuther land
C roat
d ong
ĠB onn
ist o
ĠU b
Ġcomp artments
Ġcl ashes
ĠRe qu
Ġbr ide
to ine
Ġhom eland
ĠMer it
ĠKr atos
Ġdemonstr ates
Ġshut out
Ġexception ally
Ġshore line
ĠUSS R
Ġlob b
Ġchronic le
Ġstyl istic
Ġsel dom
ĠCoul thard
ĠCert ifications
kilomet re
A sh
S ur
v ine
in ement
or ical
Ġm un
Ġm oll
ĠThe ss
em outh
ĠW i
ab is
Ġ18 27
Ġob it
Ġbook ed
atch y
amb o
Ġcas ino
Americ ans
ĠPo ole
Ġneutral ity
Ġtox icity
Ġinvent ory
ĠSteel ers
Ġsalv age
ĠOcc up
rÃŃ guez
Ġtrunc ated
Ġtou ches
2 60
M u
en i
Ġst ipe
ĠF ig
Ġr ans
Ġyear ly
ĠUn cle
rib ing
Ġcan yon
Ġdist orted
ĠEu rogamer
ĠCal ed
ĠCor por
ĠWhite head
198 3
Ġwithdraw ing
vo iced
ĠYellow stone
ĠToy ota
ĠHig her
J anuary
o il
Ð ²
ĠT rit
ul ators
ĠL j
ĠN est
ag us
Ġ18 26
fer red
Ġwhere in
Ġinc oming
Ġdecl ares
Ġpain ful
ĠStr ange
Ġjournal ism
Ġresear cher
Ġiniti atives
Ab out
Ġtrump et
Ġslee ve
h ave
n ia
p itz
Ġth y
Ġl oot
ur ia
ut tle
ĠF ew
ĠG erry
ĠN ights
od er
Ġcom r
Ġv apor
ĠCh ange
ric a
Ġent ities
Ġopen ings
Ġconc essions
gr ave
ĠCont est
ĠKh al
ĠMov ies
ĠNic ol
Ġsurviv or
ĠCru iser
rov ision
Ġimmigr ant
ĠCzechosl ovakia
Ġchanc el
F urther
V ict
n is
Ġw ax
ĠC rew
ĠN ile
Ġtr ams
Ġ18 11
Ġ18 17
Ġqu otes
ĠBl ade
ĠQ ing
Ġbre w
Ġengine ered
Ġphys icians
Ch inese
ĠWall ach
Ġrat ified
itt i
Ġsupp ression
ĠBad en
ĠBra un
ĠRow ling
ĠLaure nce
ĠGates head
ĠSpit fire
ĠVolunte er
Ġlandown ers
Ġincarn ation
Ġ q
Ġo scill
Ġto ps
Ġm ates
ĠB und
ĠP iper
ĠR escue
ĠL ep
ĠL otus
Ġins ane
Ġdon ation
ĠDo om
Ġfavour ites
Ġ178 3
Ġnut rients
Ġsummar ized
ĠPlate au
ĠIndivid ual
Ġquadrup le
Orig inally
ĠVatic an
H am
l av
Ġb ored
ĠM s
ĠW ire
ĠF us
ĠN it
ĠU ematsu
Ġcomp ly
Ġup ward
Ġcan vas
Ġrel ocation
Ġem igrated
Ġ12 4
stit utes
ĠQu ad
Ġprem ium
ĠMur der
Ġburn s
Ġtrust ed
ĠImp ro
ĠUr s
ĠWhe at
ĠShel by
ĠManu fact
Ġoptim istic
ĠLis bon
ĠBalk ans
ĠHollow ay
ĠJak arta
ĠHerc ules
ĠBucc ane
g art
Ġf oster
is man
ĠC i
Ġst al
ul er
ĠF arn
ĠL ille
ill ary
ate ful
Ġse ism
ĠâĢ ³
ĠV ision
ĠSp okane
ram er
Ġresp ects
esp ecially
Ġste alth
Ġprim ates
Ġmer ging
Ġhuman itarian
ĠFlor a
ĠDen is
Ġelig ibility
ĠVers ion
Crit ics
Ġaster oid
Ġguerr illa
Ġinexper ienced
Ġb ug
Ġp inn
Ġre issued
ĠO bl
ĠK ne
Ġrec ounted
Ġinter val
ĠSc ale
Ġwar ns
Ġrock ets
fall s
Ġsex y
ĠGall agher
ĠGer ard
ĠJacob s
Ġbypass ed
ĠMarket ing
mo il
ĠMyster y
! ",
B ook
M ont
g ree
r il
v ic
z ky
Ġw olves
Ġc her
ĠS ava
ĠA G
Ġwith stand
ĠP ony
Ġpl ague
Ġrel ies
Ġmon itored
Ġmil itar
Ġstr at
osp ace
ĠEx hibition
lin ary
Ġprocess ed
ĠÃ ĺ
Ġpit chers
Ġfunction ing
ĠRoy als
ĠMes a
Ġcoinc ide
Ġcad et
ĠFu j
ĠRams ay
Ġamend ments
Ġwis dom
L ondon
R ain
b ore
s ided
y t
Ġt empt
Ġp and
Ġd irty
ĠT ouch
Ġg ri
ge ons
ĠAl berto
we ed
Ġind ict
Ġequ ator
Ġaff irmed
hold ing
Ġsyn chron
Ġyellow ish
Ġrac ist
Ġsuperv ising
ĠConc ern
ĠExpedition ary
ĠMang alore
ĠMiche le
cip ation
. ).
f urt
l ift
he asterly
al u
Ġp ent
ĠM FR
ĠD under
ĠN adal
um per
Ġv om
ĠSt ad
pt ions
ĠSp ock
ĠCol t
ĠCar m
Ġdel uxe
Ġsound ing
Ġgen etically
ĠMill wall
Ġconcept ual
ĠCorn ish
fess ional
ĠRain fall
Ġbath room
Ġfulf illed
ĠHav ana
Ġconfer ences
ĠChron o
N O
T im
h ail
Ġp irate
ĠB ound
ĠR C
op ods
Ġch aired
Ġdis g
ĠLe vi
Ġtrans verse
yl us
Ġcr ush
Ġgl ad
Ġhold ings
Ġaccording ly
ĠRob son
Ġtext ile
rec ord
Ġacad emics
Ġflank ed
Ġalco holic
ĠOfficial s
ĠRodrig ues
ĠTorch wood
- ,
H el
P re
c ool
Ä ĵ
Ġf iber
Ġpl aster
vi ate
ft en
Ġcan e
Ġact in
ĠZ ion
Ġconf using
arm ing
me ga
Ġcor rel
Ġfore most
ĠNe al
Ġvol tage
Ġarch ives
ĠHam lin
Ġeth ical
ĠHung arians
ĠCy prus
Ġapart ments
Ġbrick s
ĠPatri ots
Î¿ ÏĤ
ĠIsab el
Ġepid emic
t re
Ġl amp
ad uct
ĠH abit
ĠG ale
our ing
Ġout look
ode on
Ġinv ading
ĠSh ap
Ġbl ade
com mit
Ġfig ur
ĠÂ° .
Ġacqu itted
Ġprincip ally
Ġ180 3
ĠSo ap
Ġ179 1
Ġast rol
Ġbrown ish
Le ague
Ġcommit ting
Ġannex ation
Ġrepublic an
f ighters
Ñ Ĥ
ĠT ick
ĠT ram
ĠT rench
ĠS overeign
ĠIn ver
ĠCh u
Ġad vers
Ġ18 23
Ġ6 50
ĠShe ll
ets u
ham mer
Ġnight club
Ar ts
AF TA
ĠTim or
Ġtun ed
ĠUN ESCO
Con struction
ĠFal con
Ġholid ays
ĠStat istics
Ġquad r
ĠTir pitz
ĠFly ers
Ġilleg itimate
Ġwhit ish
P ac
s eller
Ġf used
Ġp awn
ĠH umber
ĠH Ã¤
ĠG ian
ĠN guy
ĠV ampire
Ġen am
Ġdis agree
Ġchar ters
ĠLe one
19 30
Ġ12 6
Ġmy c
ĠMil k
ĠRob ot
gl ass
Ne il
Ġcustom ary
Ġsacrif ices
Ġauthentic ity
Ġbutt ons
M in
nd ez
Ġp ant
Ġd amp
ĠM ey
ĠF ighters
Ġwork shop
ĠAd en
Ġread ings
Ġinf rared
Ġhold ers
Ġgrad ed
Ġconflict ing
Ġpun ished
ĠEll iot
Ġsynthe sized
ĠAh med
Ġretail ers
ĠMans on
C AR
R oyal
v on
Ġd ental
ot ism
ĠR ule
our se
ight y
Ġtr icks
Ġab bre
Ġup right
Ġdef ic
ops y
Ġfire arms
ĠMass acre
ĠBul ld
Ġcatch y
Ġassass inated
ĠAntar ctica
ĠSever n
ĠKes ha
Ġtyr ann
b irth
h oun
Ġb izarre
Ġm osa
ĠT chaikovsky
ĠM ec
ĠP T
ĠG C
Ġhe arts
ĠE ck
Ġcl over
ric hell
Ġunder gone
ĠRe ign
Ġimp ose
aken ing
ĠMo e
ĠGreen wich
Ġoffer ings
Ġcompar atively
ĠWrit er
ĠSlav ic
Ġalumin ium
ĠNiger ia
Ġ(Â £
? ",
i ative
re a
ĠT AR
ĠA man
ĠC ory
Ġsp ines
Ġte legraph
ĠCom ing
Ġac et
ĠSc rant
ĠAugust a
ĠWill am
Ġdel ivers
Ġdel icate
Ġrad ial
ĠNe o
part icularly
Ġtim eline
ĠEle ph
ĠAud io
ĠDal ton
ĠHur ley
ĠBever ly
? '
D ef
g all
l at
l oss
w ife
Ġt ast
al ter
Ġin mates
ol er
ĠB ec
iv ores
ort ic
Ġun re
Ġpe at
Ġlocal ized
Ġcoll ar
ĠVal ve
Ġobject ion
Ġsurre al
Ġunf avor
Ġselect ing
ĠInc re
ĠLuther an
ĠSyl vester
Ġdisgu ise
bern atorial
ĠUkrain ian
N ote
P erson
id ered
ak an
iz oph
ĠUn fortunately
ĠRe ad
ek er
ĠBar th
Ġhard core
isl av
ĠDiv ine
Ġrecept ions
Ġauton omous
ĠRaf ael
Ġincred ible
ĠMarse ille
g ement
g eneration
Ġc eded
as ers
Ġm ound
ĠP iano
Ġbe ak
Ġhe al
ĠE ust
ĠU lysses
ĠLe vin
Ġbu oy
ty p
ĠBl ind
Ġocc ult
ĠWill ow
Ġcur se
ĠPri ory
Ġincorpor ation
Ġple ase
Ġmechan ic
198 1
Ġmicro sc
ĠTerrit orial
zh nev
Ġf aults
Ġb ind
ic ans
ĠT rap
Ġl ag
ec d
ĠL yrically
ĠJ ub
Ġr age
ĠK ai
Ġinter sp
Ġreg ener
ĠRe ef
ĠBr idges
Ġpar atro
Ġequ ations
ĠEx it
ĠHol iday
ĠKe ats
pe z
Ġgall eries
ĠBark ley
Pe ople
Ġtuber culosis
Jos eph
ĠScrant on
G en
g t
j ina
s ville
Ġm igrated
Ġbe e
ĠG DP
ĠL uck
ĠCor al
of sky
ĠVir gil
ĠMal aya
ĠSk i
ĠGo ing
Ġexperiment ation
Ġmis under
ĠBal zac
ĠRaj a
Ġrenew al
ĠSig ism
tef acts
ĠMys ore
C ons
b as
c ur
r ack
in j
an j
ĠT ub
st ill
ĠA B
Ġl ens
ĠM ate
Ġg land
Ġfor c
ĠP ret
ĠD ong
ĠW are
Ġv oid
red ict
cl ock
ry l
man y
Ġbl unt
Ġno ir
ĠZ ap
Ġdest ined
com mon
Ġrespond s
with out
Ġerr one
Ġlingu istic
Ġpopul ace
a illes
e a
t ter
Ġr ides
Ġpl aint
Ġsp arse
ĠV isc
Ġdef ines
Ġpol ished
Ġimp air
Ġjust ices
Ġpromot ions
Ġregular s
ĠBoy le
ĠLincoln shire
ĠAut umn
ĠBak shi
Ed ward
Ġenroll ment
ĠParagu ay
ĠNom ura
omencl ature
c ke
u ve
Ġt ails
ĠS uez
Ġg a
ĠI ps
os em
ard less
Ġ18 13
Ġdis like
Ġtrans cend
Ġ14 6
ĠSer ge
Ġpract ically
inn y
Ġconsp icuous
Ġpredict ions
Ġclar ified
Ġmorph ological
Ġours elves
A U
Ġc aud
ĠL ump
rib es
ĠRe leased
Ġnorth wards
ĠPart isan
tt es
Ġcalc ulations
Ġenl ist
Ġapprec iate
ĠChile an
opard y
Ġgentle man
ĠSchw artz
ĠBav aria
Ġscrut iny
Ġirrig ation
ĠHebr ides
C ent
L ieutenant
h og
l og
z man
Ġs cler
at ine
le ft
ft on
Ġcap it
ĠCl air
gr ims
Ġlim b
Ġpair ing
ĠRod rÃŃguez
Ġprivile ge
Ġdisgu ised
Ġlac rosse
Ġpamph let
ĠThanks giving
D IS
d istance
g ment
l und
en aries
Ġf riction
Ġd op
st ood
Ġn ons
Ġon stage
her ty
ĠP asc
ĠK ling
Ġpart ition
Ġwork shops
ĠAn j
ĠMar itime
In tern
ris ons
Ġcirc us
Ġgrad ient
Ġtax a
Ġconfir ming
bro ken
Ġdefence man
Ġvent ures
ĠYanke e
ĠStef an
whe el
Ġfeder ation
U K
Ġw ards
Ġbe ams
ĠR uf
ĠG ue
ĠL eth
Ġsh ame
ĠK ab
ĠK ee
ĠK uala
ĠHe ather
rop s
Ġsign atures
ĠDe velop
ĠMin i
ĠX IV
ĠRob bie
ĠApp alach
ĠInter continental
Ġamb ushed
Ġtur moil
Ġ180 2
Ġsn out
Ġprogress ively
arc iss
Ġpor ch
ĠKos ovo
W el
l isted
ue ger
Ġres ided
ĠZ ah
ĠMan ch
ĠAnd r
ĠAnd roid
ĠNo ah
Ġcost ing
Ġbroad caster
int ens
Ġer otic
uff le
Ġdistrib utor
ĠWood y
ĠOl af
ĠBarb ados
Ġweapon ry
Ġchore ographed
abl us
Ġtaxon omic
ĠOil ers
Ġconsec rated
A z
w ear
Ġa ce
re hend
al bum
Ġin active
ĠD rug
Ġal erted
ĠG B
ist ols
our t
Ġres up
Ġplay wright
Ġfl av
ĠCom bs
Ġam assed
ĠCon tr
Ġdist racted
ĠFor rest
Ġinit iate
Ġactiv ism
ĠPe el
be g
Ġhard est
ĠExp osition
Ġuns igned
ĠLock heed
Ġdiscour aged
Ġmistaken ly
Step hen
ĠMonten egro
2 80
f est
f man
t aker
w reck
Ġp itted
Ġfor wards
ĠR w
Ġv ine
ect ives
Ġcont ests
Ġcl ich
ier re
ĠSmith son
ĠStar Craft
Ġsat ellites
Ġdram at
Ġabandon ing
ĠBu ilt
ĠEgypt ians
ĠKh alid
ĠTw ins
Ġkick ing
omic ide
ĠDown town
Bl ood
ĠSant os
nest y
Ġupd ates
Ġinverte brates
ĠMif flin
D aw
p ill
Ġp odium
ĠT i
ĠS ard
ĠA AA
ol ent
ĠD ad
ĠD ust
ĠN ice
est ead
te x
Ġar row
ark y
ĠCl ara
Ġport able
ĠAb original
ĠPer kins
ĠBel ize
Ġcaptain cy
Ġlog s
ĠHa as
ĠHor ace
ĠRick y
Ġrecip ients
Ġtight ly
ĠTit le
ĠIceland ic
Rad ar
pret ty
Ġscutt led
Ġevid enced
Ġp ants
ĠC A
ad ia
ĠF rem
ag uchi
Ġpro clamation
ĠO K
ak in
ĠU sta
pp o
ĠCh ance
iz on
Ġsum mers
Ġren umbered
Ġappl auded
Ġforeign ers
Ġple a
Be at
rif ying
bre eding
Ġdiplom at
ĠBud apest
Ġreconcil iation
Ġalgor ithm
G e
R D
S a
k u
Ø §
Ġb unch
st ru
Ġn iece
ĠI v
ĠI ber
ĠL ives
ĠL ara
ĠN SB
ag han
Ġr h
ap o
ies el
ary n
ĠMar vin
che m
Ġback story
Ġmil estone
ink el
Ġcour thouse
Ġorigin ating
Ġlik elihood
angu ard
ĠGreen wood
ograph ics
rael i
Ġemphas ised
ĠMid night
aret te
Ġdang ers
ĠFav re
Ġlifesp an
izoph ren
F ebruary
H z
H ome
N ick
d ate
l as
n h
en as
Ġc elestial
is i
ĠM ask
ĠB yp
Ġas hes
ĠH ang
ĠP ius
ian c
ign ant
clud ed
Ġdes erved
Ġsec rets
uc le
tle ment
Ġrest ruct
ĠChrist ie
ĠBar low
Ġrepresent ations
ĠEm il
Ġencour agement
ĠAbb ott
Ġselect ive
Ġpartn ered
ĠTel esc
Ġforecast s
Ġjudg ement
ĠLem on
ĠCann es
ĠRook ie
ĠNir vana
Ġm ice
ĠS ister
Ġg em
ĠH oy
Ġhe ars
ill usion
if olia
Ġsc outs
lect ions
Ġ17 78
Ġhist ories
ĠFor um
Ġappro xim
Ġph ones
Ġstory board
cent ral
Ġfield ing
Ġbreak up
ĠBrown e
ari at
Ġconsider ations
ĠInter est
Ġrepe ating
Ġamb ulance
eed ing
ĠGre co
Ġadvoc acy
Ġtort ured
ĠKens ington
Ġincorrect ly
mov ing
Ġinsurg ents
ĠVirt ual
ĠLux emb
Ġpec uliar
ĠBung ie
d oes
s ize
y x
Ġ u
Ġ ~
Ġb ags
al m
Ġp uff
Ġas leep
Ġor th
ĠSt irling
Ġsp elled
ĠYork er
Ġprop osing
Ġpred iction
ĠChe roke
ĠFort une
Ġreject s
ĠMid lands
Ġgraph ical
ĠRol and
enc ia
Ġcart ridge
Ġinstall ments
Ġblow ing
ĠKat rina
Ġarchae ology
Ġpione ered
Hung ary
Ġinterven ed
Ġironcl ads
Ġphylogen etic
ĠGuin ness
Ġafore mentioned
Ġhered itary
x y
ĠB ourn
ĠH ulk
ĠSt anding
ile e
iz za
Ġman power
Ġatt ested
Ġinc urred
Ġcrit ique
ene g
Ġconn ector
ĠKe en
Ġflash backs
Ġfron ts
gener ated
ĠTyr ann
ĠSold ier
Ġsax ophone
p ot
Ġs oprano
ĠM aking
ĠW ere
Ġex clusion
Ġen ables
19 75
Ġprot ector
isc overed
cer pt
Ġscore less
Ã³ pez
add ock
ĠFair banks
ĠBeck et
Ġexplan ations
ĠLegend s
Ġsustain able
Ġbetray ed
Ġvacc ine
U l
n itz
Î º
ĠS ora
el o
ĠC ove
ĠM asc
ut ant
Ġst ocks
ĠF ut
ĠK och
Ġun identified
Ġsc enery
rop od
Ġrece ip
Ġmed ication
let ter
ĠHer r
18 5
Ġpen ultimate
Ġboy cott
Ġwild erness
Ġphil anthrop
Ġla ure
ĠSpe er
Ġencl osure
ĠHaz el
Ġcinemat ographer
ĠWillam ette
n eck
o oms
w ere
Ġs ar
ĠS M
am ore
Ġg rip
ĠP awn
Ġtr aps
ob ia
Ġthan k
ĠEu rovision
ung a
ĠHer od
Ġ40 4
ĠHam asaki
Ar ch
Ġ180 7
Ġcell ular
Ġelev ations
produ cer
Ġharm ful
imp son
ĠRoll s
Ġbacter ial
ĠLaur ie
izz ard
Ġsurprising ly
ĠMÃ¼ ller
ĠPhilos ophy
ĠTuls a
ĠNickel odeon
B aby
F B
S ar
b rough
d ied
d rawn
i ard
r s
ĠT ao
Ġe agles
ĠW ik
ĠF ountain
Ġr hin
ment ation
are a
Ġim aging
ang s
Ġmon opoly
ĠCl ause
ox ic
Ġcor v
ĠBur t
ĠPre viously
ĠUl ster
anth an
ĠEc ology
Ġexpert ise
ioc ene
ML L
Ġdign ity
F O
G ive
b h
m oor
re ceived
it le
ĠS ands
am iliar
ac ula
ĠB S
ĠG os
um ont
ew ski
ĠAn zac
Ġform idable
the ir
ĠSh im
ĠAs c
ĠCar lo
ĠGu ang
ĠMor ales
ĠMon aster
umb ling
ĠSan chez
ĠSam us
Ġden oting
Ġsens ation
ĠKir by
ĠRadio head
ĠPur ple
mill imetre
ĠAC LU
ĠHiro shima
Ġluc rative
ĠOffic ers
E ll
W estern
ĠI da
ĠW yn
ĠE scape
ia z
so hn
pl ain
19 71
Ġdisc rimin
ĠChrist gau
ĠAct ing
Ġparticip ant
ocr atic
ĠPat erson
Ġarrest s
ĠDar ius
Ġopt ional
Ind ian
Ġeval uated
ĠHob bs
Ġclin ic
chw itz
Ġcit adel
lif ting
Ġinund ated
ĠIro qu
J ew
c ulture
Ġ @
ar am
ĠM ugh
ĠH im
ĠH imal
Ġst raw
ĠD ramatic
ĠF aw
ĠG R
Ġsp inal
inal d
ug ging
ĠSh ot
cept ions
Ġarg u
Ġpract icing
Ġcontract or
class ified
Ġcontrast s
ĠHel ms
Ġrespond ing
ĠRom ance
ĠCommand o
Ġrebell ious
ĠSpe aking
ĠSi oux
Ġfram ed
ĠCrus aders
Ġfare well
Ġsou p
Ġcinemat ography
Ġdissatisf ied
Ġlith ium
Ġlobb ied
M el
Ġl amb
ĠC ris
ad der
ig ator
ĠH ick
ĠF rey
ĠN er
ĠN ablus
ĠE aton
oc ide
Ġch ocolate
ĠK ou
ĠSt amp
ĠV es
ĠV and
ok o
Ġint ake
Ġpre historic
Ġdown ward
ĠDe vi
Ġgu bernatorial
Ġpur ported
An g
Ġbul b
Ġjourney s
Ġsam pled
ĠTraff ic
Ġhes it
ĠTren ton
Ġ ×
at oga
Ġp umps
ĠC ain
ĠThe ft
ĠD yer
ĠV ita
Ġ3 20
19 73
Ġhead line
ĠEast wood
Ġdisp ro
17 0
ĠStar gate
Ġaccident al
Ġmurder er
ĠBurn ham
bu ild
ĠJoh or
Ġdrown ing
Ġfluor ide
ĠSter ling
Matt hew
Ġextrav ag
Ġinadvert ently
f ounded
j ack
s omething
er ation
is o
ĠC ody
ĠC annon
Ġst amps
ra x
Ġbl ades
Ġbr anded
Ġbr ands
Ġgu ess
Ġfinal ist
Ġcommun ism
ĠAb rams
Ġgen ome
Ġrev isions
Ġdiv iding
ĠMon mouth
ĠMon aco
uk es
ĠAg nes
Ġden ial
ĠBre zhnev
Ġsand wich
Ġign ore
ĠNic olas
opter a
grad ation
Ã¦ d
Ġstere otypes
Ġdict ator
ĠGlou cestershire
ĠUran us
Ġappar atus
D is
w ild
Ï ĥ
Ġb atch
ĠC el
ĠM og
ĠD ul
Ġun used
og ist
ren ched
Ġreg ulate
19 78
oll ah
Ġdevelopment al
Ġneg lig
ĠPaul a
ĠBo om
ĠSat an
ĠKrak Ã³w
Ġcontamin ated
at ore
Ġre used
ĠS ellers
Ġth w
Ġn em
ĠH ut
ĠH ubble
Ġst ain
ĠN E
od us
ial e
Ġar rows
Ġrec onc
ĠUn able
ĠAr lington
ĠEn emy
ĠJo a
ĠHar lem
Ġtit ular
Ġrepl en
Ġconf essed
10 1
ĠAct ivision
ĠMer cer
Ġdom ains
ĠBor g
ĠFair fax
Ġsatisf action
ĠExt ension
bra him
Ġrecip es
Ġfemin ine
Ġfisher ies
ĠAngl ia
ĠSem in
Ġsupern ova
ĠTerr ace
ĠJag d
ĠHert ford
ĠBrend an
Ġreconc ile
I F
L ight
b ear
r iver
Ġp ear
Ġp iers
Ġst upid
ĠG iles
ĠL ot
ill us
ĠSt ur
Ġsc ram
Ġover shadowed
ind ers
Ġrel ics
ĠRe ports
Ġem igr
sp ur
Ġbook let
Ġhand held
Ġless on
Ġbegin nings
Ġra ises
15 2
ĠSar aj
ãĤ ¤
ĠRoy ale
Ġcheck s
rik es
Ġpool s
Ġsimpl ified
ĠVel vet
ĠAgric ultural
ĠHM AS
Ġgraz ing
j in
k ap
n ets
Ġw ires
Ġf oli
im oto
ĠI de
ĠW iggins
ĠCh ili
Ġfe ather
Ġbel ts
ĠCo aches
off ice
ĠBo is
Ġpriv acy
ĠAtl as
ship s
Ġcert ifications
Ġwor ry
ĠConn or
ĠMik hail
Ġnurs ery
Ġlib retto
Ġbarb ettes
ĠGetty sburg
ĠTimb aland
ĠIps wich
B rian
Ġthe ological
Ġst icks
Ġmus cular
Ġdet r
ĠPr act
aff en
ilar ious
[...]
