{"<s>":0,"<pad>":1,"</s>":2,"<unk>":3,"<mask>":4,"!":5,"\"":6,"#":7,"$":8,"%":9,"&":10,"'":11,"(":12,")":13,"*":14,"+":15,",":16,"-":17,".":18,"/":19,"0":20,"1":21,"2":22,"3":23,"4":24,"5":25,"6":26,"7":27,"8":28,"9":29,":":30,";":31,"<":32,"=":33,">":34,"?":35,"@":36,"A":37,"B":38,"C":39,"D":40,"E":41,"F":42,"G":43,"H":44,"I":45,"J":46,"K":47,"L":48,"M":49,"N":50,"O":51,"P":52,"Q":53,"R":54,"S":55,"T":56,"U":57,"V":58,"W":59,"X":60,"Y":61,"Z":62,"[":63,"\\":64,"]":65,"^":66,"_":67,"`":68,"a":69,"b":70,"c":71,"d":72,"e":73,"f":74,"g":75,"h":76,"i":77,"j":78,"k":79,"l":80,"m":81,"n":82,"o":83,"p":84,"q":85,"r":86,"s":87,"t":88,"u":89,"v":90,"w":91,"x":92,"y":93,"z":94,"{":95,"|":96,"}":97,"~":98,"¡":99,"¢":100,"£":101,"¤":102,"¥":103,"¦":104,"§":105,"¨":106,"©":107,"ª":108,"«":109,"¬":110,"®":111,"¯":112,"°":113,"±":114,"²":115,"³":116,"´":117,"µ":118,"¶":119,"·":120,"¸":121,"¹":122,"º":123,"»":124,"¼":125,"½":126,"¾":127,"¿":128,"À":129,"Á":130,"Â":131,"Ã":132,"Ä":133,"Å":134,"Æ":135,"Ç":136,"È":137,"É":138,"Ê":139,"Ë":140,"Ì":141,"Í":142,"Î":143,"Ï":144,"Ð":145,"Ñ":146,"Ò":147,"Ó":148,"Ô":149,"Õ":150,"Ö":151,"×":152,"Ø":153,"Ù":154,"Ú":155,"Û":156,"Ü":157,"Ý":158,"Þ":159,"ß":160,"à":161,"á":162,"â":163,"ã":164,"ä":165,"å":166,"æ":167,"ç":168,"è":169,"é":170,"ê":171,"ë":172,"ì":173,"í":174,"î":175,"ï":176,"ð":177,"ñ":178,"ò":179,"ó":180,"ô":181,"õ":182,"ö":183,"÷":184,"ø":185,"ù":186,"ú":187,"û":188,"ü":189,"ý":190,"þ":191,"ÿ":192,"Ā":193,"ā":194,"Ă":195,"ă":196,"Ą":197,"ą":198,"Ć":199,"ć":200,"Ĉ":201,"ĉ":202,"Ċ":203,"ċ":204,"Č":205,"č":206,"Ď":207,"ď":208,"Đ":209,"đ":210,"Ē":211,"ē":212,"Ĕ":213,"ĕ":214,"Ė":215,"ė":216,"Ę":217,"ę":218,"Ě":219,"ě":220,"Ĝ":221,"ĝ":222,"Ğ":223,"ğ":224,"Ġ":225,"ġ":226,"Ģ":227,"ģ":228,"Ĥ":229,"ĥ":230,"Ħ":231,"ħ":232,"Ĩ":233,"ĩ":234,"Ī":235,"ī":236,"Ĭ":237,"ĭ":238,"Į":239,"į":240,"İ":241,"ı":242,"Ĳ":243,"ĳ":244,"Ĵ":245,"ĵ":246,"Ķ":247,"ķ":248,"ĸ":249,"Ĺ":250,"ĺ":251,"Ļ":252,"ļ":253,"Ľ":254,"ľ":255,"Ŀ":256,"ŀ":257,"Ł":258,"ł":259,"Ń":260,"Ġt":261,"he":262,"Ġa":263,"in":264,"Ġthe":265,"er":266,"on":267,"re":268,"ed":269,"Ġs":270,"Ġw":271,"Ġo":272,"nd":273,"at":274,"or":275,"en":276,"it":277,"Ġc":278,"Ġf":279,"is":280,"es":281,"ar":282,"Ġb":283,"an":284,"Ġof":285,"al":286,"Ġin":287,"ing":288,"as":289,"Ġp":290,"Ġand":291,"Ġto":292,"ic":293,"ro":294,"Ġm":295,"Ġd":296,"Ġh":297,"ion":298,"le":299,"ou":300,"Ġre":301,"il":302,"ĠT":303,"ent":304,"ĠS":305,"st":306,"Ġth":307,"ĠA":308,"el":309,"om":310,"Ġl":311,"čĊ":312,"Ġ=":313,"am":314,"ĠC":315,"Ġ1":316,"Ġe":317,"ac":318,"ad":319,"Ġn":320,"Ġwas":321,"ec":322,"ĠM":323,"Ġon":324,"ly":325,"ur":326,"et":327,"ol":328,"id":329,"ĠB":330,"im":331,"Ġg":332,"Ġfor":333,"ir":334,"ig":335,"iv":336,"ot":337,"ter":338,"ut":339,"Ġas":340,"us":341,"ow":342,"ĠThe":343,"ĠH":344,"ith":345,"ay":346,"ĠI":347,"'s":348,"Ġst":349,"ver":350,"her":351,"ation":352,"Ġwith":353,"ĠP":354,"Ġbe":355,"Ġthat":356,"ce":357,"ĠR":358,"un":359,"Ġ\"":360,"Ġ2":361,"em":362,"ch":363,"ĠD":364,"Ġwh":365,"Ġby":366,"th":367,"Ġ(":368,"ul":369,"Ġal":370,"Ġis":371,"ers":372,"Ġcon":373,"Ġat":374,"ĠW":375,"ĠF":376,"ct":377,"and":378,"os":379,"ain":380,"ĠG":381,"ĠL":382,"Ġan":383,"ĠN":384,"Ġhe":385,"ag":386,"Ġit":387,"av":388,"rom":389,"um":390,"est":391,"00":392,"Ġ19":393,"Ġhis":394,"ĠJ":395,"ri":396,"ĠE":397,"Ġr":398,"od":399,"Ġfrom":400,"ist":401,"ap":402,"Ġcom":403,"op":404,"ill":405,"Ġv":406,"ore":407,"Ġpro":408,"if":409,"up":410,"ld":411,"ew":412,"ere":413,"res":414,"ĠO":415,"igh":416,"ies":417,"art":418,"ber":419,"ard":420,"ort":421,"Ġde":422,"ak":423,"ich":424,"Ġwere":425,"ate":426,"all":427,"Ġse":428,"ab":429,"ant":430,"oc":431,"ud":432,"qu":433,"ong":434,"Ġex":435,"gh":436,"ear":437,"Ġch":438,"Ġor":439,"ess":440,"ated":441,"ity":442,"ip":443,"ive":444,"Ġpl":445,"ame":446,"Ġsh":447,"ĠK":448,"Ġâ":449,"Ġhad":450,"se":451,"ect":452,"ack":453,"our":454,"ĠIn":455,"ast":456,"ĠâĢ":457,"red":458,"ĠU":459,"Ġsu":460,"Ġwhich":461,"ment":462,"ge":463,"und":464,"ĠSt":465,"Ġk":466,"Ġare":467,"Ġle":468,"ov":469,"ian":470,"ial":471,"ell":472,"Ġnot":473,"ost":474,"ight":475,"Ġsp":476,"ord":477,"ia":478,"ust":479,"ary":480,"Ġtr":481,"ther":482,"ine":483,"pt":484,"rit":485,"oun":486,"ical":487,"ave":488,"Ġy":489,"pp":490,"cl":491,"Ġun":492,"ĠCh":493,"fter":494,"ould":495,"ff":496,"te":497,"irst":498,"Ġbut":499,"ish":500,"cc":501,"ous":502,"ions":503,"so":504,"The":505,"ra":506,"ide":507,"ure":508,"Ġcomp":509,"ub":510,"ĠV":511,"Ġwhe":512,"Ġar":513,"Ġ200":514,"Ġro":515,"ie":516,"og":517,"ign":518,"Ġcont":519,"Ġher":520,"wo":521,"orm":522,"Ġfirst":523,"ass":524,"ue":525,"Ġits":526,"Ġtheir":527,"ĠâĢĵ":528,"ok":529,"ork":530,"Ġ20":531,"out":532,"Ġint":533,"ater":534,"Ġres":535,"ond":536,"Ġcl":537,"ome":538,"age":539,"Ġalso":540,"ry":541,"Ġab":542,"Ġad":543,"ire":544,"mer":545,"hed":546,"Ġ3":547,"ĠHe":548,"pl":549,"per":550,"du":551,"Ġus":552,"ans":553,"ru":554,"low":555,"ime":556,"Ġper":557,"own":558,"Ġhave":559,"ally":560,"Ġwho":561,"ile":562,"ance":563,"ted":564,"ition":565,"ugh":566,"Ġone":567,"Ġsc":568,"Ġrec":569,"Ġtwo":570,"iz":571,"ree":572,"port":573,"ence":574,"ts":575,"uring":576,"Ġbeen":577,"ice":578,"Ġbec":579,"Ġhas":580,"Ġag":581,"ough":582,"Ġpart":583,"Ġapp":584,"ĠTh":585,"are":586,"ory":587,"ke":588,"ely":589,"Ġj":590,"ations":591,"Ġthis":592,"Ġen":593,"Ġ18":594,"Ġover":595,"Ġdis":596,"Ġser":597,"clud":598,"ember":599,"ound":600,"ach":601,"ction":602,"Ġ201":603,"land":604,"Ġafter":605,"over":606,"ace":607,"ark":608,"ric":609,"Ġdes":610,"\".":611,"act":612,"ade":613,"Ġoff":614,"ĠAl":615,"Ġplay":616,"Ġthey":617,"Ġother":618,"ib":619,"Ġte":620,"one":621,"ult":622,"Ġout":623,"ress":624,"Ġman":625,"ced":626,"ens":627,"ail":628,"Ġyear":629,"urn":630,"man":631,"Ġup":632,"Ġim":633,"ind":634,"Ġinclud":635,"ĠIt":636,"Ġwould":637,"ang":638,"we":639,"wn":640,"ep":641,"Ġinto":642,"),":643,"Ġpre":644,"ward":645,"ite":646,"ĠY":647,"Ġhim":648,"oin":649,"Ġ4":650,"ates":651,"ren":652,"end":653,"able":654,"Ġshe":655,"ĠUn":656,"Ġwe":657,"ilm":658,"ased":659,".\"":660,"ever":661,"Ġtime":662,"ited":663,"amp":664,"Ġev":665,"old":666,"Ġatt":667,"ied":668,"ase":669,"ne":670,"ors":671,"ons":672,"les":673,"rough":674,"form":675,"oy":676,"Ġcomm":677,"Ġinter":678,"ount":679,"aw":680,"ood":681,"ces":682,"Ġall":683,"Ġwork":684,"Ġmore":685,"ered":686,"ings":687,"vel":688,"ild":689,").":690,"Ġnew":691,"ick":692,"Ġbet":693,"ose":694,"vi":695,"ĠAr":696,"way":697,"inal":698,"ve":699,"Ġsec":700,"att":701,"Ġwhen":702,"Ġfilm":703,"Ġ5":704,"ents":705,"ft":706,"ake":707,"iss":708,"fer":709,"aus":710,"Ġfe":711,"round":712,"reat":713,"rib":714,"rop":715,"\",":716,"gan":717,"Ġcons":718,"ved":719,"Ġrem":720,"ason":721,"hip":722,"orth":723,"Ġduring":724,"Ġdec":725,"ubl":726,"ĠAn":727,"ĠMar":728,"under":729,"Ġagain":730,"oth":731,"ath":732,"ween":733,"ix":734,"ob":735,"ollow":736,"Ġthem":737,"Ġpr":738,"Ġear":739,"Ġonly":740,"Ġthan":741,"Ġmost":742,"Ġgame":743,"fore":744,"ational":745,"ss":746,"ug":747,"tern":748,"Ġne":749,"Ġsup":750,"Ġret":751,"Ġabout":752,"outh":753,"Ġchar":754,"Ġcan":755,"In":756,"ton":757,"Ġbetween":758,"Ġsong":759,"ĠNew":760,"ict":761,"ron":762,"ĠSe":763,"Ġunder":764,"Ġlater":765,"Ġprodu":766,"hn":767,"aid":768,"als":769,"Ġthree":770,"Ġrele":771,"Ġact":772,"orld":773,"ook":774,"Ġthrough":775,"Ġcol":776,"Ġnum":777,"Ġ199":778,"ank":779,"Ġwhile":780,"Ġkn":781,"meric":782,"Ġme":783,"Ġso":784,"lect":785,"Ġqu":786,"ters":787,"ĠEn":788,"000":789,"ock":790,"Ġcent":791,"ral":792,"Ġend":793,"Ġrel":794,"ning":795,"Ġpos":796,"ular":797,"ating":798,"Ġfl":799,"Ġsub":800,"ener":801,"ck":802,"Ġass":803,"Ġacc":804,"ĠLe":805,"Ġwhere":806,"ames":807,"ision":808,"Ġreg":809,"che":810,"Ġ6":811,"ived":812,"Ġsecond":813,"Ġver":814,"Ġpe":815,"bum":816,"Ġmade":817,"Ġbu":818,"ĠAmeric":819,"son":820,"Ġrecord":821,"Ġfollow":822,"ph":823,"ĠRe":824,"ĠCom":825,"ool":826,"Ġep":827,"ished":828,"Ġform":829,"Ġfour":830,"Ġsome":831,"Ġdef":832,"Ġbefore":833,"ained":834,"Ġgro":835,"Ġam":836,"Ġmov":837,"Ġsuch":838,"io":839,"ics":840,"Ġmus":841,"iel":842,"Ġseason":843,"Ġday":844,"ike":845,"Ġthere":846,"ode":847,"Ġ7":848,"ual":849,"Ġspec":850,"ident":851,"Ġyears":852,"Ġwrit":853,"Ġsy":854,"ll":855,"Ġac":856,"Ġteam":857,"Ġalbum":858,"..":859,"Ġ/":860,"ily":861,"owever":862,"Ġlar":863,"Ġind":864,"pr":865,"the":866,"ific":867,"Ġused":868,"ĠOn":869,"Ġinc":870,"ury":871,"Ġent":872,"orn":873,"Ġsur":874,"ĠJo":875,"Ġbeing":876,"Ġpubl":877,"ten":878,"Ġepis":879,"aj":880,"Ġcall":881,"velop":882,"Ġgr":883,"Ġthen":884,"ife":885,"Ġhigh":886,"other":887,"Ġloc":888,"Ġagainst":889,"ane":890,"air":891,"Ġexp":892,"ĠThis":893,"Ġinv":894,"Ġdo":895,"ious":896,"ĠSh":897,"Ġnumber":898,"Ġcharac":899,"Ġsever":900,"ale":901,"Ġshow":902,"ince":903,"ars":904,"Ġadd":905,"ject":906,"Ġbecame":907,"Ġpres":908,"ause":909,"Ġco":910,"Ġ8":911,"Ġset":912,"ek":913,"Ġrece":914,"ather":915,"ĠSp":916,"Ġbl":917,"Ġperform":918,"ines":919,"ĠâĢĶ":920,"Ġlead":921,"Ġsing":922,"ĠBrit":923,"ise":924,"Ġwell":925,"ĠUnited":926,"ised":927,"Ġbr":928,"Ġ10":929,"ier":930,"Ġ9":931,"Ġno":932,"Ġpol":933,"Ġfound":934,"ober":935,"Ġseries":936,"its":937,"Ġboth":938,"ik":939,"Ġincluding":940,"ement":941,"ower":942,"hen":943,"erm":944,"ired":945,"ures":946,"ley":947,"ĠAs":948,"Ġcap":949,"ert":950,"Ġback":951,"Ġship":952,"ivers":953,"Ġmon":954,"iet":955,"overn":956,"uch":957,"ram":958,"pen":959,"Ġmain":960,"led":961,"az":962,"elf":963,"olog":964,"der":965,"ven":966,"Ġdid":967,"any":968,"ities":969,"Ġrep":970,"Ġ17":971,"iver":972,"ting":973,"ful":974,"Ġcre":975,"ĠAt":976,"ann":977,"Ġdevelop":978,"ared":979,"ird":980,"Ġgo":981,"tend":982,"Ġ194":983,"ĠShe":984,"ĠEng":985,"irect":986,"ty":987,"ĠSc":988,"Ġepisode":989,"Ġsaid":990,"ĠCon":991,"ins":992,"ute":993,"ash":994,"though":995,"Ġstud":996,"Ġmat":997,"ative":998,"Ġmany":999,"Ġmet":1000,"illion":1001,"hy":1002,"Ġlong":1003,"19":1004,"Ġseveral":1005,"Ġcontin":1006,"Ġcould":1007,"Ġmin":1008,"Ġem":1009,"Ġorig":1010,"ah":1011,"ield":1012,"ouse":1013,"Ġ198":1014,"emb":1015,"anc":1016,"Ġdif":1017,"Ġcar":1018,"view":1019,"Ġinst":1020,"til":1021,"Ġdep":1022,"ually":1023,"ĠBr":1024,"Ġair":1025,"iam":1026,"Ġbro":1027,"Ġimp":1028,"ĠJohn":1029,"ross":1030,"erson":1031,"Ġpop":1032,"ued":1033,"my":1034,"ĠInd":1035,"Ġreturn":1036,"Ġbegan":1037,"ĠAust":1038,"Ġany":1039,"Ġob":1040,"ĠCl":1041,"ism":1042,"Ġ12":1043,"ĠWar":1044,"Ġwar":1045,"ople":1046,"chool":1047,"Ġdesc":1048,"oot":1049,"Ġcomple":1050,"ange":1051,"rap":1052,"aking":1053,"Ġ15":1054,"ccess":1055,"ern":1056,"Ġdesign":1057,"Ġsm":1058,"Ġsign":1059,"Ġfeat":1060,"Ġprov":1061,"Ġearly":1062,"ized":1063,"Ġtrans":1064,"eb":1065,"fl":1066,"ided":1067,"Ġknown":1068,"Ġmusic":1069,"Ġuntil":1070,"Ġest":1071,"ĠFr":1072,"Ġart":1073,"ĠAmerican":1074,"imes":1075,"une":1076,"Ġnear":1077,"ists":1078,"ey":1079,"stem":1080,"ĠAfter":1081,"ured":1082,"Ġdist":1083,"Ġeff":1084,"xt":1085,"Ġresp":1086,"ially":1087,"Ġbel":1088,"Ġreleased":1089,"ution":1090,"Ġpass":1091,"Ġown":1092,"Ġ196":1093,"Ġ197":1094,"Ġfin":1095,"ments":1096,"Ġrun":1097,"sh":1098,"osed":1099,"Ġcrit":1100,"ĠZ":1101,"sp":1102,"Ġcalled":1103,"ium":1104,"vent":1105,"ax":1106,"ĠCol":1107,"erman":1108,"ĠMay":1109,"enn":1110,"Ġmillion":1111,"Ġdown":1112,"ĠWh":1113,"Ġdirect":1114,"Ġalong":1115,"ĠBl":1116,"ull":1117,"Ġgroup":1118,"Ġoffic":1119,"ajor":1120,"Ġ16":1121,"cept":1122,"Ġthese":1123,"ĠBritish":1124,"Ġfam":1125,"ger":1126,"Ġmay":1127,"ains":1128,"Ġdisc":1129,"Ġmil":1130,"ris":1131,"Ġgener":1132,"erv":1133,"gest":1134,"Ġopen":1135,"ĠDe":1136,"Ã©":1137,"Ġmod":1138,"Ġhist":1139,"Ġland":1140,"ptember":1141,"Ġsuccess":1142,"ĠUS":1143,"ugust":1144,"ets":1145,"ink":1146,"ible":1147,"Ġgovern":1148,"ĠStates":1149,"Ġsim":1150,"Ġsame":1151,"wards":1152,"ĠSeptember":1153,"Ġ$":1154,"aced":1155,"amed":1156,"ĠAugust":1157,"Ġdescrib":1158,"Ġpeople":1159,"Ġuse":1160,"Ġcount":1161,"aining":1162,"ĠWorld":1163,"Ġcharacter":1164,"Ġpoin":1165,"Ġgu":1166,"Ġbecause":1167,"Ġattack":1168,"ner":1169,"Ġstr":1170,"Ġoper":1171,"aving":1172,"Ġ11":1173,"Ġkm":1174,"ues":1175,"uc":1176,"Ġserv":1177,"Ġstart":1178,"els":1179,"Ġaround":1180,"ĠAd":1181,"ruct":1182,"Ġtook":1183,"ped":1184,"ĠJu":1185,"Ġconst":1186,"Ġthough":1187,"ove":1188,"Ġbatt":1189,"Ġvi":1190,"Ġfollowing":1191,"Ġocc":1192,"Ġsupport":1193,"ĠOct":1194,"ĠAustral":1195,"uss":1196,"Ġsystem":1197,"Ġappear":1198,"ret":1199,"ĠNov":1200,"yp":1201,"ives":1202,"ene":1203,"Ġed":1204,"ants":1205,"Ġreceived":1206,"ility":1207,"Ġwin":1208,"Ġconsid":1209,"ĠIs":1210,"ex":1211,"ically":1212,"ĠGerman":1213,"ĠPl":1214,"Ġprom":1215,"Ġsix":1216,"ĠOctober":1217,"Ġann":1218,"Ġele":1219,"Ġnorth":1220,"ĠHowever":1221,"Ġdr":1222,"anu":1223,"ĠBe":1224,"oss":1225,"Ġeach":1226,"ĠCar":1227,"ĠTr":1228,"get":1229,"uth":1230,"ox":1231,"ina":1232,"Ġbuild":1233,"med":1234,"ately":1235,"Ġ195":1236,"Ġstate":1237,"ĠDec":1238,"ĠYork":1239,"Ġvar":1240,"ĠQ":1241,"Ġarea":1242,"ĠAll":1243,"iving":1244,"Ġhead":1245,"Ġ'":1246,"Ġ193":1247,"Ġreport":1248,"Ġsmall":1249,"tle":1250,"Ġext":1251,"ĠPro":1252,"ling":1253,"ored":1254,"Ġever":1255,"Ġwill":1256,"ording":1257,"Ġ13":1258,"ians":1259,"Ġpartic":1260,"gin":1261,"ĠFor":1262,"Ġfinal":1263,"Ġconc":1264,"ĠNorth":1265,"Ġcity":1266,"ĠJune":1267,"ission":1268,"ection":1269,"Ġmar":1270,"Ġmajor":1271,"ĠThey":1272,"Ġpublic":1273,"Ġfive":1274,"urch":1275,"Ġband":1276,"esp":1277,"by":1278,"ĠJuly":1279,"ient":1280,"raft":1281,"Ġrest":1282,"Ġlife":1283,"por":1284,"ĠNovember":1285,"Ġref":1286,"oard":1287,"pril":1288,"ĠKing":1289,"Ġsingle":1290,"ried":1291,"lish":1292,"omet":1293,"Ġsince":1294,"Ġ14":1295,"Ġmed":1296,"Ġworld":1297,"inc":1298,"Ġcontro":1299,"ected":1300,"Ġweek":1301,"ural":1302,"ional":1303,"aim":1304,"Ġlike":1305,"ĠComm":1306,"ĠApril":1307,"ively":1308,"Ġdet":1309,"ont":1310,"ilt":1311,"ĠMarch":1312,"Ġ0":1313,"side":1314,"Ġlast":1315,"Ġallow":1316,"vious":1317,"Ġhel":1318,"idge":1319,"ĠHar":1320,"ague":1321,"Ġjust":1322,"Ġarr":1323,"Ġturn":1324,"rist":1325,"ales":1326,"ĠWill":1327,"eng":1328,"row":1329,"empt":1330,"Ġpo":1331,"ats":1332,"Ġdiffer":1333,"ified":1334,"ble":1335,"Ġleft":1336,"Ġlarge":1337,"Ġcare":1338,"Ġadv":1339,"ĠMc":1340,"ĠPr":1341,"avy":1342,"ches":1343,"Ġvers":1344,"ĠGr":1345,"ined":1346,"rote":1347,"Ġbook":1348,"Ġincre":1349,"ĠEd":1350,"ple":1351,"Ġ191":1352,"ĠCan":1353,"aged":1354,"Ġdue":1355,"ĠSouth":1356,"anuary":1357,"Ġevent":1358,"Ġschool":1359,"Ġincluded":1360,"ball":1361,"ĠDecember":1362,"ograp":1363,"Ġline":1364,"Ġmuch":1365,"Ġsouth":1366,"Ġanother":1367,"ony":1368,"Ġappro":1369,"Ġplayed":1370,"ĠJanuary":1371,"ĠBro":1372,"ĠGe":1373,"ney":1374,"Ġwhat":1375,"apan":1376,"Ġcentury":1377,"ages":1378,"Ġsl":1379,"alf":1380,"Ġshort":1381,"ently":1382,"Ġexpl":1383,"ĠOr":1384,"Ġif":1385,"Ġname":1386,"Ġgovernment":1387,"Ġph":1388,"ience":1389,"Ġdeath":1390,"Ġ[":1391,"Ġcamp":1392,"Ġport":1393,"Ġwrote":1394,"Ġwon":1395,"Ġthird":1396,"oad":1397,"ĠEu":1398,"ideo":1399,"ĠII":1400,"ody":1401,"Ġchild":1402,"ĠPh":1403,"Ġplace":1404,"Ġmonth":1405,"Ġtit":1406,"20":1407,"hes":1408,"ital":1409,"Ġprog":1410,"Ġprot":1411,"Ġclass":1412,"ott":1413,"Ġkill":1414,"Ġreview":1415,"cy":1416,"Ġeng":1417,"Ġtrack":1418,"oman":1419,"Ġhome":1420,"Ġpower":1421,"Ġvis":1422,"ĠBy":1423,"Ġrequ":1424,"Ġdescribed":1425,"Ġprevious":1426,"ean":1427,"ĠJapan":1428,"Ġbre":1429,"Ġfamily":1430,"Ġelect":1431,"Ġcour":1432,"Ġperson":1433,"aff":1434,"urther":1435,"iod":1436,"Ġlit":1437,"iven":1438,"ilar":1439,"Ġled":1440,"Ġstory":1441,"embers":1442,"ged":1443,"reen":1444,"Ġnamed":1445,"ister":1446,"ĠMan":1447,"ster":1448,"Ġmen":1449,"omin":1450,"iversity":1451,"ness":1452,"Ġattempt":1453,"ays":1454,"itions":1455,"Ġmake":1456,"Ġ30":1457,"ps":1458,"Ġdem":1459,"ivision":1460,"ior":1461,"rench":1462,"Ġeven":1463,"ached":1464,"Ġright":1465,"Ġopp":1466,"Ġrepl":1467,"ival":1468,"Ġgames":1469,"'t":1470,"Ġleg":1471,"mp":1472,"ĠMus":1473,"eter":1474,"ebru":1475,"self":1476,"Ġbelie":1477,"Ġdam":1478,"ĠGu":1479,"ebruary":1480,"Ġcommand":1481,"Ġthose":1482,"ĠÂ":1483,"Ġposs":1484,"ances":1485,"riend":1486,"Ġnext":1487,"rodu":1488,"Ġspecies":1489,"line":1490,"ature":1491,"Ġgun":1492,"aken":1493,"Ġstill":1494,"oci":1495,"ĠFebruary":1496,"ched":1497,"ences":1498,"Ġiss":1499,"Ġpar":1500,"au":1501,"ead":1502,"Ġoriginal":1503,"...":1504,"Ġorgan":1505,"ĠEurop":1506,"Ġeffect":1507,"Ġaddition":1508,"Ġbest":1509,"Ġjoin":1510,"alk":1511,"ĠNational":1512,"Ġtop":1513,"ĠFl":1514,"Ġcapt":1515,"br":1516,"Ġwithin":1517,"rew":1518,"Ġmembers":1519,"Ġperiod":1520,"Ġdeb":1521,"Ġwater":1522,"augh":1523,"Ġlist":1524,"to":1525,"Ġexper":1526,"Ġview":1527,"af":1528,"uted":1529,"Ġlate":1530,"tended":1531,"sc":1532,"na":1533,"Ġsold":1534,"Ġvery":1535,"Ġmark":1536,"ĠHis":1537,"ech":1538,"Ġheld":1539,"Ġdest":1540,"yl":1541,"Ġcaus":1542,"ropical":1543,"ides":1544,"Ġstorm":1545,"ĠAnd":1546,"Ġmatch":1547,"Ġrole":1548,"Ġnow":1549,"ĠFrench":1550,"Ġvideo":1551,"ĠChrist":1552,"lev":1553,"Ġinfl":1554,"Ġconf":1555,"Ġrelease":1556,"Ġinit":1557,"Ġalthough":1558,"Ġdays":1559,"Ġformer":1560,"Ġresult":1561,"Ġcame":1562,"Ġcur":1563,"Ġbuilt":1564,"oon":1565,"ulation":1566,"Ġterm":1567,"Ġhand":1568,"ption":1569,"omb":1570,"ĠPar":1571,"Ġcover":1572,"ĠBar":1573,"Ġtri":1574,"let":1575,"ham":1576,"Ġhowever":1577,"Ġmid":1578,"aster":1579,"itary":1580,"min":1581,"Ġspe":1582,"app":1583,"On":1584,"Ġpresent":1585,"Ġ25":1586,"atic":1587,"Ġpolit":1588,"Ġgreat":1589,"Ġ2010":1590,"ense":1591,"Ġfew":1592,"akes":1593,"Ġwind":1594,"Ġreal":1595,"Ġcr":1596,"arm":1597,"Ġtown":1598,"Ġestab":1599,"Ġcontinued":1600,"ĠWest":1601,"elt":1602,"Ġprop":1603,"Ġmy":1604,"gy":1605,"ator":1606,"cent":1607,"read":1608,"ĠWilliam":1609,"tal":1610,"ruction":1611,"Ġlocal":1612,"par":1613,"ĠMin":1614,"Ġstand":1615,"Ġold":1616,"Ġpost":1617,"Ġtw":1618,"estern":1619,"Ġoften":1620,"omen":1621,"Ġbased":1622,"Ġsimilar":1623,"ĠX":1624,"Ġamong":1625,"Ġclaim":1626,"ung":1627,"Ġyou":1628,"Ġ&":1629,"reet":1630,"Ġav":1631,"me":1632,"ops":1633,"uck":1634,"ese":1635,"Ġsk":1636,"ology":1637,"ves":1638,"Ġsug":1639,"ĠEngland":1640,"con":1641,"Ġdifferent":1642,"ract":1643,"ĠAir":1644,"Ġfurther":1645,"urs":1646,"Ġsent":1647,"Ġway":1648,"ĠGeor":1649,"Ġ192":1650,"ison":1651,"Ġhum":1652,"ĠWhen":1653,"Ġbeh":1654,"ĠDuring":1655,"ards":1656,"Ġconsidered":1657,"Ġ2008":1658,"Ġ2009":1659,"Ġcareer":1660,"ĠAm":1661,"Ġtake":1662,"Ġdel":1663,"ices":1664,"gr":1665,"ler":1666,"ampions":1667,"Ġfre":1668,"Ġside":1669,"ying":1670,"Ġ2011":1671,"ots":1672,"uthor":1673,"Ġequ":1674,"Ġhaving":1675,"ĠEar":1676,"ĠHer":1677,"Ġmoved":1678,"ĠPark":1679,"resent":1680,"esc":1681,"ĠChar":1682,"ĠCity":1683,"Ġroad":1684,"vers":1685,"ĠMich":1686,"ering":1687,"ront":1688,"Ġbecome":1689,"less":1690,"Ġposition":1691,"Ġappe":1692,"ford":1693,"ondon":1694,"Ġhistory":1695,"Ġversion":1696,"ones":1697,"com":1698,"Ġmag":1699,"Ġplan":1700,"ĠRec":1701,"ize":1702,"ald":1703,"Ġcor":1704,"Ġwithout":1705,"yle":1706,"Ġcast":1707,"ĠCent":1708,"atter":1709,"aul":1710,"ĠEnglish":1711,"Ġevery":1712,"ĠCount":1713,"ai":1714,"ned":1715,"Ġsuggest":1716,"ĠCo":1717,"Ġinvol":1718,"Ġclub":1719,"ef":1720,"aying":1721,"Ġel":1722,"Ġfore":1723,"rest":1724,"ery":1725,"ĠLondon":1726,"Ġproduction":1727,"Ġtyp":1728,"Ġ2007":1729,"Ġinflu":1730,"utes":1731,"Ġarm":1732,"Ġannoun":1733,"ĠBatt":1734,"ape":1735,"ĠEl":1736,"iqu":1737,"Ġcommun":1738,"sequ":1739,"Ġhouse":1740,"ĠDav":1741,"ĠAng":1742,"craft":1743,"iety":1744,"Ġstat":1745,"iment":1746,"Ġsound":1747,"Ġplayer":1748,"Ġbas":1749,"ington":1750,"Ġlaw":1751,"Ġhalf":1752,"Ġ21":1753,"ĠRiver":1754,"ille":1755,"Ġ2012":1756,"day":1757,"Ġstrong":1758,"Ġgiven":1759,"rent":1760,"Ġrefer":1761,"Ġless":1762,"anted":1763,"Ġant":1764,"oll":1765,"Ġgave":1766,"Ġeast":1767,"ĠUniversity":1768,"cess":1769,"ailed":1770,"ories":1771,"aly":1772,"Ġdefe":1773,"Ġtro":1774,"atch":1775,"Ġreturned":1776,"Ġorder":1777,"ĠNo":1778,"Ġaff":1779,"Ġrad":1780,"isc":1781,"roy":1782,"Ġimport":1783,"ae":1784,"Ġ100":1785,"ĠThere":1786,"yn":1787,"Ġtrad":1788,"ĠCanad":1789,"Ġwritten":1790,"Ġvict":1791,"Ġlow":1792,"ĠWe":1793,"ĠCal":1794,"ges":1795,"aun":1796,"ention":1797,"Ġchang":1798,"Ġfact":1799,"ours":1800,"Ġwest":1801,"Ġcompany":1802,"Ġtotal":1803,"Ġ24":1804,"off":1805,"Ġwent":1806,"Ġsoc":1807,"Ġcomb":1808,"Ġnever":1809,"ably":1810,"levision":1811,"Ġtem":1812,"Ġreported":1813,"used":1814,"aign":1815,"Ġhig":1816,"Ġstated":1817,"Ġke":1818,"Ġpublished":1819,"Ġfire":1820,"err":1821,"Ġ190":1822,"Ġprogram":1823,"Ġcountry":1824,"Ġfind":1825,"echn":1826,"Ġcontrol":1827,"Ġyoun":1828,"ĠHigh":1829,"Ġinclude":1830,"urric":1831,"Ġorigin":1832,"ccording":1833,"Ġlost":1834,"Ġfriend":1835,"Ġlevel":1836,"ief":1837,"Ġcommon":1838,"Ġgood":1839,"ring":1840,"aren":1841,"Ġcompet":1842,"Ġforces":1843,"Ġpat":1844,"50":1845,"Ġpoint":1846,"ument":1847,"raw":1848,"Ġproject":1849,"Ġparticular":1850,"Ġprof":1851,"tain":1852,"Ġships":1853,"ush":1854,"Ġlight":1855,"irc":1856,"most":1857,"iness":1858,"Ġneed":1859,"Ġbuilding":1860,"ploy":1861,"work":1862,"mit":1863,"Ġusing":1864,"osp":1865,"Ġperformance":1866,"eneral":1867,"Ġproduced":1868,"Ġord":1869,"ĠOne":1870,"10":1871,"Ġpopular":1872,"lear":1873,"oyal":1874,"Ġide":1875,"Ġrecorded":1876,"Ġtimes":1877,"Ġhimself":1878,"Ġshould":1879,"Ġservice":1880,"Ġinterest":1881,"ampionship":1882,"ising":1883,"Ġpress":1884,"Ġmilitary":1885,"Ġauthor":1886,"outher":1887,"Ġfather":1888,"Ġsongs":1889,"Ġbattle":1890,"ords":1891,"rick":1892,"Ġsit":1893,"ensive":1894,"Ġanim":1895,"Ġcritic":1896,"ĠEx":1897,"Ġbus":1898,"Ġnort":1899,"alth":1900,"Ġ2006":1901,"Ġdevelopment":1902,"quad":1903,"itive":1904,"ases":1905,"Ġlim":1906,"ĠAustralia":1907,"olution":1908,"eder":1909,"play":1910,"ĠAb":1911,"Ġten":1912,"Ġeight":1913,"ĠSw":1914,"outhern":1915,"Ġfr":1916,"ither":1917,"ĠAss":1918,"cer":1919,"Ġread":1920,"Ġhow":1921,"Ġinf":1922,"Ġche":1923,"ublic":1924,"eth":1925,"acy":1926,"Ġ22":1927,"Ġfun":1928,"Ġft":1929,"astern":1930,"ĠAf":1931,"Ġremained":1932,"ĠSec":1933,"Ġcross":1934,"ĠThese":1935,"ries":1936,"Ġmaking":1937,"ĠPol":1938,"ĠCor":1939,"Ġsw":1940,"Ġfoot":1941,"Ġcharacters":1942,"dom":1943,"ĠSm":1944,"Ġrepresent":1945,"aur":1946,"Ġmonths":1947,"ĠArmy":1948,"200":1949,"Ġ2013":1950,"Ġground":1951,"of":1952,"ream":1953,"reg":1954,"ĠTe":1955,"Ġgl":1956,"fic":1957,"Ġ23":1958,"ĠState":1959,"ks":1960,"urricane":1961,"Ġcampaign":1962,"isted":1963,"ĠJack":1964,"Ġtitle":1965,"ĠSy":1966,"Ġnational":1967,"ration":1968,"lands":1969,"Ġste":1970,"ency":1971,"Ġsuff":1972,"Ġget":1973,"Ġchildren":1974,"Ġsum":1975,"Ġchart":1976,"bs":1977,"ael":1978,"ĠNe":1979,"Ġdied":1980,"Ġgen":1981,"Ġtour":1982,"Ġsomet":1983,"Ġins":1984,"Ġacross":1985,"ression":1986,"hern":1987,"Ġintrodu":1988,"ole":1989,"Ġsignific":1990,"Ġrelations":1991,"Ġpromot":1992,"Ġdeveloped":1993,"Ġaway":1994,"lege":1995,"Ġpra":1996,"ĠPres":1997,"ĠLeague":1998,"alt":1999,"ĠDr":2000,"Ġson":2001,"ĠComp":2002,"ĠDivision":2003,"ĠAlthough":2004,"Ġaircraft":2005,"Ġnoted":2006,"ĠJames":2007,"Ġofficial":2008,"Ġhistor":2009,"Ġannounced":2010,"Ġfelt":2011,"Ġreached":2012,"Ġfav":2013,"ĠGl":2014,"Ġ189":2015,"Ġareas":2016,"Ġintern":2017,"Ġfield":2018,"ressed":2019,"field":2020,"Ġdestroy":2021,"ĠCounty":2022,"Ġforce":2023,"ĠMe":2024,"Ġtelevision":2025,"Ġfac":2026,"imately":2027,"Ġstation":2028,"cast":2029,"Ġsuccessful":2030,"Ġcoun":2031,"ĠâĢĻ":2032,"Ġcreated":2033,"Ġvarious":2034,"ĠAmerica":2035,"Ġnight":2036,"Ġred":2037,"Ġfollowed":2038,"iber":2039,"ĠRoad":2040,"iting":2041,"Ġseen":2042,"ĠStreet":2043,"ization":2044,"ope":2045,"ality":2046,"Ġperformed":2047,"Ġserved":2048,"Ġplayers":2049,"elling":2050,"ĠReg":2051,"ĠWith":2052,"Ġval":2053,"abor":2054,"ĠGeneral":2055,"wh":2056,"Ġtrav":2057,"lin":2058,"Ġpolitical":2059,"ĠRep":2060,"Ġbegin":2061,"ana":2062,"Ġcond":2063,"Ġearl":2064,"Ġaver":2065,"Ġfle":2066,"idence":2067,"head":2068,"duct":2069,"bor":2070,"ĠMor":2071,"Ġstar":2072,"St":2073,"Ġconv":2074,"Ġbo":2075,"here":2076,"Ġbar":2077,"18":2078,"Ġprim":2079,"ĠRuss":2080,"rict":2081,"lished":2082,"Ġprocess":2083,"Ġkilled":2084,"Ġaud":2085,"Ġput":2086,"Ġthroughout":2087,"Ġcost":2088,"Ġfull":2089,"Ġrev":2090,"ett":2091,"Ġrock":2092,"Ġdiv":2093,"epend":2094,"Ġtaken":2095,"Ġable":2096,"ĠWhile":2097,"ĠJapanese":2098,"Ġtest":2099,"ecut":2100,"ertain":2101,"Ġ27":2102,"Ġhelp":2103,"Ġcult":2104,"Ġagre":2105,"ĠSup":2106,"ĠMon":2107,"urg":2108,"ray":2109,"ground":2110,"ĠEast":2111,"umb":2112,"lected":2113,"ways":2114,"Ġbecom":2115,"Ġtropical":2116,"Ġdiscover":2117,"Ġmeet":2118,"Ġtoo":2119,"irl":2120,"Ġnon":2121,"Ġ28":2122,"oice":2123,"ĠSim":2124,"Ġlet":2125,"Ġsol":2126,"hel":2127,"Ġwid":2128,"Ġsignificant":2129,"ĠAccording":2130,"ĠMad":2131,"enced":2132,"Ġblack":2133,"ĠSte":2134,"Ġcy":2135,"aval":2136,"ination":2137,"cil":2138,"Ġcop":2139,"Ġfight":2140,"Ġappeared":2141,"Ġ2014":2142,"ĠPhil":2143,"for":2144,"Ġstruct":2145,"ius":2146,"Ġentire":2147,"Ġmiles":2148,"Ġmm":2149,"Ġthought":2150,"ĠHen":2151,"Ġtechn":2152,"Ġident":2153,"hing":2154,"ĠGeorge":2155,"Ġpoints":2156,"odes":2157,"ought":2158,"Ġlittle":2159,"Ġcoast":2160,"Ġbroad":2161,"ask":2162,"uk":2163,"Ġfront":2164,"urb":2165,"Ġaward":2166,"idd":2167,"Ġage":2168,"ript":2169,"Ġobs":2170,"Ġroute":2171,"ĠRober":2172,"Ġvol":2173,"Ġspecial":2174,"Ġcoll":2175,"ms":2176,"Ġwriting":2177,"Ġ2005":2178,"Ġdecl":2179,"Ġfem":2180,"ivil":2181,"Ġrank":2182,"iers":2183,"men":2184,"Ġbody":2185,"now":2186,"tr":2187,"ĠSer":2188,"Ġimpro":2189,"Ġactiv":2190,"ĠBill":2191,"ĠAustralian":2192,"Ġwomen":2193,"Ġdecided":2194,"omp":2195,"Ġcaused":2196,"Ġfeatures":2197,"aves":2198,"ators":2199,"Ġstarted":2200,"Ġ26":2201,"Ġlook":2202,"iron":2203,"iec":2204,"Ġseven":2205,"board":2206,"hys":2207,"Ġ50":2208,"Ġdoes":2209,"Ġeventually":2210,"Ġ40":2211,"ogn":2212,"ĠAct":2213,"hic":2214,"Ġestablished":2215,"itar":2216,"int":2217,"ĠAfric":2218,"Ġfeet":2219,"ivid":2220,"Ġer":2221,"conom":2222,"lection":2223,"Ġvot":2224,"Ġmember":2225,"ample":2226,"ament":2227,"ĠSch":2228,"Ġtoget":2229,"Ġtogether":2230,"reek":2231,"Ġadded":2232,"Ġhit":2233,"Ġarch":2234,"Th":2235,"igned":2236,"Ġpain":2237,"ades":2238,"Ġgeneral":2239,"ara":2240,"rought":2241,"Ġnov":2242,"ĠMed":2243,"aces":2244,"emy":2245,"Ġonce":2246,"Ġlocated":2247,"ĠHouse":2248,"Ġinstead":2249,"Ġarg":2250,"ĠRoyal":2251,"Ġconn":2252,"orts":2253,"Ġmanag":2254,"Ġhold":2255,"ects":2256,"Ġformed":2257,"Ġtre":2258,"amb":2259,"Ġenc":2260,"ĠRich":2261,"Ġcrew":2262,"Ġrace":2263,"cing":2264,"Ġsaw":2265,"ĠPart":2266,"arch":2267,"oney":2268,"Ġgrow":2269,"Ġimportant":2270,"Ġcirc":2271,"Ġcompleted":2272,"Ġpri":2273,"ells":2274,"ee":2275,"ĠPer":2276,"Ġstri":2277,"ata":2278,"Ġrange":2279,"Ġmix":2280,"Ġesc":2281,"Ġredu":2282,"Ġsee":2283,"Ġball":2284,"wood":2285,"Ġpopulation":2286,"Ġinvest":2287,"Ġcut":2288,"Ġmater":2289,"stit":2290,",\"":2291,"Ġask":2292,"Ġsurv":2293,"Ġothers":2294,"asing":2295,"ceed":2296,"ĠIntern":2297,"ĠDavid":2298,"Ġoccur":2299,"ĠHist":2300,"aps":2301,"ements":2302,"west":2303,"ĠQu":2304,"Ġvoc":2305,"ĠEm":2306,"Ġcomment":2307,"Ġmodern":2308,"medi":2309,"Ġstyle":2310,"go":2311,"30":2312,"nder":2313,"gg":2314,"Ġmot":2315,"ficult":2316,"Ġbehind":2317,"bert":2318,"Ġguns":2319,"ĠPe":2320,"Ġworks":2321,"ĠIndian":2322,"Ġfall":2323,"Ġopened":2324,"Ã¡":2325,"Ġbase":2326,"anch":2327,"unk":2328,"Ġworked":2329,"Ġren":2330,"Ġsubsequ":2331,"Ġlik":2332,"Ġlive":2333,"Ġrather":2334,"Ġproble":2335,"Ġloss":2336,"Ġsite":2337,"ĠSan":2338,"istic":2339,"Ġweeks":2340,"Ġrelationship":2341,"oint":2342,"Ġconstruction":2343,"Ġdifficult":2344,"sk":2345,"Ġpred":2346,"60":2347,"Ġclose":2348,"Ġ188":2349,"Ġaction":2350,"ĠSchool":2351,"ĠFrance":2352,"osition":2353,"Ġknow":2354,"Ġmiss":2355,"Ġbomb":2356,"Ġdamage":2357,"Ġstage":2358,"hest":2359,"After":2360,"ica":2361,"year":2362,"ened":2363,"Ġbrother":2364,"ills":2365,"Ġlack":2366,"Ġfif":2367,"omm":2368,"Ġpract":2369,"Ġsepar":2370,"Ġvill":2371,"Ġpeak":2372,"ĠBlack":2373,"Ġassoci":2374,"Ġinj":2375,"Ġupon":2376,"Ġyoung":2377,"Ġra":2378,"Ġinsp":2379,"Ġhost":2380,"ĠEurope":2381,"Ġoriginally":2382,"ĠWash":2383,"Ġprovided":2384,"Ġreve":2385,"Ġinform":2386,"Ġscored":2387,"Ġheavy":2388,"ellow":2389,"Ġmi":2390,"Ġleading":2391,"angu":2392,"ming":2393,"ological":2394,"Ġmer":2395,"Ġclos":2396,"Ġ2015":2397,"Ġaccept":2398,"Ġcase":2399,"oid":2400,"Ġreb":2401,"Ġscene":2402,"ula":2403,"Ġwhite":2404,"ule":2405,"ĠNor":2406,"Ġfeatured":2407,"ama":2408,"Ġindivid":2409,"Ġbrought":2410,"uff":2411,"Ġresul":2412,"Ġfourth":2413,"Ġallowed":2414,"ĠBattle":2415,"Ġround":2416,"Ġmor":2417,"Ġleast":2418,"Ġtowards":2419,"Ġ29":2420,"ĠPort":2421,"Ġparty":2422,"Ġgoal":2423,"Ġregion":2424,"Ġengine":2425,"azine":2426,"be":2427,"antic":2428,"Ġmother":2429,"ino":2430,"oor":2431,"Ġplaying":2432,"Ġtroops":2433,"Ġalmost":2434,"Ġmult":2435,"Ġbusiness":2436,"Ġwanted":2437,"espite":2438,"Ġcritics":2439,"Ġlaun":2440,"ĠHenry":2441,"Ġ2004":2442,"Ġavail":2443,"earch":2444,"rey":2445,"ĠMusic":2446,"ĠMichael":2447,"Ġexample":2448,"ĠCour":2449,"Ġworking":2450,"Ġindust":2451,"str":2452,"Ġquick":2453,"ĠVir":2454,"Ġruns":2455,"co":2456,"Ġeither":2457,"Ġmaterial":2458,"ude":2459,"Ġking":2460,"aut":2461,"Ġhuman":2462,"Ġrespect":2463,"Ġaverage":2464,"ential":2465,"Ġtradition":2466,"itch":2467,"lex":2468,"Ġarmy":2469,"val":2470,"Ġreach":2471,"Ġrecogn":2472,"ĠWashington":2473,"ĠRou":2474,"Ġplaced":2475,"Ġestim":2476,"Ġve":2477,"Ġhon":2478,"ength":2479,"leg":2480,"Ġeconom":2481,"ĠTo":2482,"quadron":2483,"ĠPresident":2484,"enes":2485,"Ġcreat":2486,"ourn":2487,"ollowing":2488,"ĠOther":2489,"Ġjoined":2490,"Ġfar":2491,"Ġoffice":2492,"ving":2493,"key":2494,"ĠQue":2495,"like":2496,"Ġprofess":2497,"Ġrail":2498,"Ġfoc":2499,"Ġwife":2500,"Ġneg":2501,"ze":2502,"Ġsour":2503,"Ġce":2504,"Ġproper":2505,"Ġevents":2506,"ĠGro":2507,"chie":2508,"ĠRed":2509,"Ġbelieved":2510,"ĠCup":2511,"ville":2512,"Ġparticip":2513,"ĠMil":2514,"fall":2515,"inn":2516,"artment":2517,"Ġreplaced":2518,"iction":2519,"Ġcurrent":2520,"Ġmph":2521,"Ġvictory":2522,"arn":2523,"Ġmass":2524,"Ġgenerally":2525,"ĠCap":2526,"Ġfig":2527,"Ġsoon":2528,"ĠHall":2529,"uel":2530,"ĠMy":2531,"rison":2532,"ĠAg":2533,"erous":2534,"ification":2535,"itor":2536,"ĠHol":2537,"ĠBel":2538,"ĠRobert":2539,"Ġter":2540,"aled":2541,"Ġ187":2542,"ĠPaul":2543,"12":2544,"Ġisland":2545,"merc":2546,"Ġinvolved":2547,"Ġdev":2548,"BC":2549,"Ġnomin":2550,"Ġhours":2551,"ĠGame":2552,"ago":2553,"ĠAngel":2554,"asion":2555,"ander":2556,"Ġemploy":2557,"omas":2558,"ĠChampionship":2559,"ĠHam":2560,"Ġfinished":2561,"aper":2562,"Ġrul":2563,"Ġ2000":2564,"emor":2565,"Ġfree":2566,"Ġdou":2567,"face":2568,"ĠÃ":2569,"ĠCro":2570,"Ġsaying":2571,"Ġstru":2572,"ico":2573,"Ġdesigned":2574,"oms":2575,"15":2576,"icated":2577,"rem":2578,"Ġfund":2579,"cher":2580,"oul":2581,"ĠMary":2582,"Ġscore":2583,"Ġregular":2584,"ecutive":2585,"ĠYou":2586,"ishing":2587,"Ġhighway":2588,"Ġpossible":2589,"Ġcontrib":2590,"Ġminutes":2591,"ights":2592,"Ġcourt":2593,"Ġconduct":2594,"ĠBo":2595,"Ġaut":2596,"Ġopening":2597,"Ġsouthern":2598,"Ġearlier":2599,"antry":2600,"anned":2601,"ĠEuropean":2602,"Ġz":2603,"itte":2604,"Ġavailable":2605,"Ġly":2606,"Ġremov":2607,"ply":2608,"Ġinitially":2609,"Ġsex":2610,"ĠGreat":2611,"Ġdesp":2612,"hib":2613,"Ġdirector":2614,"Ġshot":2615,"ĠFirst":2616,"de":2617,"Ġthreat":2618,"Ġhom":2619,"Ġdro":2620,"Ġpercent":2621,"rian":2622,"asy":2623,"anding":2624,"Ġpresident":2625,"Ġbreak":2626,"ĠLou":2627,"iding":2628,"ography":2629,"ipp":2630,"Ġtraining":2631,"alled":2632,"Ġill":2633,"Ġforced":2634,"back":2635,"ĠÂ°":2636,"orse":2637,"iff":2638,"anish":2639,"ateg":2640,"ĠNavy":2641,"Ġpark":2642,"Ġsequ":2643,"Ġgrad":2644,"40":2645,"uture":2646,"ios":2647,"As":2648,"Ġcontr":2649,"oph":2650,"ĠRoute":2651,"ĠKingdom":2652,"Ġrespons":2653,"iforn":2654,"ĠPlay":2655,"Ġmust":2656,"ems":2657,"ĠRoman":2658,"mon":2659,"Ġhy":2660,"ĠRepublic":2661,"atural":2662,"ended":2663,"Ġpraised":2664,"ĠVal":2665,"Ġ186":2666,"apt":2667,"den":2668,"Ġstudio":2669,"Ġpassed":2670,"heast":2671,"Ġincreased":2672,"Ġ2003":2673,"ĠMet":2674,"Ġchange":2675,"Ġhurricane":2676,"Ġended":2677,"Ġparticularly":2678,"Ġobject":2679,"ĠMal":2680,"ĠMac":2681,"Ġnorthern":2682,"Ġturned":2683,"ĠMart":2684,"ĠDep":2685,"ointed":2686,"ĠBer":2687,"anks":2688,"aker":2689,"Ġpriv":2690,"ership":2691,"ocr":2692,"ĠInternational":2693,"Ġ31":2694,"Ġsocial":2695,"ĠScott":2696,"Ġappearance":2697,"Ġregard":2698,"Ġlargest":2699,"ids":2700,"Ġphys":2701,"Ġunits":2702,"Ġnovel":2703,"ĠAtl":2704,"ĠKe":2705,"ĠBest":2706,"ĠChurch":2707,"ĠWil":2708,"Ġhard":2709,"pped":2710,"ference":2711,"aughter":2712,"Ġchurch":2713,"uter":2714,"Ġpast":2715,"ĠMag":2716,"ĠLa":2717,"ĠVirgin":2718,"oring":2719,"onna":2720,"ston":2721,"sel":2722,"Ġimmedi":2723,"Ġexist":2724,"Ġdisp":2725,"anded":2726,"ĠCharles":2727,"agon":2728,"ique":2729,"ĠSome":2730,"ĠCaliforn":2731,"ĠCanada":2732,"Ġhighest":2733,"ĠBay":2734,"ilities":2735,"Ġrelig":2736,"Ġmeas":2737,"etwork":2738,"Ġkeep":2739,"arr":2740,"Ġordered":2741,"rup":2742,"Ġsym":2743,"Ġeduc":2744,"ĠSen":2745,"Ġtreat":2746,"Ġmove":2747,"ump":2748,"ĠOff":2749,"Ġachie":2750,"ĠSing":2751,"arily":2752,"Ġcentral":2753,"ecess":2754,"itz":2755,"ears":2756,"arter":2757,"Ġquest":2758,"eck":2759,"ĠMcC":2760,"ĠBrown":2761,"time":2762,"Ġwinds":2763,"Ġpers":2764,"ma":2765,"ĠThomas":2766,"nel":2767,"Ġtaking":2768,"ume":2769,"Ġpiec":2770,"ĠPal":2771,"elled":2772,"ĠCalifornia":2773,"ĠIsland":2774,"ĠRes":2775,"Ġenough":2776,"Ġlength":2777,"Ġlove":2778,"ĠUnion":2779,"Ġspent":2780,"Ġstop":2781,"Ġwall":2782,"ida":2783,"Ġhous":2784,"Ġcycl":2785,"ĠCourt":2786,"Ġbetter":2787,"Ġfilms":2788,"Ġsigned":2789,"Ġcommerc":2790,"Ġindepend":2791,"ands":2792,"quare":2793,"edy":2794,"Ġoutside":2795,"Ġinn":2796,"uation":2797,"Ġtold":2798,"Ġabove":2799,"ĠAward":2800,"berg":2801,"Ġ2001":2802,"usion":2803,"Ġaccording":2804,"atin":2805,"Ġpositive":2806,"osing":2807,"ĠWhite":2808,"Ġfootball":2809,"ittee":2810,"Ġsuper":2811,"II":2812,"reng":2813,"11":2814,"Ġpot":2815,"Ġslow":2816,"Ġrequired":2817,"ĠAssoci":2818,"Ġrecording":2819,"ĠGovern":2820,"Ġsubject":2821,"Ġfailed":2822,"Ġelements":2823,"ĠBut":2824,"ĠSl":2825,"alion":2826,"lying":2827,"mar":2828,"Ġassist":2829,"aint":2830,"Al":2831,"Ġreviews":2832,"ĠCompany":2833,"Ġstates":2834,"ĠCong":2835,"Ġinterview":2836,"ready":2837,"Ġpreviously":2838,"Ġfeel":2839,"isl":2840,"Ġcome":2841,"aters":2842,"Ġparts":2843,"ĠRock":2844,"Ġitself":2845,"Ġgoing":2846,"ibility":2847,"ĠRichard":2848,"erved":2849,"ĠMo":2850,"amer":2851,"Ġap":2852,"ĠAlex":2853,"ĠSmith":2854,"Ġcru":2855,"tt":2856,"ĠChe":2857,"Ġphot":2858,"oke":2859,"Ġlower":2860,"nes":2861,"ability":2862,"Ġdebut":2863,"ĠSam":2864,"ĠGermany":2865,"Ġclear":2866,"Ġrain":2867,"Ġspeed":2868,"van":2869,"ĠIndia":2870,"minist":2871,"Ġcontract":2872,"ises":2873,"Ġthink":2874,"ĠVict":2875,"Ġmean":2876,"Ġbeginning":2877,"ĠCollege":2878,"airs":2879,"Ġgroups":2880,"Ġdespite":2881,"ĠTwo":2882,"asons":2883,"ship":2884,"ĠSk":2885,"ĠIr":2886,"Ġ2002":2887,"oviet":2888,"Ġbeg":2889,"Ġclaimed":2890,"Ġasked":2891,"Ġsil":2892,"Ġlangu":2893,"onse":2894,"ession":2895,"Ġborn":2896,"ĠStud":2897,"eal":2898,"rief":2899,"ĠCr":2900,"Ġbi":2901,"Ġprevent":2902,"Ġinternational":2903,"Ġtransfer":2904,"acted":2905,"Ġdirected":2906,"Ġcred":2907,"Ġadditional":2908,"igan":2909,"ĠGod":2910,"Ġflow":2911,"not":2912,"Ġcou":2913,"Ġlines":2914,"ĠAwards":2915,"17":2916,"gen":2917,"Ġrap":2918,"Ġprob":2919,"Ġgive":2920,"ĠMer":2921,"Ġpur":2922,"Ġnine":2923,"Ġfuture":2924,"ĠHill":2925,"ĠMex":2926,"Ġwhose":2927,"Ġidea":2928,"Ġevidence":2929,"Ġsection":2930,"Ġviol":2931,"ĠCast":2932,"atory":2933,"Ġquickly":2934,"Ġwhom":2935,"Ġesp":2936,"ites":2937,"ĠUK":2938,"yr":2939,"ha":2940,"ena":2941,"ĠAc":2942,"eum":2943,"Ġfort":2944,"ĠArt":2945,"Ġintroduced":2946,"usp":2947,"ĠÂ£":2948,"ĠDespite":2949,"Ġbridge":2950,"ĠTimes":2951,"Ġtravel":2952,"Ġalready":2953,"ĠChristian":2954,"irth":2955,"ecially":2956,"Ġdon":2957,"Ġey":2958,"Ġprem":2959,"Ġleague":2960,"ys":2961,"ĠForce":2962,"Ġarrived":2963,"Ġop":2964,"ĠMark":2965,"unt":2966,"ĠJos":2967,"liam":2968,"Ġstreng":2969,"Ġsea":2970,"Ġpoor":2971,"Ġcenter":2972,"ĠSoviet":2973,"ĠPeter":2974,"Ġabs":2975,"ĠStar":2976,"Wh":2977,"ĠWestern":2978,"Ġdeal":2979,"ĠDem":2980,"Ġgold":2981,"Ġappl":2982,"ĠHot":2983,"ĠSoc":2984,"ĠCoun":2985,"ĠDan":2986,"Ch":2987,"80":2988,"Ġpen":2989,"ĠGold":2990,"ully":2991,"Ġradio":2992,"Ġcivil":2993,"Ġfrequ":2994,"Ġstudy":2995,"It":2996,"Ġmusical":2997,"su":2998,"ĠBritain":2999,"Ġmagazine":3000,"liament":3001,"Ġpil":3002,"Ġkey":3003,"Ġdecision":3004,"ĠFilm":3005,"Ġresponse":3006,"NA":3007,"13":3008,"Ġmoney":3009,"ĠPat":3010,"16":3011,"An":3012,"asc":3013,"Ġunc":3014,"sy":3015,"Ġ1990":3016,"Ġfood":3017,"Ġproduct":3018,"ien":3019,"ĠGrand":3020,"AA":3021,"Ġflood":3022,"aries":3023,"Ġcarried":3024,"ĠDu":3025,"Ġenv":3026,"Ġcommunity":3027,"acing":3028,"Ġremain":3029,"Ġremaining":3030,"Ġdefeated":3031,"rel":3032,"Ġestimated":3033,"ĠFrank":3034,"Ġblock":3035,"Ġshows":3036,"Ġlab":3037,"han":3038,"Ġcompl":3039,"ĠNY":3040,"Ġusually":3041,"Ġoccup":3042,"win":3043,"ĠTom":3044,"nown":3045,"Ġfemale":3046,"mir":3047,"ergy":3048,"Ġmight":3049,"Ġbecoming":3050,"ulf":3051,"Ġlarger":3052,"Ġconstruct":3053,"Ġwestern":3054,"Ġsurface":3055,"Ġminor":3056,"porary":3057,"Ġguitar":3058,"Ġsuggested":3059,"Ġpolice":3060,"erve":3061,"Ġissue":3062,"Ġteams":3063,"ximately":3064,"Ġlatter":3065,"change":3066,"aring":3067,"Ġaccess":3068,"Ġwood":3069,"Ġmedia":3070,"Ġlyric":3071,"inct":3072,"Ġsurround":3073,"Ġinvestig":3074,"Ġstudents":3075,"ĠVictor":3076,"Ġbrief":3077,"Ġconcern":3078,"Ġexcept":3079,"ari":3080,"ĠPac":3081,"ederal":3082,"Ġdeterm":3083,"incip":3084,"Ġcomplete":3085,"ending":3086,"Ġprison":3087,"Ġconsider":3088,"Ġdiscuss":3089,"Ġ-":3090,"Ġliter":3091,"Ġcommercial":3092,"Ġespecially":3093,"Ġepisodes":3094,"imate":3095,"lymp":3096,"ĠDon":3097,"ulated":3098,"Ġshoot":3099,"ĠVirginia":3100,"ĠChic":3101,"Ġdoc":3102,"Ġacqu":3103,"que":3104,"Ġchanges":3105,"Ġprior":3106,"ĠMount":3107,"ĠLos":3108,"ĠBen":3109,"Ġbur":3110,"oe":3111,"ests":3112,"enth":3113,"Ġfleet":3114,"Ġeffects":3115,"iser":3116,"Ġbow":3117,"ĠFranc":3118,"Ġsummer":3119,"Ġdestroyed":3120,"25":3121,"oo":3122,"Ġeastern":3123,"Ġleaving":3124,"Ġcertain":3125,"Ġpersonal":3126,"Ġstaff":3127,"ga":3128,"mitted":3129,"Ġmarket":3130,"Ġriver":3131,"At":3132,"ournal":3133,"Ġ1970":3134,"ires":3135,"igade":3136,"idents":3137,"ension":3138,"Ġentered":3139,"ĠFlor":3140,"Ġtar":3141,"ĠBur":3142,"Ġappointed":3143,"Ġlimited":3144,"ties":3145,"ĠOlymp":3146,"Ġpolic":3147,"Ġprovide":3148,"ĠClub":3149,"Ġcomplet":3150,"Ġrights":3151,"Ġterrit":3152,"ĠRob":3153,"Ġdraw":3154,"Ġinfluence":3155,"Ġproposed":3156,"ĠTex":3157,"ores":3158,"can":3159,"Ġpay":3160,"Ġcommission":3161,"ication":3162,"inese":3163,"Ġfail":3164,"Ġstructure":3165,"Ġoverall":3166,"ÃŃ":3167,"iles":3168,"Ġtransport":3169,"Ġsat":3170,"Ġden":3171,"Ġlo":3172,"Ġscreen":3173,"ĠSecond":3174,"Ġ1980":3175,"Ġder":3176,"rd":3177,"down":3178,"Ġtrib":3179,"Ġboard":3180,"Ġagreed":3181,"ĠAssociation":3182,"Ġemer":3183,"Ġsometimes":3184,"ĠJackson":3185,"sen":3186,"ĠDay":3187,"Ġintended":3188,"ift":3189,"atives":3190,"Ġexc":3191,"Ġscript":3192,"Ġtax":3193,"199":3194,"Ġarrang":3195,"imum":3196,"Ġelection":3197,"inent":3198,"Ġdivision":3199,"aded":3200,"14":3201,"Ġresearch":3202,"Ġpurch":3203,"rated":3204,"Ġsize":3205,"pe":3206,"Ġscenes":3207,"ĠFle":3208,"Ġbroadcast":3209,"Ġmarried":3210,"Ġhelped":3211,"Ġwriter":3212,"Ġdaughter":3213,"ĠThat":3214,"ĠLouis":3215,"Ġpressure":3216,"Ġawarded":3217,"Ġdate":3218,"ĠFrom":3219,"atively":3220,"teen":3221,"ĠParty":3222,"rol":3223,"Ġcal":3224,"ili":3225,"ĠLater":3226,"Ġmultip":3227,"Ġself":3228,"ĠCouncil":3229,"action":3230,"Ġjud":3231,"ĠChicago":3232,"ounds":3233,"Ġsupported":3234,"Ġmovement":3235,"Ġnearly":3236,"omer":3237,"Ã¶":3238,"Ġdi":3239,"Ġanti":3240,"uz":3241,"Ġ(\"":3242,"Ġdiss":3243,"class":3244,"Ġlonger":3245,"icted":3246,"order":3247,"Ġsusp":3248,"vin":3249,"ĠSpanish":3250,"olk":3251,"ĠIm":3252,"Ġcreate":3253,"Ġbird":3254,"Ġfavor":3255,"ronic":3256,"Ġcaptured":3257,"Ġhigher":3258,"Ġconclud":3259,"abit":3260,"bers":3261,"Ġfans":3262,"enty":3263,"olic":3264,"Ġplanned":3265,"oes":3266,"Ġexperience":3267,"Ġthemsel":3268,"Ġthemselves":3269,"dle":3270,"Ġgirl":3271,"Ġroom":3272,"known":3273,"Ġcompared":3274,"Ġchanged":3275,"isions":3276,"Ġdeep":3277,"Ġcat":3278,"ny":3279,"Ġincreasing":3280,"ij":3281,"ĠGreen":3282,"Ġ1999":3283,"Ġwithd":3284,"Ġcourse":3285,"ĠEdward":3286,"well":3287,"Ġfeature":3288,"Ġdone":3289,"Ġstars":3290,"umn":3291,"ĠKore":3292,"ĠMill":3293,"hold":3294,"thing":3295,"ĠBillboard":3296,"Ġestablish":3297,"ĠHistory":3298,"stant":3299,"Ġoperations":3300,"Ġequip":3301,"ĠEarly":3302,"ĠEmp":3303,"Ã¼":3304,"imin":3305,"70":3306,"ams":3307,"Ġthus":3308,"ĠEnter":3309,"sis":3310,"raz":3311,"Ġspace":3312,"Ġremains":3313,"andon":3314,"ĠSong":3315,"writ":3316,"ĠServ":3317,"Ġtracks":3318,"eff":3319,"ĠChinese":3320,"bour":3321,"Ġ60":3322,"Ġcopies":3323,"Ġparen":3324,"Ġintens":3325,"Ġrunning":3326,"Ġsoldiers":3327,"Ġweap":3328,"Ġbuildings":3329,"Ġ1960":3330,"tained":3331,"Ġlyrics":3332,"Ġdepart":3333,"riage":3334,"Ġbring":3335,"Ġwoman":3336,"Ġliving":3337,"Ġconcept":3338,"ows":3339,"Ġdark":3340,"ospital":3341,"ĠDo":3342,"Ġcountries":3343,"ibr":3344,"Ġmostly":3345,"Ġwhether":3346,"Ġbattles":3347,"hood":3348,"ĠInf":3349,"Ġextended":3350,"ĠItal":3351,"Ġsuffered":3352,"Ġapproximately":3353,"Ġtemper":3354,"Ġgoals":3355,"ĠSal":3356,"Ġleader":3357,"Ġcm":3358,"Ġcomplex":3359,"Ġvoice":3360,"bury":3361,"Ġchall":3362,"Ġincludes":3363,"Ġult":3364,"ĠPacific":3365,"Ġattend":3366,"iring":3367,"ĠMont":3368,"iant":3369,"During":3370,"itted":3371,"Ġbig":3372,"rial":3373,"Ġour":3374,"Ġfifth":3375,"lor":3376,"Ġimmediately":3377,"Ġofficers":3378,"Ġheav":3379,"lebr":3380,"Ġissued":3381,"Ġforward":3382,"Ġdead":3383,"ĠEv":3384,"Ġnatural":3385,"ĠLake":3386,"Ġproducer":3387,"reak":3388,"bed":3389,"ĠScot":3390,"Ġwide":3391,"ĠCongress":3392,"ĠOver":3393,"venue":3394,"ĠFlorida":3395,"Ġincrease":3396,"Ġlikely":3397,"ĠOper":3398,"ĠJohnson":3399,"Ġremoved":3400,"Ġface":3401,"Ġsyn":3402,"ria":3403,"Ġprivate":3404,"Ġplans":3405,"ections":3406,"oys":3407,"Ġsubsequently":3408,"Ġinitial":3409,"Ġkil":3410,"Ġdistrib":3411,"Ġleave":3412,"500":3413,"Ġcapital":3414,"Ġservices":3415,"ging":3416,"ste":3417,"iation":3418,"Ġnetwork":3419,"Ġcoin":3420,"Ġquarter":3421,"Ġvisit":3422,"Ġmach":3423,"ctor":3424,"Ġcompan":3425,"yard":3426,"ograph":3427,"Ġproblems":3428,"Ġhop":3429,"Ġmixed":3430,"Ġbreed":3431,"ously":3432,"Ġfocus":3433,"etic":3434,"aily":3435,"Ġoffered":3436,"oper":3437,"Ġterms":3438,"ĠSun":3439,"vey":3440,"Ġdram":3441,"Ġlocation":3442,"ĠCont":3443,"ĠTown":3444,"Ġconfl":3445,"ounted":3446,"Ġapproach":3447,"Ġstatus":3448,"Ġmount":3449,"Ġtons":3450,"ironment":3451,"ĠFollowing":3452,"track":3453,"Ġ1998":3454,"Ġmanager":3455,"Ġvia":3456,"Ġvillage":3457,"ĠJust":3458,"Ġhealth":3459,"adium":3460,"urt":3461,"ĠUp":3462,"very":3463,"burg":3464,"Ã³":3465,"wer":3466,"Ġadminist":3467,"Ġfell":3468,"ĠTexas":3469,"ĠBack":3470,"ĠFort":3471,"Ġmur":3472,"Ġmodel":3473,"ĠFinal":3474,"aches":3475,"uries":3476,"Ġmajority":3477,"Ġprobably":3478,"ĠApp":3479,"Ġran":3480,"Ġflag":3481,"ĠRo":3482,"chester":3483,"ĠChina":3484,"ĠRail":3485,"Ġinstr":3486,"Ġsch":3487,"hod":3488,"ĠInter":3489,"Ġmeeting":3490,"uf":3491,"lo":3492,"ĠQueen":3493,"ĠAtlantic":3494,"cean":3495,"Ġappears":3496,"Ġalways":3497,"ify":3498,"ĠAfrica":3499,"Ġdeg":3500,"ĠCamp":3501,"Ġjob":3502,"Ġinters":3503,"ĠSea":3504,"itect":3505,"Ġdamaged":3506,"Ġconfir":3507,".,":3508,"ĠCenter":3509,"Ġcounter":3510,"Ġrevealed":3511,"reater":3512,"rown":3513,"ĠDist":3514,"ĠSquadron":3515,"Ġadop":3516,"ĠJew":3517,"umed":3518,"Ġcarry":3519,"Ġindividual":3520,"ĠTor":3521,"ective":3522,"Ġcause":3523,"Ġwinning":3524,"aging":3525,"Ġ35":3526,"Ġgot":3527,"ĠPri":3528,"eph":3529,"ĠMost":3530,"ĠEarth":3531,"Ġrespectively":3532,"Ġcomposed":3533,"ĠLaw":3534,"ĠAngeles":3535,"Ġnorm":3536,"Ġfinanc":3537,"Ġdiscovered":3538,"Ġconsist":3539,"lit":3540,"Ġcolon":3541,"ĠTrans":3542,"ware":3543,"Ġnumerous":3544,"use":3545,"ails":3546,"Ġtor":3547,"Ġreally":3548,"ault":3549,"ription":3550,"Ġ185":3551,"ĠIts":3552,"Ġplot":3553,"estival":3554,"iest":3555,"Ġoccurred":3556,"VD":3557,"uals":3558,"road":3559,"uments":3560,"rie":3561,"bit":3562,"ĠLord":3563,"Ġraised":3564,"ĠCanadian":3565,"Ġconditions":3566,"Ġattempted":3567,"Ġattacks":3568,"Ġprofessional":3569,"ĠPet":3570,"Ġnature":3571,"ĠHighway":3572,"Ġassociated":3573,"ĠWood":3574,"ĠKent":3575,"isk":3576,"Ġcand":3577,"Ġtakes":3578,"shire":3579,"ĠCarol":3580,"Ġshown":3581,"Ġcontains":3582,"Ġmakes":3583,"Ġvehic":3584,"vert":3585,"oly":3586,"Ġanc":3587,"ĠJim":3588,"Ġsomething":3589,"Ġsales":3590,"Ġlay":3591,"aught":3592,"arian":3593,"Ġaccomp":3594,"Ġbene":3595,"Ġlaunched":3596,"urity":3597,"Ġaltern":3598,"gely":3599,"Ġneeded":3600,"ĠCentral":3601,"izing":3602,"Ġcoach":3603,"Ġtype":3604,"Ġissues":3605,"uing":3606,"Ġyet":3607,"Ġattacked":3608,"reme":3609,"Ġinformation":3610,"Ġupper":3611,"ken":3612,"Ġcer":3613,"Ġbirth":3614,"Ġwhole":3615,"hem":3616,"ĠLit":3617,"Ġresulted":3618,"ani":3619,"Ġfarm":3620,"Ġdefeat":3621,"Ġimm":3622,"gl":3623,"ĠTour":3624,"illed":3625,"Ġyards":3626,"Ġsmaller":3627,"ĠBow":3628,"ĠMur":3629,"Ġflight":3630,"aph":3631,"ĠOl":3632,"Ġmom":3633,"Ġlanguage":3634,"uated":3635,"Ġnumbers":3636,"Ġsal":3637,"Ġvir":3638,"Ġincor":3639,"ortun":3640,"Ġcollect":3641,"Ġfinally":3642,"itation":3643,"enant":3644,"ounded":3645,"Ġselected":3646,"ĠEmpire":3647,"ider":3648,"Ġsinger":3649,"Ġ1997":3650,"ayed":3651,"Ġreferred":3652,"Ġindustry":3653,"ĠMartin":3654,"Ġranked":3655,"ĠGroup":3656,"onic":3657,"Ġsen":3658,"Ġdig":3659,"oud":3660,"Ġcritical":3661,"Ġscient":3662,"Ġcommented":3663,"itude":3664,"Ġassigned":3665,"wide":3666,"ãĥ":3667,"Ġmission":3668,"Ġqual":3669,"Ġlegisl":3670,"Ġearned":3671,"ĠYear":3672,"aine":3673,"Ġbox":3674,"arters":3675,"Ġslight":3676,"ĠMel":3677,"lled":3678,"ĠCorps":3679,"Ġaudience":3680,"Ġens":3681,"Ġcelebr":3682,"Ġexpected":3683,"Ġlargely":3684,"Ġprincip":3685,"Ġactive":3686,"irection":3687,"ĠIII":3688,"light":3689,"ĠSir":3690,"erry":3691,"ĠDes":3692,"Ġwant":3693,"war":3694,"Ġunable":3695,"Ġartic":3696,"ounts":3697,"Ġplant":3698,"Ġrefused":3699,"ighter":3700,"ogue":3701,"house":3702,"ĠOld":3703,"Ġindic":3704,"Ġsched":3705,"Ġnewsp":3706,"Ġfriends":3707,"Ġanaly":3708,"Ġexam":3709,"Ġattention":3710,"Ġ2016":3711,"ĠAnt":3712,"Ġrequest":3713,"Ġemb":3714,"ĠRussian":3715,"Ġsaf":3716,"Ġdomin":3717,"Ġrecover":3718,"Ġmethod":3719,"hips":3720,"ĠRev":3721,"Ġroy":3722,"ux":3723,"Ġmoving":3724,"Ġsem":3725,"ĠBoth":3726,"Ġartist":3727,"ona":3728,"Ġclosed":3729,"ĠDVD":3730,"Ġtrade":3731,"Ġstandard":3732,"Ġlink":3733,"Ġ45":3734,"Ġofficer":3735,"joy":3736,"Ġlisted":3737,"Ġprimary":3738,"isher":3739,"Ġsecret":3740,"het":3741,"Ġdepression":3742,"Ġeducation":3743,"Ġperformances":3744,"anced":3745,"ples":3746,"ĠTur":3747,"bridge":3748,"Ġmeant":3749,"ening":3750,"undred":3751,"Ġability":3752,"Ġbelow":3753,"ĠItalian":3754,"Ġunderst":3755,"ĠCam":3756,"ĠRad":3757,"ĠPenn":3758,"Ġdeclared":3759,"Ġthr":3760,"ĠViet":3761,"iled":3762,"Ġreason":3763,"ĠKn":3764,"ĠWales":3765,"Ġbad":3766,"ĠRh":3767,"Ġcontem":3768,"Ġmale":3769,"ette":3770,"Ġletter":3771,"ĠDel":3772,"Ġhot":3773,"75":3774,"Ġpit":3775,"aped":3776,"Ġoperation":3777,"Ġmatches":3778,"Ġrecords":3779,"Ġsett":3780,"utch":3781,"ĠStr":3782,"Ġbooks":3783,"Ġcommander":3784,"imb":3785,"gu":3786,"ĠHow":3787,"ady":3788,"Ġ184":3789,"Ġtraditional":3790,"antasy":3791,"inch":3792,"Ġnames":3793,"Ġmax":3794,"Ġ1950":3795,"ĠMany":3796,"Ġplat":3797,"pass":3798,"odies":3799,"Ġgiving":3800,"ĠMiss":3801,"Ġtalk":3802,"everal":3803,"iences":3804,"Ġconstit":3805,"Ġelected":3806,"Ġcompetition":3807,"ector":3808,"Ġwalk":3809,"ĠZeal":3810,"Ġquestion":3811,"Ġrelated":3812,"Ġinspired":3813,"ĠBig":3814,"atre":3815,"Ġkind":3816,"miral":3817,"Ġproduce":3818,"Ġmiddle":3819,"ĠTV":3820,"Ġcentre":3821,"Ġcovered":3822,"ĠMinister":3823,"Ġaccount":3824,"ĠAcad":3825,"Ġsister":3826,"Ġfighting":3827,"Ġdemon":3828,"ĠStep":3829,"ĠWin":3830,"Ġvocals":3831,"ĠDemocr":3832,"ervation":3833,"icient":3834,"ĠMass":3835,"ares":3836,"echan":3837,"Ġprec":3838,"Ġund":3839,"Ġrapid":3840,"Ġword":3841,"Ġmention":3842,"ĠLove":3843,"ĠSuper":3844,"Ġabandon":3845,"ĠNort":3846,"ether":3847,"Ġunit":3848,"Ġnecess":3849,"arts":3850,"oses":3851,"Ġreligious":3852,"Ġ1940":3853,"ĠTest":3854,"ado":3855,"Ġdouble":3856,"Ġpow":3857,"ĠMichigan":3858,"When":3859,"rier":3860,"Ġtheme":3861,"arrow":3862,"Ġpurp":3863,"Ġ1995":3864,"anes":3865,"ishop":3866,"Ġdisapp":3867,"Ġnearby":3868,"ĠBet":3869,"cle":3870,"ĠZealand":3871,"ĠMr":3872,"cel":3873,"ping":3874,"band":3875,"right":3876,"vention":3877,"ĠEr":3878,"Ġ1996":3879,"Ġtraff":3880,"Ġconstructed":3881,"Ġdocument":3882,"MS":3883,"90":3884,"Ġcontinue":3885,"ĠCath":3886,"Ġrate":3887,"Ġblood":3888,"Ġpositions":3889,"Ġtouch":3890,"ibly":3891,"ansion":3892,"Ġseparate":3893,"ieut":3894,"Ġserious":3895,"ĠCle":3896,"ĠMidd":3897,"Ġgrand":3898,"Ġeffort":3899,"Ġpresented":3900,"Ġcas":3901,"Ġtrain":3902,"ĠCare":3903,"Ġdirectly":3904,"Ġannual":3905,"emorial":3906,"Ġreduced":3907,"Ġcontrovers":3908,"Ġmeans":3909,"ummer":3910,"Ġnotes":3911,"Ġroyal":3912,"Ġneigh":3913,"acher":3914,"Ġpractice":3915,"uit":3916,"force":3917,"ĠMexico":3918,"vement":3919,"ĠOx":3920,"Ġattended":3921,"osen":3922,"Ġforest":3923,"Ġstating":3924,"Ġdut":3925,"Ġtried":3926,"rical":3927,"Ġcompos":3928,"ĠDis":3929,"Ar":3930,"isation":3931,"Ġaccepted":3932,"Ġri":3933,"Ġpick":3934,"ĠArch":3935,"ya":3936,"stitute":3937,"Ġprep":3938,"Ġenergy":3939,"Ġlevels":3940,"Ġcandid":3941,"ĠAfrican":3942,"Ġarchitect":3943,"Ġadvance":3944,"Ġcombat":3945,"ersey":3946,"Äĩ":3947,"Ġ00":3948,"\")":3949,"based":3950,"Ġhighly":3951,"Ġenjoy":3952,"eway":3953,"Ġconcert":3954,"ims":3955,"Ġtext":3956,"icip":3957,"Ġedition":3958,"Ġrepe":3959,"Ġschools":3960,"ada":3961,"ĠNot":3962,"Ġtwenty":3963,"illery":3964,"35":3965,"ecause":3966,"Ġdism":3967,"Ġpair":3968,"Ġreject":3969,"Ġang":3970,"Ġefforts":3971,"Ġportray":3972,"ĠWal":3973,"Ġwatch":3974,"Ġrein":3975,"Ġ80":3976,"ĠFore":3977,"ĠFox":3978,"Ġ1994":3979,"utions":3980,"Ġsevent":3981,"Ġmovie":3982,"Ġdirection":3983,"ait":3984,"irit":3985,"ĠDepartment":3986,"claim":3987,"tered":3988,"ieutenant":3989,"Ġasp":3990,"Ġpurs":3991,"ican":3992,"Ġresulting":3993,"Ġrecomm":3994,"Ġmarriage":3995,"ĠCons":3996,"awn":3997,"Ġcollege":3998,"He":3999,"Ġoil":4000,"umber":4001,"Ġhar":4002,"ĠLong":4003,"Ġlegal":4004,"ka":4005,"Ġcases":4006,"ĠInfantry":4007,"olf":4008,"Ġnuc":4009,"ĠTeam":4010,"Ġavoid":4011,"Ġ32":4012,"Ġdra":4013,"Ġmetal":4014,"Ġinside":4015,"Ġcyclone":4016,"ceeded":4017,"Ġdropped":4018,"Ġresponsible":4019,"ĠMajor":4020,"Ġdisplay":4021,"Ġamb":4022,"Ġenvironment":4023,"ĠGar":4024,"Ġbegins":4025,"mark":4026,"Ġshowed":4027,"ĠScotland":4028,"Ġmanaged":4029,"Ġcust":4030,"more":4031,"Ġthick":4032,"Ġcerem":4033,"load":4034,"Ġvariety":4035,"peror":4036,"ĠAnother":4037,"Ġincorpor":4038,"Ġge":4039,"ĠHaw":4040,"ĠCreek":4041,"Ġkept":4042,"Ġrare":4043,"ĠUnder":4044,"Ġforms":4045,"Ġhouses":4046,"Ġnation":4047,"cend":4048,"ros":4049,"Ġseem":4050,"Ġwords":4051,"ĠWall":4052,"Ġinches":4053,"een":4054,"Ġfast":4055,"ini":4056,"Ġchampionship":4057,"ecting":4058,"Ġschol":4059,"rug":4060,"gypt":4061,"Ġcontinues":4062,"Ġculture":4063,"TV":4064,"Åį":4065,"ĠOut":4066,"Ġarrest":4067,"ĠMore":4068,"ĠBost":4069,"Ġrat":4070,"ĠBu":4071,"Ġcle":4072,"Ġmorning":4073,"bl":4074,"ĠRecords":4075,"ĠCross":4076,"Ġ70":4077,"ĠIf":4078,"Ġ+":4079,"Ġuses":4080,"Ġdom":4081,"inson":4082,"ih":4083,"ulations":4084,"Ġhorse":4085,"eed":4086,"ĠCrit":4087,"Ġkilomet":4088,"ĠKenn":4089,"ĠService":4090,"Ġ1930":4091,"thur":4092,"Ġbank":4093,"aud":4094,"Ġscience":4095,"ĠSar":4096,"Ġsettle":4097,"Ġdefend":4098,"Ġconducted":4099,"ĠGames":4100,"ĠParliament":4101,"Ġsource":4102,"ita":4103,"ĠTime":4104,"ĠStone":4105,"Ġamount":4106,"Ġpresence":4107,"Ġimpact":4108,"ĠTheir":4109,"ications":4110,"Ġmetres":4111,"24":4112,"irm":4113,"Ġsymb":4114,"ĠPost":4115,"arent":4116,"Ġallowing":4117,"ĠSociety":4118,"Ġlear":4119,"Ġ1992":4120,"Ġviewers":4121,"rec":4122,"Ġstarting":4123,"Ġending":4124,"ĠLeg":4125,"earing":4126,"Ġtur":4127,"ingu":4128,"itt":4129,"ils":4130,"Ġmarked":4131,"Ġlived":4132,"ĠBC":4133,"pro":4134,"Ġtransferred":4135,"inet":4136,"Ġstrugg":4137,"ĠTre":4138,"Ġdu":4139,"Ġexhib":4140,"Ġeconomic":4141,"itiz":4142,"Ġpeaked":4143,"ĠGreek":4144,"ĠBob":4145,"Ġsuppl":4146,"fect":4147,"Ġchap":4148,"Ġpotential":4149,"Ġcontrast":4150,"ĠEgypt":4151,"mission":4152,"ĠMadonna":4153,"ĠWilliams":4154,"Ġrule":4155,"Ġbecomes":4156,"ĠHel":4157,"ĠKh":4158,"Ġenemy":4159,"ĠCommittee":4160,"Ġportion":4161,"ĠNews":4162,"while":4163,"Ġhundred":4164,"iance":4165,"Ġmeaning":4166,"Ġconcluded":4167,"udd":4168,"ĠSecret":4169,"alle":4170,"Ġheart":4171,"Ġtraffic":4172,"ĠAnn":4173,"ĠFoot":4174,"Ġgreater":4175,"Ġattempts":4176,"Ġcastle":4177,"ĠChris":4178,"Ġproperty":4179,"Ġforeign":4180,"Ġraid":4181,"Ġ180":4182,"Ġencoun":4183,"mas":4184,"ĠArab":4185,"ressive":4186,"sych":4187,"ellig":4188,"Ġrespond":4189,"Ġ90":4190,"Ġdistinct":4191,"Ġthings":4192,"There":4193,"ns":4194,"Ġstories":4195,"Ġsides":4196,"Ġmess":4197,"Ġfinancial":4198,"Ġ1942":4199,"ĠDou":4200,"Ġbeat":4201,"Ġanimals":4202,"ĠBook":4203,"Ġobserved":4204,"istics":4205,"Ġdance":4206,"ĠStan":4207,"ols":4208,"ĠFour":4209,"ĠDar":4210,"Ġcollection":4211,"Ġfederal":4212,"Ġopportun":4213,"Ġvocal":4214,"Ġchief":4215,"ĠVer":4216,"Ġrelatively":4217,"Ġmultiple":4218,"ĠJones":4219,"Ġtourn":4220,"ĠBoston":4221,"uge":4222,"quarters":4223,"Ġsituation":4224,"Ġyour":4225,"Ġ1991":4226,"Ġple":4227,"Ġjournal":4228,"Ġweaken":4229,"stein":4230,"Ġded":4231,"ĠMic":4232,"ala":4233,"ĠTri":4234,"ĠBattalion":4235,"Ġprimarily":4236,"Ġ1993":4237,"ĠBridge":4238,"Ġpremi":4239,"AF":4240,"Ġcompanies":4241,"Ġparents":4242,"Ġwriters":4243,"Ġactually":4244,"Ġlif":4245,"ĠGeorg":4246,"ĠSouthern":4247,"Ġonto":4248,"Ġunivers":4249,"ĠMatt":4250,"anna":4251,"ĠSur":4252,"perial":4253,"atched":4254,"22":4255,"Ġactor":4256,"ky":4257,"ricket":4258,"ĠCommission":4259,"ĠSo":4260,"AS":4261,"Ġcollabor":4262,"ĠOxford":4263,"astic":4264,"ĠSol":4265,"Ġmechan":4266,"istry":4267,"Ġshare":4268,"aga":4269,"acts":4270,"annel":4271,"Ġopt":4272,"eds":4273,"osaur":4274,"oration":4275,"'m":4276,"ĠVietn":4277,"ĠSince":4278,"Ġdivided":4279,"Ġwrite":4280,"illa":4281,"Ġactions":4282,"ero":4283,"ĠManchester":4284,"mond":4285,"aven":4286,"itan":4287,"Ġfeaturing":4288,"Ġreform":4289,"Ġconcent":4290,"ĠSwed":4291,"Ġbroke":4292,"Ġcaptain":4293,"Ġinnings":4294,"ĠOtt":4295,"Ġrating":4296,"inem":4297,"onn":4298,"rupt":4299,"ĠPrince":4300,"ĠSat":4301,"Ġlot":4302,"thlet":4303,"town":4304,"oti":4305,"Ġdise":4306,"ĠLu":4307,"Ġplays":4308,"Ġtarget":4309,"omy":4310,"Ġcho":4311,"ĠParis":4312,"ĠAcademy":4313,"Ġfigure":4314,"Ġmaximum":4315,"Ġwaters":4316,"Ġsought":4317,"Ġultimately":4318,"olved":4319,"ĠLatin":4320,"ym":4321,"By":4322,"Ġspot":4323,"Ġspecific":4324,"100":4325,"ota":4326,"ining":4327,"ĠEntertain":4328,"ĠBBC":4329,"Ġslightly":4330,"za":4331,"Ġsociety":4332,"cers":4333,"ylvan":4334,"Ġindependent":4335,"Ġtend":4336,"Ġstrength":4337,"Ġ1944":4338,"Ġinterp":4339,"Ġfunction":4340,"Ġactivity":4341,"ĠPan":4342,"ĠDen":4343,"ĠGo":4344,"ĠMuseum":4345,"Ġfounded":4346,"ĠStephen":4347,"Ġbehav":4348,"iano":4349,"Ġtrial":4350,"Ġpolicy":4351,"We":4352,"ĠBrad":4353,"Ġcombined":4354,"Ġvess":4355,"Ġseconds":4356,"orses":4357,"bo":4358,"Ġmel":4359,"Ġtorped":4360,"Ġofficials":4361,"Ġquality":4362,"Ġconver":4363,"Ġstruck":4364,"ĠHarrison":4365,"Ġsay":4366,"Ġpaid":4367,"HL":4368,"Ġwebs":4369,"Ġalongside":4370,"Ġcalling":4371,"Ġsources":4372,"adel":4373,"Ġacting":4374,"ĠBrigade":4375,"ĠLine":4376,"ĠColumb":4377,"Ġthir":4378,"Ġbackground":4379,"Ġlog":4380,"Ġgar":4381,"rowd":4382,"ĠJeff":4383,"ĠJoseph":4384,"Ġpilot":4385,"ĠSeries":4386,"Ġsearch":4387,"Ġwinter":4388,"ĠCaptain":4389,"ĠEntertainment":4390,"Ġthous":4391,"Ġgained":4392,"Ġartists":4393,"reland":4394,"Ġmill":4395,"ĠBat":4396,"ĠSpec":4397,"ĠBoy":4398,"ube":4399,"ĠItaly":4400,"Ġnaval":4401,"Ġpowerful":4402,"Ġbatter":4403,"Ġscoring":4404,"Ġsystems":4405,"Ġrough":4406,"Ġsuc":4407,"Ġmainly":4408,"Ġrecent":4409,"ĠFred":4410,"ĠAvenue":4411,"Ġcontent":4412,"Ġproblem":4413,"ibrary":4414,"aling":4415,"Ġseg":4416,"ĠClass":4417,"ĠRegiment":4418,"Ġconfirmed":4419,"Ġresults":4420,"iced":4421,"Ġmem":4422,"Ġsubsequent":4423,"Ġpromoted":4424,"Ġexplained":4425,"29":4426,"Ġwidely":4427,"Ġcompletely":4428,"Ġnews":4429,"Ġtheory":4430,"Ġalbums":4431,"Ġencour":4432,"ĠAp":4433,"iro":4434,"Ġtoday":4435,"olt":4436,"ĠSil":4437,"ĠForm":4438,"Ġpassing":4439,"unction":4440,"ĠArm":4441,"28":4442,"Ġconflict":4443,"Ġ1941":4444,"Ġ1945":4445,"Ġhus":4446,"ĠWay":4447,"Ġproved":4448,"oured":4449,"eld":4450,"bon":4451,"bur":4452,"ĠTw":4453,"ĠMa":4454,"ĠFin":4455,"Ġbill":4456,"Ġshortly":4457,"oung":4458,"Ġversions":4459,"Ġnominated":4460,"ĠFleet":4461,"27":4462,"ĠDef":4463,"Ġdistance":4464,"ĠSaint":4465,"Ġsays":4466,"ĠTim":4467,"itness":4468,"Ġice":4469,"ĠChief":4470,"Ġinvasion":4471,"Ġreception":4472,"Sh":4473,"Ġ1920":4474,"Ġess":4475,"ees":4476,"Ġserve":4477,"Ġplatform":4478,"la":4479,"Ġcounty":4480,"Ġexpressed":4481,"ĠIreland":4482,"Ġpath":4483,"Ġcorn":4484,"Ġreaching":4485,"ancy":4486,"Ġresidents":4487,"Ġtitled":4488,"Ġdesignated":4489,"Ġcities":4490,"Ġsoundtrack":4491,"ategory":4492,"Ġblue":4493,"Ġappearances":4494,"Ġcausing":4495,"Ġpeace":4496,"agn":4497,"och":4498,"ĠLuc":4499,"ĠPop":4500,"Ġboy":4501,"'re":4502,"ips":4503,"Ġcharge":4504,"ĠGre":4505,"clus":4506,"Ġrequire":4507,"ĠOs":4508,"ev":4509,"ighth":4510,"arden":4511,"Ġbound":4512,"Ġhospital":4513,"Ġadj":4514,"Ġfavour":4515,"Ġ36":4516,"Ġsust":4517,"Ġi":4518,"Ġcoming":4519,"rog":4520,"ĠValley":4521,"Ġkg":4522,"ĠVan":4523,"ĠAdmiral":4524,"Ġtells":4525,"itable":4526,"Ġtransl":4527,"ĠThree":4528,"Ġchem":4529,"ĠLee":4530,"Ġolder":4531,"resp":4532,"ola":4533,"ĠHurricane":4534,");":4535,"23":4536,"Ġartillery":4537,"ĠCroat":4538,"Ġoffer":4539,"ports":4540,"eption":4541,"Ġpiece":4542,"ylvania":4543,"ordin":4544,"Ġphysical":4545,"Ġsixth":4546,"Americ":4547,"lines":4548,"ĠVictoria":4549,"ĠSpr":4550,"abeth":4551,"Ġgreatest":4552,"ĠTer":4553,"Ġseasons":4554,"Ġborder":4555,"add":4556,"Ġweather":4557,"Ġweapons":4558,"rich":4559,"ĠMod":4560,"anta":4561,"ĠWind":4562,"Ġhands":4563,"Ġseek":4564,"Ġidentified":4565,"Ġ1943":4566,"Ġsense":4567,"Ġ183":4568,"ĠAlb":4569,"ran":4570,"prise":4571,"Ġheavily":4572,"Ġstudies":4573,"Ġsexual":4574,"essions":4575,"Ġsquare":4576,"ĠPre":4577,"pool":4578,"Ġstudent":4579,"Ġir":4580,"struction":4581,"Ġgas":4582,"Ġpun":4583,"Ġdebuted":4584,"ĠNin":4585,"Ġresist":4586,"Ġrepresented":4587,"Ġconsisted":4588,"Ġhero":4589,"Ġ179":4590,"ias":4591,"stone":4592,"ayer":4593,"Ġmind":4594,"ĠMax":4595,"Ġsn":4596,"Ġinstit":4597,"ror":4598,"Ġprominent":4599,"ĠOh":4600,"Ġsupp":4601,"ĠMiddle":4602,"Ġspread":4603,"Ġ500":4604,"Ġdistrict":4605,"urban":4606,"Ġorganization":4607,"Ġequipment":4608,"Ġargued":4609,"acity":4610,"Ġelectric":4611,"Ġwing":4612,"Ġsend":4613,"ĠProdu":4614,"Ġinfluenced":4615,"ockey":4616,"Ġpal":4617,"Ġexped":4618,"Ġofficially":4619,"uman":4620,"Ġprepar":4621,"Ġfigures":4622,"ushed":4623,"Ġemot":4624,"ĠHal":4625,"ĠAmericans":4626,"Ġapparent":4627,"Ġinjury":4628,"Ġreturning":4629,"Ġimage":4630,"Ġaired":4631,"Ġburn":4632,"Ġcouple":4633,"ĠCatholic":4634,"set":4635,"anger":4636,"26":4637,"century":4638,"Ġ33":4639,"ote":4640,"ĠKr":4641,"ĠEll":4642,"Ġahead":4643,"Ġhour":4644,"Ġcapture":4645,"rid":4646,"appen":4647,"Ġeas":4648,"Ġera":4649,"Ġresc":4650,"Ġpattern":4651,"ĠHistor":4652,"Ġleaders":4653,"lam":4654,"uct":4655,"isco":4656,"ki":4657,"Ġpropos":4658,"ifying":4659,"ĠWeek":4660,"Ġhabit":4661,"ĠLiber":4662,"Ġpoet":4663,"ĠCarl":4664,"Ġsout":4665,"ĠLife":4666,"Ġrisk":4667,"Ġhor":4668,"emic":4669,"ĠDun":4670,"ading":4671,"uled":4672,"Ġdoing":4673,"ĠCommun":4674,"Ġwick":4675,"ĠShow":4676,"Ġcriticized":4677,"Ġstone":4678,"Ġmatter":4679,"illy":4680,"Ġactivities":4681,"ĠCharl":4682,"Ġcontemporary":4683,"Ġowned":4684,"Ġtrue":4685,"Ġvisited":4686,"acement":4687,"ocked":4688,"velopment":4689,"Ġcert":4690,"Ġinstrument":4691,"Ġhusband":4692,"Ġpieces":4693,"ager":4694,"Ġlaid":4695,"chest":4696,"Ġiron":4697,"ĠRy":4698,"Ġdrug":4699,"Ġcrowd":4700,"ruit":4701,"Ġoccasion":4702,"Ġtermin":4703,"Ġ34":4704,"ivity":4705,"ĠCarolina":4706,"elve":4707,"ĠIll":4708,"Ġtoward":4709,"gian":4710,"ĠFootball":4711,"Ġwild":4712,"aylor":4713,"ĠCivil":4714,"ĠBus":4715,"Ġspeech":4716,"Ġcomes":4717,"Ġgrowth":4718,"Ġsingles":4719,"Be":4720,"ĠRam":4721,"ĠDutch":4722,"ĠMat":4723,"This":4724,"Ġtrees":4725,"Ġdefense":4726,"Ġworldwide":4727,"ĠRay":4728,"wing":4729,"uls":4730,"Ġterritory":4731,"acks":4732,"Ġweight":4733,"Ġtournament":4734,"Ġhere":4735,"Ġadapt":4736,"stitution":4737,"Ġstations":4738,"ental":4739,"Ġformation":4740,"Ġreference":4741,"Ġshell":4742,"Ġattract":4743,"Ġeth":4744,"Ġsenior":4745,"ĠSeveral":4746,"embly":4747,"Ġreign":4748,"ners":4749,"aved":4750,"odd":4751,"omers":4752,"Ġhall":4753,"born":4754,"ĠDi":4755,"Ġsurre":4756,"Ġrainfall":4757,"Ġaffected":4758,"ĠSystem":4759,"Ġhistorian":4760,"resh":4761,"Ġbirds":4762,"Ġmedical":4763,"Ġclaims":4764,"Ġfellow":4765,"ĠEliz":4766,"ĠConf":4767,"Ġexec":4768,"Ġox":4769,"phas":4770,"Ġcitiz":4771,"Ġnegoti":4772,"Ġpict":4773,"ĠLight":4774,"ĠBond":4775,"Ġtherefore":4776,"Ġnortheast":4777,"21":4778,"ĠNorthern":4779,"ĠStorm":4780,"rael":4781,"ĠBackground":4782,"Ġmagn":4783,"Sp":4784,"ĠDirect":4785,"Ġhun":4786,"eller":4787,"ĠNorm":4788,"fully":4789,"Ġtun":4790,"Ġdispl":4791,"ĠTropical":4792,"ĠStudios":4793,"Ġaccident":4794,"Ġguest":4795,"Ġmachine":4796,"Ġreports":4797,"Ġdoub":4798,"ĠLittle":4799,"azz":4800,"uous":4801,"Ġchosen":4802,"ĠAdd":4803,"ampion":4804,"Ġuniversity":4805,"Ġstep":4806,"Ġmurder":4807,"rect":4808,"izes":4809,"igg":4810,"ledge":4811,"ĠWork":4812,"ĠGovernment":4813,"Ġalone":4814,"Ġfloor":4815,"Ġfrequently":4816,"FA":4817,"Ġtreatment":4818,"ĠDistrict":4819,"hew":4820,"Ġleaves":4821,"ĠGuard":4822,"Ġbul":4823,"Ġsplit":4824,"Ġsupply":4825,"Ġfollows":4826,"ĠFantasy":4827,"Ġ1989":4828,"Ġ38":4829,"Ġopin":4830,"ufact":4831,"Ġdog":4832,"ĠFre":4833,"ucky":4834,"Ġtrying":4835,"Ġcontest":4836,"Ġfully":4837,"water":4838,"enge":4839,"oles":4840,"Ġdemonstr":4841,"Ġsurrounding":4842,"orter":4843,"Ġstra":4844,"198":4845,"onents":4846,"Ġexecutive":4847,"ĠJul":4848,"Ġwalls":4849,"Ġtwice":4850,"clusion":4851,"met":4852,"Ġgrew":4853,"ety":4854,"ĠLive":4855,"Ġhyd":4856,"onc":4857,"ĠSenate":4858,"Ġpan":4859,"Ġherself":4860,"Ġgreen":4861,"ĠDam":4862,"gar":4863,"Ġvalue":4864,"Ġ49":4865,"tar":4866,"Ġbillion":4867,"amber":4868,"ĠYoung":4869,"Ġearth":4870,"Ġsetting":4871,"ĠPenns":4872,"Ġhorses":4873,"Ġpasses":4874,"Ã¨":4875,"Ġwounded":4876,"Ġmaintained":4877,"ĠRog":4878,"ultural":4879,"utation":4880,"Ġgovernor":4881,"Ġescape":4882,"Ġaccompan":4883,"lers":4884,"oma":4885,"Ġring":4886,"ĠDuke":4887,"ancing":4888,"lement":4889,"Ġpaper":4890,"Ġrailway":4891,"Ġlabel":4892,"TC":4893,"ĠOcean":4894,"ographer":4895,"ĠOrig":4896,"ĠGal":4897,"Ġdrum":4898,"ocated":4899,"gend":4900,"ĠGovernor":4901,"andy":4902,"Ġplanet":4903,"worth":4904,"ĠField":4905,"Ġdyn":4906,"aming":4907,"ĠSub":4908,"Ġmanufact":4909,"Ġopposed":4910,"Ġchose":4911,"For":4912,"igr":4913,"Ġauthority":4914,"antly":4915,"78":4916,"Ġparticipated":4917,"Ġcondition":4918,"Ġwebsite":4919,"Although":4920,"ĠRos":4921,"ĠAllied":4922,"isf":4923,"ĠBey":4924,"ĠScottish":4925,"ãĤ":4926,"Ġcell":4927,"ĠBre":4928,"anda":4929,"attle":4930,"BA":4931,"itled":4932,"Ġnewly":4933,"With":4934,"ski":4935,"Ġentr":4936,"Ġcannot":4937,"Ã¤":4938,"uses":4939,"enger":4940,"ĠChart":4941,"ĠHolly":4942,"amm":4943,"Ġattrib":4944,"Ġmoment":4945,"ilies":4946,"udget":4947,"imens":4948,"Ġdraft":4949,"Ġvote":4950,"Ġcasual":4951,"ĠDaniel":4952,"ĠMarsh":4953,"pton":4954,"isters":4955,"Ġphil":4956,"ĠPen":4957,"Ġfilming":4958,"ĠFestival":4959,"Ġeditor":4960,"ables":4961,"Ġremark":4962,"ĠTem":4963,"Ġheard":4964,"orship":4965,"Ġ75":4966,"ype":4967,"Ġopposition":4968,"osh":4969,"Ġtypically":4970,"Ġadopted":4971,"ĠGood":4972,"Ġagg":4973,"Ġproducers":4974,"Ġbenef":4975,"ĠEastern":4976,"Ġbasis":4977,"Ġut":4978,"ĠHomer":4979,"Ġunknown":4980,"Ġlosing":4981,"ĠCorn":4982,"Ġfan":4983,"Ġrang":4984,"ĠKar":4985,"Ġterr":4986,"Ġexperiment":4987,"Ġorders":4988,"Ġadvanced":4989,"ĠHard":4990,"Ġelement":4991,"ura":4992,"Ġnewspaper":4993,"Ġactors":4994,"ĠCastle":4995,"eg":4996,"Ġadvant":4997,"Ġsle":4998,"Ġsevere":4999,"Ġcontained":5000,"Ġextend":5001,"Ġcouncil":5002,"ĠIslands":5003,"ĠDev":5004,"Ġsimply":5005,"Ġbal":5006,"Ġends":5007,"iner":5008,"imet":5009,"Ġ300":5010,"estic":5011,"ĠLew":5012,"Ġprompt":5013,"Ġbit":5014,"Ġextr":5015,"Ġsquadron":5016,"Ġcolor":5017,"Ġdoll":5018,"ĠPolish":5019,"Ġcompar":5020,"Ġcamer":5021,"rig":5022,"Ġarms":5023,"Ġoperated":5024,"ĠWilson":5025,"Ġabandoned":5026,"isers":5027,"erc":5028,"ĠSound":5029,"ĠReception":5030,"kin":5031,"Ġrival":5032,"Ġconsecutive":5033,"Ġlives":5034,"ĠPennsylvania":5035,"ĠJersey":5036,"Ġ37":5037,"Ġhomes":5038,"Ġcoal":5039,"Ġhappen":5040,"Ġprin":5041,"Ġindividuals":5042,"ĠBecause":5043,"Ġagreement":5044,"Ġcapacity":5045,"apers":5046,"Ġemphas":5047,"Ġpsych":5048,"room":5049,"ĠJon":5050,"Ġincident":5051,"era":5052,"ĠTop":5053,"Ġworkers":5054,"ĠChristmas":5055,"Ġfilmed":5056,"iana":5057,"ĠRod":5058,"Ġcriticism":5059,"US":5060,"iated":5061,"Ġfired":5062,"ĠTaylor":5063,"Ġevac":5064,"Ġdismiss":5065,"Ġhonor":5066,"Ġcreating":5067,"ima":5068,"imal":5069,"ĠAlbert":5070,"friend":5071,"ĠNight":5072,"Ġrom":5073,"Ġsens":5074,"Ġfailure":5075,"Ġnative":5076,"Ġsequence":5077,"ĠTra":5078,"Ġfeed":5079,"'ve":5080,"ĠHome":5081,"Ġserving":5082,"ĠTech":5083,"Ġguard":5084,"ĠAlexander":5085,"Ġlaunch":5086,"Ġweak":5087,"wick":5088,"Ġextra":5089,"Ġdeploy":5090,"Ġfuel":5091,"ĠCard":5092,"Ġoffensive":5093,"ifications":5094,"Ġminute":5095,"Ġelev":5096,"Ġsail":5097,"ĠJud":5098,"inger":5099,"ĠCoast":5100,"ĠGall":5101,"ĠElizabeth":5102,"Ġbodies":5103,"ĠAndrew":5104,"Ġbey":5105,"Ġspring":5106,"Ġroles":5107,"Ġbass":5108,"ĠColon":5109,"Ġachieved":5110,"ĠSpain":5111,"Ġnarr":5112,"ocks":5113,"aby":5114,"ĠBor":5115,"Ġenter":5116,"Ġspirit":5117,"Ġmeasure":5118,"ĠSquare":5119,"ienced":5120,"mosp":5121,"Ġregarded":5122,"Ġchalleng":5123,"ĠPers":5124,"Ġbeyond":5125,"onent":5126,"Ġswe":5127,"Ġideas":5128,"iny":5129,"Ġbelieve":5130,"oh":5131,"Ġfaced":5132,"Ġdegree":5133,"ulture":5134,"Ġdisease":5135,"ĠBeat":5136,"ĠInstitute":5137,"Ġcontact":5138,"Ġgrowing":5139,"aith":5140,"standing":5141,"ĠGirl":5142,"Ġprogress":5143,"edom":5144,"Ġbriefly":5145,"Ġfair":5146,"Ġmob":5147,"ented":5148,"Ġur":5149,"Ġfamous":5150,"Ġstrike":5151,"Ġnarrow":5152,"aver":5153,"Ġmaster":5154,"Ġreceive":5155,"eanwhile":5156,"ĠJoe":5157,"Ġretired":5158,"Ġtask":5159,"Ġnothing":5160,"Ġsports":5161,"ĠBoard":5162,"Ġast":5163,"Ġflying":5164,"ĠDet":5165,"ĠJac":5166,"Ġroads":5167,"Ġhistorical":5168,"ĠHung":5169,"ĠExp":5170,"While":5171,"Ġgranted":5172,"Ġkilometres":5173,"Ġkilling":5174,"Ġspect":5175,"Ġrejected":5176,"Ġ1988":5177,"Ġ1987":5178,"avalry":5179,"Ġadministration":5180,"Ġpack":5181,"Ġpoll":5182,"Ġtower":5183,"iments":5184,"Ġsilver":5185,"ĠMike":5186,"Ġinterchange":5187,"ourney":5188,"ĠLand":5189,"Ġleadership":5190,"Ġrepeated":5191,"Ġinte":5192,"roll":5193,"ĠOperation":5194,"Ġnecessary":5195,"Ġwor":5196,"Ġtwelve":5197,"stream":5198,"Ġnegative":5199,"Ġpersonnel":5200,"ii":5201,"stead":5202,"ĠRom":5203,"iÄĩ":5204,"ĠCat":5205,"Ġplants":5206,"Ġdata":5207,"Ġextensive":5208,"ĠIrish":5209,"outs":5210,"Ġimproved":5211,"Ġinfantry":5212,"Ġdescribes":5213,"adelph":5214,"ĠBart":5215,"Ġpet":5216,"rif":5217,"Ġnormal":5218,"Ġload":5219,"Ġturns":5220,"uate":5221,"Ġfranch":5222,"Following":5223,"oted":5224,"Ġexpanded":5225,"Ġkick":5226,"Ġsuccessfully":5227,"Ġcolumn":5228,"Ġdrive":5229,"oln":5230,"33":5231,"Ġinh":5232,"Ġsolo":5233,"Ġparalle":5234,"haps":5235,"Ġmanagement":5236,"Ġliber":5237,"Ġperman":5238,"Ġtree":5239,"Ġlands":5240,"uan":5241,"Ġvehicles":5242,"SB":5243,"inals":5244,"icial":5245,"Ġdiam":5246,"Ġchair":5247,"Ġlearn":5248,"olid":5249,"etball":5250,"ella":5251,"col":5252,"wall":5253,"adelphia":5254,"Ġrid":5255,"76":5256,"akers":5257,"appy":5258,"Ġsuggests":5259,"Ġeye":5260,"etts":5261,"Ġeffective":5262,"Ġplaces":5263,"ĠIsrael":5264,"Ġtorpedo":5265,"Ġimag":5266,"Ġlanding":5267,"ĠCub":5268,"ĠGerm":5269,"Ġcrossing":5270,"Ġdeliver":5271,"Ġbroken":5272,"ĠDoctor":5273,"Ġcaught":5274,"Ġarticle":5275,"Ġcommittee":5276,"no":5277,"ĠLind":5278,"Ġexpress":5279,"Ġanimal":5280,"ĠMul":5281,"umes":5282,"ava":5283,"ĠRevolution":5284,"Ġauthorities":5285,"ĠSecretary":5286,"ĠAlbum":5287,"ĠRepublican":5288,"amin":5289,"Ġexpansion":5290,"ĠBul":5291,"ĠHy":5292,"ba":5293,"ĠCy":5294,"orus":5295,"Ġunsu":5296,"Ġ1939":5297,"Ġtypes":5298,"Ġfought":5299,"state":5300,"Ġacquired":5301,"illing":5302,"fort":5303,"ipl":5304,"Ġprefer":5305,"ĠOhio":5306,"Ġtable":5307,"ĠLo":5308,"Ġislands":5309,"Ġmis":5310,"Ġcontain":5311,"gent":5312,"ĠFam":5313,"Ġancient":5314,"Ġheadquarters":5315,"ĠWild":5316,"restling":5317,"ĠSund":5318,"agement":5319,"ĠArthur":5320,"iverpool":5321,"Ġcreation":5322,"ĠLike":5323,"agan":5324,"Ġpossibly":5325,"ishes":5326,"Ġgives":5327,"Ġintellig":5328,"ĠBroad":5329,"45":5330,"ĠPublic":5331,"ĠClark":5332,"ĠHarry":5333,"Ġglob":5334,"ĠPhiladelphia":5335,"uting":5336,"ĠWars":5337,"Ġrecently":5338,"ĠBraz":5339,"tendo":5340,"Ġrear":5341,"ĠMen":5342,"kins":5343,"Ġhousehold":5344,"Ġcomedy":5345,"Ġ1986":5346,"Ġsuppor":5347,"Ġexplos":5348,"gn":5349,"Ġnuclear":5350,"ĠAre":5351,"Ġupgr":5352,"Ġdecre":5353,"Ġstraight":5354,"ĠWrit":5355,"Ġgenus":5356,"Ġadvert":5357,"ĠThough":5358,"Ġwithdraw":5359,"Ġfinds":5360,"ĠGeorgia":5361,"ĠBlue":5362,"ĠMD":5363,"ĠMid":5364,"ĠFurther":5365,"edd":5366,"bar":5367,"cont":5368,"Ġmentioned":5369,"ĠFer":5370,"Ġ\"[":5371,"Ġarmed":5372,"mouth":5373,"ĠRet":5374,"Ġfamilies":5375,"Ġroof":5376,"American":5377,"Ġcenturies":5378,"Ġacad":5379,"Ġbattalion":5380,"Ġsets":5381,"Ġaim":5382,"ĠBefore":5383,"ĠElect":5384,"atures":5385,"Ġunf":5386,"respond":5387,"Ġseventh":5388,"bro":5389,"Ġorganized":5390,"Ġdial":5391,"ĠUl":5392,"Ġsecurity":5393,"Station":5394,"Ġcommissioned":5395,"apore":5396,"Ġprotect":5397,"Ġcontributed":5398,"ĠRussia":5399,"Ġthemes":5400,"Ġnorthwest":5401,"Ġdetermined":5402,"oz":5403,"Ġstay":5404,"ulate":5405,"Ġawards":5406,"Ġfinish":5407,"Ġwave":5408,"with":5409,"ĠBru":5410,"inity":5411,"Ġflooding":5412,"Ġstreet":5413,"Ġyounger":5414,"Ġillust":5415,"Ġprovides":5416,"95":5417,"Ġtitles":5418,"Ġarrival":5419,"ĠProt":5420,"incoln":5421,"uzz":5422,"Ġdrop":5423,"Ġsinging":5424,"ĠAsia":5425,"hol":5426,"part":5427,"Ġcommonly":5428,"Ġpurchased":5429,"Ġpowers":5430,"Ġceremony":5431,"Ġentirely":5432,"ĠCambridge":5433,"Ġbott":5434,"bound":5435,"ĠEnd":5436,"Ġ150":5437,"Ġexpedition":5438,"ĠFrancisco":5439,"Ġlocations":5440,"ĠProduction":5441,"Ġfat":5442,"Ġfish":5443,"ĠLy":5444,"Ġsoft":5445,"ĠWW":5446,"Ġtouchdown":5447,"Ġyellow":5448,"Ġadvantage":5449,"ceived":5450,"Ġmist":5451,"ĠEach":5452,"ĠLes":5453,"ĠHead":5454,"Ġaccompanied":5455,"Ġthing":5456,"Ġscheduled":5457,"ĠNintendo":5458,"Ġchoice":5459,"Ġatmosp":5460,"Ġconvers":5461,"ĠFar":5462,"Ġdefensive":5463,"Ġheight":5464,"break":5465,"Ġreflect":5466,"ĠEarl":5467,"usc":5468,"ĠSher":5469,"ĠColumbia":5470,"Ġbudget":5471,"ĠHit":5472,"Ġresemb":5473,"after":5474,"ĠPrime":5475,"ora":5476,"ĠMir":5477,"Ġdidn":5478,"ĠKorean":5479,"ilton":5480,"ĠJer":5481,"season":5482,"ĠUs":5483,"ĠOffice":5484,"Ġcomputer":5485,"ashion":5486,"awa":5487,"Ġ1968":5488,"Ġreact":5489,"Ġtry":5490,"Ġsquad":5491,"ĠCommon":5492,"Ġdrama":5493,"box":5494,"Ġ48":5495,"lim":5496,"Ġfiction":5497,"ĠCD":5498,"rons":5499,"ĠFe":5500,"yles":5501,"Ġconsists":5502,"zant":5503,"Ġunique":5504,"Ġroll":5505,"Ġphilos":5506,"zer":5507,"Ġclosely":5508,"Ġcricket":5509,"ĠLiverpool":5510,"racted":5511,"ĠMov":5512,"Ġfacilities":5513,"Ġsession":5514,"Ġdefence":5515,"Ġwhy":5516,"ĠPlayStation":5517,"Ġbat":5518,"ĠBrazil":5519,"Ġelimin":5520,"Ġdedicated":5521,"ĠLincoln":5522,"ĠAsh":5523,"Ġstrik":5524,"Ġpurpose":5525,"Ġvo":5526,"Ġtrains":5527,"ĠÎ":5528,"ĠPerson":5529,"Ġunus":5530,"elly":5531,"Ġcultural":5532,"Ġfirm":5533,"isa":5534,"Ġdeck":5535,"Ġintensity":5536,"Ġperforming":5537,"ĠMah":5538,"osa":5539,"Ġgraph":5540,"ĠRailway":5541,"Ġvari":5542,"ĠGil":5543,"Ġla":5544,"ilding":5545,"ĠVen":5546,"All":5547,"Ġregions":5548,"Ġcalls":5549,"Ġbelong":5550,"Ġstructures":5551,"ĠBalt":5552,"Ã¸":5553,"ults":5554,"aching":5555,"Ġ55":5556,"Ġdefin":5557,"Ġlic":5558,"ĠGi":5559,"Ġreceiving":5560,"ano":5561,"ĠRel":5562,"Ġselection":5563,"Ġopportunity":5564,"Ġmic":5565,"ĠEp":5566,"cles":5567,"Ġpiano":5568,"ĠRol":5569,"inth":5570,"ĠHay":5571,"Ġsupporting":5572,"ua":5573,"Ġshark":5574,"ĠCarey":5575,"ĠDisney":5576,"47":5577,"Ġprotection":5578,"Ġengaged":5579,"mun":5580,"Ġpros":5581,"Ġcorrespond":5582,"ĠSingapore":5583,"Ġcurrently":5584,"produ":5585,"Ġegg":5586,"FL":5587,"ĠJr":5588,"ĠOlympic":5589,"Ġobserv":5590,"omic":5591,"Ġaid":5592,"ĠOf":5593,"Ġnotable":5594,"ĠGermans":5595,"Ġfix":5596,"unior":5597,"Ġ1985":5598,"ĠGulf":5599,"run":5600,"enc":5601,"Ġcontaining":5602,"ĠConference":5603,"Ġcharts":5604,"ĠBrook":5605,"burgh":5606,"ĠDevelopment":5607,"37":5608,"ifically":5609,"Ġexperienced":5610,"Ġprotected":5611,"Ġ1967":5612,"Ġlabor":5613,"Ġshooting":5614,"opher":5615,"ĠChild":5616,"ĠBurn":5617,"Ġproviding":5618,"Ġcitizens":5619,"Ġ1918":5620,"\";":5621,"Ġfresh":5622,"Ġcomic":5623,"Ġsport":5624,"ĠByzant":5625,"aka":5626,"Ġmotor":5627,"ĠHun":5628,"avel":5629,"ĠAnderson":5630,"Ġrecon":5631,"Ġ1914":5632,"Ġmerch":5633,"AR":5634,"ĠOrder":5635,"Ġrapidly":5636,"ĠShort":5637,"eor":5638,"vest":5639,"Ġmouth":5640,"Ġhair":5641,"Ġhired":5642,"Ġcry":5643,"Ġsites":5644,"ali":5645,"Ġcasualties":5646,"yph":5647,"ĠPot":5648,"Ġnob":5649,"Ġtrail":5650,"ĠPress":5651,"ĠJewish":5652,"Ġconcer":5653,"Ġscholars":5654,"Ġbranch":5655,"Ġgain":5656,"ĠEmperor":5657,"ĠMot":5658,"Ġtail":5659,"Ġsac":5660,"Ġalle":5661,"Ġeyes":5662,"Ġadap":5663,"essed":5664,"heim":5665,"Ġindustrial":5666,"Ġlap":5667,"Ġmountain":5668,"ĠJean":5669,"Ġ1984":5670,"Ġanalysis":5671,"One":5672,"Ġcold":5673,"Ġrecognized":5674,"Ġeconomy":5675,"Ġpublication":5676,"ĠPu":5677,"oncÃ©":5678,"65":5679,"ĠDemocratic":5680,"eral":5681,"Ġresident":5682,"ĠTam":5683,"ographic":5684,"yer":5685,"Ġholding":5686,"omew":5687,"ĠVol":5688,"Ġparallel":5689,"Ġvac":5690,"Ġextrem":5691,"va":5692,"otic":5693,"Ġbeaut":5694,"put":5695,"ĠCa":5696,"Ġlosses":5697,"rence":5698,"Ġfocused":5699,"ati":5700,"itche":5701,"Ġstrengthe":5702,"lar":5703,"ĠBas":5704,"Ġchance":5705,"ologist":5706,"iful":5707,"inking":5708,"Ġsimple":5709,"ĠSS":5710,"Ġ.":5711,"Ã¡n":5712,"Ġdigital":5713,"ĠBank":5714,"Ġvon":5715,"Ġtim":5716,"Ġdry":5717,"Ġrot":5718,"Ġmotion":5719,"ĠMiller":5720,"Ġtransform":5721,"Ġreaction":5722,"Ġrise":5723,"Ġviewed":5724,"Ġprote":5725,"ĠLewis":5726,"Ġec":5727,"Ġdeveloping":5728,"Ġbands":5729,"long":5730,"ĠHon":5731,"Ġbelief":5732,"ĠDie":5733,"Ġquite":5734,"Ġintersection":5735,"Ġletters":5736,"Ġsignificantly":5737,"ĠConn":5738,"come":5739,"Ġcart":5740,"Ġshared":5741,"wise":5742,"Ġvisual":5743,"ĠKir":5744,"achus":5745,"sey":5746,"Ġven":5747,"ĠAlso":5748,"Ġmut":5749,"ĠHMS":5750,"ĠDaily":5751,"Ġfranchise":5752,"lan":5753,"asty":5754,"Ġoccupied":5755,"oir":5756,"Ġliterature":5757,"Ġworth":5758,"ĠAddition":5759,"ĠRome":5760,"Ġthrow":5761,"ĠChap":5762,"ĠLab":5763,"Ġunsuccess":5764,"Ġwitness":5765,"Ġmoder":5766,"64":5767,"Ġconference":5768,"ĠShak":5769,"rad":5770,"unte":5771,"theless":5772,"300":5773,"Ġsteel":5774,"Ġinstruct":5775,"ĠGrant":5776,"onder":5777,"ĠThrough":5778,"ato":5779,"Ġactress":5780,"Ġ1964":5781,"Ġapproved":5782,"Ġgameplay":5783,"Ġheads":5784,"gers":5785,"Ġtechnology":5786,"ropri":5787,"Ġsymbol":5788,"Ġknew":5789,"Ġ1969":5790,"Ġprojects":5791,"Ġexisting":5792,"Ġtemperature":5793,"Ġassault":5794,"Ġreasons":5795,"ĠHollywood":5796,"acter":5797,"Ġgoes":5798,"Ġcars":5799,"Ġstoryline":5800,"ĠGib":5801,"Ġneighbor":5802,"itors":5803,"Ġsteam":5804,"life":5805,"ĠSerb":5806,"ĠSa":5807,"Ġdescend":5808,"Ġsecondary":5809,"onym":5810,"Jo":5811,"Ġharm":5812,"Ġrules":5813,"ients":5814,"verse":5815,"ĠSyd":5816,"ĠRadio":5817,"ĪĴ":5818,"Ġcab":5819,"Ġpopularity":5820,"ĠLieutenant":5821,"icts":5822,"Ġmyth":5823,"Ġresistance":5824,"Ġsave":5825,"Ġmounted":5826,"Ġsemi":5827,"ĠWel":5828,"Ġedge":5829,"Ġsubstant":5830,"Man":5831,"ĠNever":5832,"Ġpainting":5833,"Ġlb":5834,"istan":5835,"Ġprepared":5836,"ĠLar":5837,"Un":5838,"38":5839,"According":5840,"ĠWalter":5841,"ules":5842,"ĠSupreme":5843,"ĠNHL":5844,"ods":5845,"Ġdeclined":5846,"Ġinjured":5847,"Ġcomposition":5848,"Ġsand":5849,"Ġsort":5850,"Ġopinion":5851,"Ġdaily":5852,"Ġ39":5853,"Ġ1983":5854,"Ġanything":5855,"ĠPrinc":5856,"oral":5857,"ader":5858,"osl":5859,"Ġreputation":5860,"Ġ1966":5861,"ĠDavis":5862,"ulpt":5863,"Ġenjoyed":5864,"gal":5865,"Ġundert":5866,"ĠSR":5867,"ĠKey":5868,"Ġadding":5869,"ĠPeople":5870,"organ":5871,"rett":5872,"ĠCommand":5873,"Ġbrown":5874,"Ġagent":5875,"ĠPoint":5876,"ĠWater":5877,"iform":5878,"Ġwa":5879,"Ġdrew":5880,"Ġexact":5881,"Ġrob":5882,"ĠKentucky":5883,"ĠOlympics":5884,"Ġlooking":5885,"bell":5886,"Ġnor":5887,"Ġmuseum":5888,"Ġurban":5889,"Ġboat":5890,"Ġregarding":5891,"achusetts":5892,"Ġ#":5893,"rets":5894,"Ġisol":5895,"Ġseat":5896,"Ġbrothers":5897,"ĠIndust":5898,"ĠStation":5899,"Ġadult":5900,"Ġhyp":5901,"Ġemployed":5902,"Ġpitch":5903,"ĠSix":5904,"ĠJenn":5905,"athan":5906,"ordon":5907,"iter":5908,"ĠFall":5909,"Ġselling":5910,"Ġshall":5911,"Ġshape":5912,"Ġallows":5913,"Ġcard":5914,"ĠSummer":5915,"ĠAv":5916,"ĠProv":5917,"ĠHa":5918,"Ġconverted":5919,"ĠUpon":5920,"Ġagric":5921,"Ġestate":5922,"ĠBell":5923,"Ġ1972":5924,"ĠNorway":5925,"Ġstages":5926,"Ġviews":5927,"osis":5928,"Ġpoem":5929,"66":5930,"Ġcalc":5931,"ĠKen":5932,"Ġstanding":5933,"ĠTurn":5934,"39":5935,"Ġapproached":5936,"zen":5937,"ĠBrian":5938,"ĠMas":5939,"ĠSu":5940,"ira":5941,"ĠAtt":5942,"Ġcited":5943,"ĠSand":5944,"Don":5945,"Ġ1965":5946,"Ġ1971":5947,"Ġresponded":5948,"Ġjourney":5949,"ĠMassachusetts":5950,"ĠAirport":5951,"ĠDark":5952,"Ġstadium":5953,"Ġign":5954,"eman":5955,"Ġsubmar":5956,"Ġroughly":5957,"apes":5958,"Ġretire":5959,"Ġ65":5960,"Ġdrawn":5961,"dd":5962,"Ġdistingu":5963,"psons":5964,"Ġrac":5965,"Ġescort":5966,"Ġalternative":5967,"Ġincreasingly":5968,"ĠFair":5969,"ĠKa":5970,"Ġgetting":5971,"Ġsun":5972,"ignment":5973,"ĠSpecial":5974,"Ġcells":5975,"Ġsucceeded":5976,"Ġcollected":5977,"ĠTro":5978,"Ġexerc":5979,"Ġplanning":5980,"ĠMos":5981,"Ġrenamed":5982,"lee":5983,"leton":5984,"Ġwealth":5985,"ĠBase":5986,"foot":5987,"ĠNap":5988,"real":5989,"Ġcolle":5990,"Ġknowledge":5991,"uration":5992,"Ġconnected":5993,"equ":5994,"Ġ1982":5995,"Ġmodels":5996,"48":5997,"onia":5998,"ĠEven":5999,"Ġsustained":6000,"Ġrebu":6001,"ĠDown":6002,"arp":6003,"Ġ1979":6004,"Ġmissing":6005,"Ġconstitution":6006,"ĠGreg":6007,"Ġoccas":6008,"ĠPhilipp":6009,"spec":6010,"ĠTen":6011,"Ġsafety":6012,"unicip":6013,"lease":6014,"Ġlearned":6015,"ĠWhit":6016,"ĠHan":6017,"Ġintroduction":6018,"istol":6019,"ĠSteve":6020,"iling":6021,"ĠPrem":6022,"Ġturning":6023,"lane":6024,"AC":6025,"ĠBern":6026,"ĠBeyoncÃ©":6027,"Ġ1975":6028,"uro":6029,"Ġ1974":6030,"struct":6031,"Ġ1917":6032,"Ġexistence":6033,"icks":6034,"AT":6035,"Ġdesigns":6036,"ĠLady":6037,"Ġbaseball":6038,"Ġlimit":6039,"Ġimprove":6040,"ela":6041,"ĠIndepend":6042,"ources":6043,"Ġweakened":6044,"Ġoperating":6045,"Ġvolume":6046,"Ġburied":6047,"ĠRoss":6048,"Ġrend":6049,"ko":6050,"Ġoverl":6051,"rate":6052,"iger":6053,"Ġshowing":6054,"Ġlandfall":6055,"Ġlasted":6056,"oli":6057,"Ġhumans":6058,"Ġflu":6059,"Ġpromotion":6060,"atus":6061,"Ġfit":6062,"char":6063,"ĠAbb":6064,"oday":6065,"\"),":6066,"apped":6067,"Ġacres":6068,"Ġscale":6069,"Ġearliest":6070,"hi":6071,"Ġexchange":6072,"Ġperfect":6073,"Ġ1946":6074,"Ġpul":6075,"Ġproceed":6076,"Ġdescription":6077,"iller":6078,"Ġbor":6079,"ĠWomen":6080,"Ġyouth":6081,"Ġequal":6082,"Ġsettlement":6083,"ĠHart":6084,"Ġretained":6085,"ivalent":6086,"ĠSimpsons":6087,"Ġboats":6088,"eler":6089,"Äģ":6090,"Ġprograms":6091,"ivered":6092,"Ġfreeway":6093,"issance":6094,"Ġappoint":6095,"Ġplayoff":6096,"Ġjoint":6097,"Ġ1973":6098,"inary":6099,"inner":6100,"Ġstore":6101,"ĠGra":6102,"Ġrhy":6103,"Ġreplace":6104,"Ġpaint":6105,"insula":6106,"Ġinstall":6107,"ĠSongs":6108,"ĠNaz":6109,"rell":6110,"Ġimpl":6111,"Ġ178":6112,"othes":6113,"iege":6114,"GN":6115,"reets":6116,"Ġstatement":6117,"ĠSydney":6118,"math":6119,"Ġnick":6120,"Ġentrance":6121,"avig":6122,"Ġcool":6123,"Ġreserve":6124,"tic":6125,"Ġapplied":6126,"Ġeasily":6127,"Ġ44":6128,"Ġhydro":6129,"ĠVietnam":6130,"ĠPoland":6131,"ĠNaval":6132,"Ġ400":6133,"ĠAmong":6134,"Ġathlet":6135,"ĠCape":6136,"which":6137,"Ġ1976":6138,"tical":6139,"ĠSus":6140,"eper":6141,"Ġitems":6142,"BS":6143,"Ġconsequ":6144,"ĠOttoman":6145,"Ġassistant":6146,"Ġdepth":6147,"western":6148,"ads":6149,"engers":6150,"Ġtowns":6151,"Ġcredited":6152,"iration":6153,"Ġgradually":6154,"Ġtrip":6155,"izations":6156,"ĠUN":6157,"Ġgenre":6158,"Ġarranged":6159,"Ġcandidate":6160,"Ġsculpt":6161,"ĠSel":6162,"Ġindicated":6163,"ĠBowl":6164,"Ġcoastal":6165,"eless":6166,"Ġstopped":6167,"Ġdomestic":6168,"ĠMu":6169,"Ġpolitics":6170,"Ġmaintain":6171,"Å¡":6172,"Ġdetails":6173,"ushing":6174,"Ġdistribution":6175,"Ġcore":6176,"eke":6177,"night":6178,"ĠDue":6179,"ĠBall":6180,"Ġgross":6181,"Ġlaws":6182,"Ġsupplies":6183,"lik":6184,"ÅĤ":6185,"ĠMTV":6186,"Ġhits":6187,"Ġadvent":6188,"ctions":6189,"77":6190,"Ġ1915":6191,"Ġengines":6192,"Ġviolence":6193,"Ġcontrolled":6194,"Ġcarrying":6195,"Ġways":6196,"ĠImperial":6197,"Ġscientific":6198,"Ġtrust":6199,"ĠIV":6200,"Ġparties":6201,"Ġerr":6202,"mann":6203,"ĠMain":6204,"emies":6205,"ĠStadium":6206,"ĠMcG":6207,"Ġcombination":6208,"Ġsoutheast":6209,"Ġtact":6210,"Ġseems":6211,"ĠColonel":6212,"Ġdelivered":6213,"Ġbattery":6214,"Ġprisoners":6215,"pet":6216,"Ġsections":6217,"Ġunp":6218,"ĠRon":6219,"Ġ1948":6220,"ender":6221,"Ġappeal":6222,"ĠMaryland":6223,"ĠGolden":6224,"level":6225,"poration":6226,"iques":6227,"ador":6228,"urrent":6229,"ĠPlan":6230,"ĠVi":6231,"idden":6232,"Ġstream":6233,"Ġacts":6234,"inois":6235,"hat":6236,"Ġcinem":6237,"Ġentitled":6238,"Ġvan":6239,"ashed":6240,"iversary":6241,"Ġsecure":6242,"ropol":6243,"ĠStew":6244,"ĠPict":6245,"Ġbask":6246,"ĠMeanwhile":6247,"ĠConfeder":6248,"Ġregiment":6249,"ĠArts":6250,"Ġinvestigation":6251,"Ġauth":6252,"Ġknots":6253,"Ġevening":6254,"Ġonline":6255,"Ġtall":6256,"ĠMoore":6257,"ĠTheatre":6258,"Ġsurvived":6259,"Ġdeaths":6260,"Ġproposal":6261,"ja":6262,"46":6263,"Ġroutes":6264,"iy":6265,"Ġbought":6266,"Ġneut":6267,"Ġselect":6268,"ta":6269,"ighters":6270,"ieval":6271,"hus":6272,"Ġwars":6273,"ĠReview":6274,"Ġperhaps":6275,"Ġmessage":6276,"aug":6277,"ĠEdu":6278,"Ġ1916":6279,"aked":6280,"power":6281,"Ġmales":6282,"Ġaddress":6283,"ansas":6284,"yphoon":6285,"Ġthreatened":6286,"Ġtal":6287,"Ġwr":6288,"Ġrecalled":6289,"Ġreduce":6290,"ĠBal":6291,"Ġbed":6292,"bourne":6293,"ingly":6294,"ĠBad":6295,"Ġindependence":6296,"ĠBra":6297,"Ġ41":6298,"Ġdownload":6299,"ician":6300,"aints":6301,"ervative":6302,"ez":6303,"Ġvoted":6304,"Ġcontroversy":6305,"ĠAri":6306,"Ġwrites":6307,"chers":6308,"ĠWalk":6309,"Ġvirt":6310,"Ġ42":6311,"Ġcauses":6312,"othing":6313,"Ġimplement":6314,"Ġreligion":6315,"Ġexclus":6316,"Ġtick":6317,"79":6318,"aki":6319,"Bl":6320,"Ġago":6321,"36":6322,"Ġregister":6323,"Ġ1981":6324,"ĠOnly":6325,"ĠStaff":6326,"Ġdepend":6327,"Ġmeters":6328,"senal":6329,"ĠSpring":6330,"Ġstudied":6331,"entially":6332,"Ġadapted":6333,"Ġtanks":6334,"32":6335,"ĠMulder":6336,"Ġkingdom":6337,"ĠRhodes":6338,"Ġreferences":6339,"Ġfinding":6340,"aware":6341,"fess":6342,"ĠMemorial":6343,"ĠImp":6344,"Ġconvin":6345,"Ġdecade":6346,"ĠBarb":6347,"Ġimportance":6348,"law":6349,"mb":6350,"wich":6351,"Ġaware":6352,"ĠNick":6353,"ĠBand":6354,"ocal":6355,"Ġ1919":6356,"Ġorchest":6357,"anean":6358,"Ġportrayed":6359,"Ġarrested":6360,"ĠAD":6361,"Ġcamera":6362,"Ġwatched":6363,"star":6364,"ĠKong":6365,"Ġfict":6366,"Ġarc":6367,"Ġnomination":6368,"Ġconcerns":6369,"Ġteacher":6370,"Ġfashion":6371,"ĠGordon":6372,"ĠUnivers":6373,"ca":6374,"Ġstret":6375,"Ġglass":6376,"ĠSingles":6377,"Ġcatch":6378,"John":6379,"Ġremainder":6380,"Ġinvited":6381,"Ġadmitted":6382,"ĠJes":6383,"BI":6384,"sex":6385,"Ġpreced":6386,"ordan":6387,"Ġproducing":6388,"Ġdefined":6389,"ĠOnce":6390,"ĠJay":6391,"ĠVill":6392,"Ġspecifically":6393,"ĠAge":6394,"Ġcorner":6395,"Ġrow":6396,"espread":6397,"ĠPlot":6398,"Ġruled":6399,"Ġoffers":6400,"imp":6401,"ĠVar":6402,"Ġretreat":6403,"Ġwinner":6404,"osaurus":6405,"Ġban":6406,"ilation":6407,"Ġoverse":6408,"ĠBon":6409,"Ġfunds":6410,"hr":6411,"Ġ64":6412,"Ġinterested":6413,"itage":6414,"ĠBeach":6415,"abb":6416,"Ġstarts":6417,"Ġrecommended":6418,"Ġones":6419,"Ġinternal":6420,"Ġinstalled":6421,"Ġobjects":6422,"ĠConstant":6423,"Ġlov":6424,"Ġcapable":6425,"Ġsell":6426,"Ġshut":6427,"Ġfemales":6428,"gency":6429,"Ġproducts":6430,"Ġcampus":6431,"Ġopera":6432,"Ġcrossed":6433,"ĠJan":6434,"Ġuns":6435,"rete":6436,"Ġcomposer":6437,"Ġ1938":6438,"Ġ120":6439,"Ġsouthwest":6440,"Ġimpr":6441,"Ġactual":6442,"erted":6443,"cluding":6444,"Ġcrime":6445,"ĠInstead":6446,"Ġphase":6447,"Ġpromote":6448,"da":6449,"Ġaw":6450,"osite":6451,"Ġgrounds":6452,"Ġtell":6453,"'d":6454,"borne":6455,"Ġduties":6456,"ĠBir":6457,"ĠGram":6458,"Ġnote":6459,"AAF":6460,"Ġsomew":6461,"Ġmedal":6462,"Ġshel":6463,"Ġbottom":6464,"Ġsnow":6465,"vements":6466,"Ġtank":6467,"Ġflat":6468,"Ġmilit":6469,"burn":6470,"Ġconqu":6471,"Ġrelief":6472,"ĠJustice":6473,"Ġstock":6474,"Ġdates":6475,"Ġpenal":6476,"Ġsynthe":6477,"Ġhotel":6478,"Ġprice":6479,"emed":6480,"Ġcharged":6481,"!\"":6482,"Ġprincipal":6483,"bu":6484,"Ġacid":6485,"Ġextension":6486,"You":6487,"Ġdecades":6488,"ĠUTC":6489,"Ġ1963":6490,"Ġ1978":6491,"ĠPass":6492,"elson":6493,"Ġextremely":6494,"Ġclim":6495,"ĠAbout":6496,"Le":6497,"cious":6498,"reck":6499,"Ġmanner":6500,"Ġimages":6501,"ĠForest":6502,"Ġautom":6503,"ĠVII":6504,"Ġoccurs":6505,"Ġconsisting":6506,"usic":6507,"Ġentry":6508,"Ġaspects":6509,"ĠNether":6510,"Ġbreeding":6511,"85":6512,"Ġconsiderable":6513,"mes":6514,"Ġ1962":6515,"ĠâĪĴ":6516,"wan":6517,"ĠFound":6518,"Ġsole":6519,"Ġble":6520,"icate":6521,"icit":6522,"Ġvent":6523,"Ġ1977":6524,"Ġmort":6525,"Ġconsum":6526,"ione":6527,"ĠDream":6528,"Ġnoting":6529,"Ġpoly":6530,".)":6531,"ĠFire":6532,"Ġrural":6533,"ĠUr":6534,"ophy":6535,"Ġchallenge":6536,"Ġnest":6537,"Ġremix":6538,"Ġidentity":6539,"ensus":6540,"ivals":6541,"iley":6542,"Ġrestaur":6543,"ĠMcK":6544,"ĠDougl":6545,"ĠBos":6546,"ĠCop":6547,"Ġsufficient":6548,"34":6549,"Ġposted":6550,"Ġeverything":6551,"Ġbrigade":6552,"Ġvolcan":6553,"ĠKennedy":6554,"ĠWat":6555,"Ġsupporters":6556,"Ġvessels":6557,"600":6558,"Ġduty":6559,"Ġadministr":6560,"Ġsoul":6561,"ĠMoon":6562,"Ġapart":6563,"Re":6564,"Ġaer":6565,"Ġsomeone":6566,"Ġdescribing":6567,"uty":6568,"ĠAdams":6569,"Ġslowly":6570,"ĠEngine":6571,"Ġevolution":6572,"ĠTransport":6573,"regon":6574,"Ġ47":6575,"erto":6576,"Ġzone":6577,"ĠHamilton":6578,"Ġfly":6579,"Ġrated":6580,"ĠAnth":6581,"ĠAk":6582,"agues":6583,"risis":6584,"ĠInc":6585,"cknow":6586,"Ġdebate":6587,"ĠAssembly":6588,"Ġobtained":6589,"Ġinvolving":6590,"Ġfrag":6591,"iterr":6592,"ĠIndiana":6593,"ĠMagazine":6594,"Ġ46":6595,"cation":6596,"Ġtypical":6597,"Ġreading":6598,"Ġsubs":6599,"31":6600,"alog":6601,"ĠOk":6602,"ooth":6603,"CC":6604,"Ġenemies":6605,"Ġdepartment":6606,"ĠAlf":6607,"Ġintegr":6608,"Ġham":6609,"Ġ1936":6610,"ĠIGN":6611,"Ġpurchase":6612,"Ġaccur":6613,"heastern":6614,"Ġdeparture":6615,"Ġpatrol":6616,"ĠMilitary":6617,"Ġdecline":6618,"Ġsettled":6619,"Ġclasses":6620,"ĠNic":6621,"Ġcorrect":6622,"ommod":6623,"Ġconcerned":6624,"Ġarmor":6625,"Ġwidespread":6626,"Ġconnection":6627,"aret":6628,"ĠWeekly":6629,"Ġaccused":6630,"orney":6631,"ĠPit":6632,"ĠRoy":6633,"Ġparliament":6634,"ĠDirector":6635,"Ġmemorial":6636,"going":6637,"Ġpermanent":6638,"Ġcrown":6639,"Ġtele":6640,"ĠProg":6641,"\").":6642,"Ġet":6643,"Ġdriving":6644,"Ġ1956":6645,"Ġrevolution":6646,"Ġdeleg":6647,"ĠâĢĿ":6648,"Ġattached":6649,"body":6650,"vis":6651,"ĠScully":6652,"Ġowner":6653,"ao":6654,"wegian":6655,"55":6656,"book":6657,"Ġassumed":6658,"game":6659,"Ġgall":6660,"ĠIndones":6661,"ĠHou":6662,"Ġacclaim":6663,"Ġrecognition":6664,"agonist":6665,"ĠCirc":6666,"Ġbasic":6667,"don":6668,"sky":6669,"ĠOb":6670,"Ġformal":6671,"Ġsequel":6672,"Ġsessions":6673,"iminal":6674,"iva":6675,"Ġspeak":6676,"ĠRem":6677,"Ġreturns":6678,"iterranean":6679,"Ġdenied":6680,"Ġcolour":6681,"ĠHoward":6682,"Ġacknow":6683,"Ġdecor":6684,"Ġsurvey":6685,"ĠTony":6686,"Ġpopulations":6687,"IA":6688,"Ġentering":6689,"RA":6690,"ĠKim":6691,"Ġfoss":6692,"Ġpup":6693,"Ġeighth":6694,"Ġcharges":6695,"Ġcommitted":6696,"idges":6697,"ĠVideo":6698,"Ġwickets":6699,"Ġfolk":6700,"Ġcann":6701,"ĠIllinois":6702,"ekend":6703,"Ġvalley":6704,"Ġcong":6705,"SBN":6706,"ibb":6707,"achel":6708,"Ġcanc":6709,"Ġouter":6710,"hedral":6711,"Ġoldest":6712,"Ġtemple":6713,"ĠSunday":6714,"Ġfaith":6715,"ĠPortug":6716,"ĠArgent":6717,"ng":6718,"ami":6719,"udden":6720,"ĠAlan":6721,"ĠProject":6722,"Ġcertified":6723,"weight":6724,"ĠScience":6725,"ĠHitler":6726,"ĠMountain":6727,"minute":6728,"Ġheaded":6729,"ĠColl":6730,"ĠMaria":6731,"Ġsegment":6732,"49":6733,"po":6734,"ĠCart":6735,"Ġmode":6736,"Ġthousands":6737,"ĠSimon":6738,"Ġcircum":6739,"Ġterminus":6740,"ece":6741,"Ġdisturb":6742,"Ġsailed":6743,"ĠMediterranean":6744,"rophy":6745,"Ġsolid":6746,"Ġpossibility":6747,"69":6748,"Ġpassengers":6749,"ĠResearch":6750,"ĠConstitution":6751,"Ġsupposed":6752,"ĠHor":6753,"ĠPear":6754,"Ġshots":6755,"Ġdoor":6756,"irt":6757,"Ġcirculation":6758,"ĠPo":6759,"Ġtransition":6760,"ĠRolling":6761,"Ġdowntown":6762,"Ġswim":6763,"ras":6764,"ĠOregon":6765,"veland":6766,"nic":6767,"Ġspons":6768,"point":6769,"Ġalt":6770,"ban":6771,"Ġliterary":6772,"upt":6773,"aza":6774,"Ġ1961":6775,"isms":6776,"atinum":6777,"Ġbehavior":6778,"Ġassistance":6779,"Ġwearing":6780,"...]":6781,"Ġstrongly":6782,"Ġregional":6783,"Ġ1953":6784,"Ġdated":6785,"hered":6786,"Ġbegun":6787,"har":6788,"Ġhip":6789,"adow":6790,"Ġans":6791,"lets":6792,"ĠÃĹ":6793,"No":6794,"Ġreplacement":6795,"ĠCleveland":6796,"Ġcosts":6797,"ĠBeatles":6798,"To":6799,"Ġcommanded":6800,"ĠBry":6801,"Ġ1910":6802,"Ġthirty":6803,"ĠIra":6804,"Ġ1947":6805,"Ġminister":6806,"Ġtorn":6807,"onto":6808,"ategy":6809,"ĠGun":6810,"ĠKorea":6811,"Ġintelligence":6812,"ĠDouglas":6813,"eing":6814,"arsh":6815,"Ġcommit":6816,"ĠAdam":6817,"Ġmissions":6818,"Ġproperties":6819,"ĠYour":6820,"Ġmoves":6821,"Ġhill":6822,"ĠLeon":6823,"ĠRose":6824,"ker":6825,"ĠPower":6826,"ĠFeder":6827,"ĠJane":6828,"ĠInit":6829,"Ġhope":6830,"ĠJordan":6831,"ĠChannel":6832,"ĠMedia":6833,"ĠHug":6834,"Ġrecovered":6835,"ĠFreder":6836,"Ġdress":6837,"Ġwarm":6838,"ĠStanley":6839,"Ġfictional":6840,"Ġfruit":6841,"Ġhosted":6842,"Ġcloud":6843,"Ġblow":6844,"Ġtow":6845,"Ġfreedom":6846,"Ġclean":6847,"Ġ1937":6848,"Ġattributed":6849,"oyd":6850,"Ġintercept":6851,"Ġskin":6852,"olec":6853,"?\"":6854,"68":6855,"fire":6856,"enses":6857,"umin":6858,"ĠKat":6859,"Ġdestruction":6860,"ĠCritical":6861,"bre":6862,"Ġmissed":6863,"ĠRyan":6864,"Ġprotest":6865,"Ġincorporated":6866,"Ġfinishing":6867,"Ġfilled":6868,"Ġhang":6869,"alo":6870,"riers":6871,"Ġalleged":6872,"Ġatmosphere":6873,"sole":6874,"anth":6875,"ĠLenn":6876,"ĠDeath":6877,"Ġbringing":6878,"car":6879,"ĠTreat":6880,"Ġdemand":6881,"Ġsons":6882,"Ġopposite":6883,"Ġshop":6884,"Ġhighlight":6885,"Ġexception":6886,"ĠNBA":6887,"Ġserves":6888,"Ġcrash":6889,"oslav":6890,"Ġtheatre":6891,"thm":6892,"Ġmethods":6893,"ĠMexican":6894,"400":6895,"ĠBristol":6896,"ĠPhilip":6897,"ji":6898,"wen":6899,"Ġdemol":6900,"Ġregularly":6901,"Ġchampion":6902,"Ġprey":6903,"Ġemp":6904,"Ġdipl":6905,"ĠWell":6906,"ĠFame":6907,"uts":6908,"Ġintention":6909,"Ġcourts":6910,"Ġcavalry":6911,"Ġmaterials":6912,"67":6913,"ici":6914,"Ġcompletion":6915,"iot":6916,"ĠEric":6917,"Ġvolunte":6918,"Ġdissip":6919,"Ġfine":6920,"Ġvary":6921,"ĠThird":6922,"Ġstayed":6923,"bec":6924,"chang":6925,"ĠSav":6926,"Ġresponsibility":6927,"Ġaccommod":6928,"Ġattracted":6929,"Ġstrateg":6930,"fe":6931,"ige":6932,"ĠFederal":6933,"ĠFA":6934,"Ġdifferences":6935,"ĠColor":6936,"Ġfeeling":6937,"Ġoccasionally":6938,"Ġsche":6939,"active":6940,"Ġpersu":6941,"Ġsurviving":6942,"Ġunusual":6943,"Ġdivers":6944,"Ġsuperv":6945,"abled":6946,"ipe":6947,"Ġbrain":6948,"Ġaboard":6949,"44":6950,"emeter":6951,"Ġfields":6952,"Ġderived":6953,"Ġincome":6954,"Ġpassage":6955,"From":6956,"Ġeffectively":6957,"Ġprovince":6958,"ubb":6959,"Ġ52":6960,"Ġclubs":6961,"aired":6962,"agle":6963,"Ġentertain":6964,"omot":6965,"ogen":6966,"Ġ1957":6967,"Ġ[...]":6968,"Ġinterpret":6969,"nings":6970,"Ġ1958":6971,"ĠPhill":6972,"Ġcruiser":6973,"ĠTenn":6974,"Ġdivisions":6975,"Ġratings":6976,"Ġmusicians":6977,"Ġanimated":6978,"ĠBa":6979,"using":6980,"pping":6981,"Ġreinforce":6982,"ĠISBN":6983,"inder":6984,"ĠMarc":6985,"Ġoutbreak":6986,"ĠBetween":6987,"ĠWWE":6988,"ompl":6989,"Ġwarning":6990,"ĠBruce":6991,"teenth":6992,"Ġeleven":6993,"ĠSweden":6994,"'ll":6995,"ĠBush":6996,"Ġquant":6997,"Ġvotes":6998,"ĠSpace":6999,"Ġclassified":7000,"Ġbattleships":7001,"iece":7002,"Ġassociation":7003,"ĠGen":7004,"Ġclassification":7005,"Ġclimate":7006,"ĠHo":7007,"ĠStand":7008,"Ġdesire":7009,"Ġstood":7010,"ĠAndy":7011,"Ġhoped":7012,"rum":7013,"Ġpredecess":7014,"ĠBol":7015,"Ġshore":7016,"Ġemerged":7017,"pper":7018,"Ġrooms":7019,"abil":7020,"Ġrequested":7021,"Ġheat":7022,"Ġspok":7023,"Ġmovements":7024,"ĠNorwegian":7025,"Ã³n":7026,"Ġdang":7027,"ewhere":7028,"Ġancest":7029,"Ġhistorians":7030,"ĠWeb":7031,"ĠGer":7032,"Ġdifficulty":7033,"ĠArsenal":7034,"Ġ1954":7035,"Ġcommunities":7036,"Ġtechnical":7037,"gets":7038,"ĠLanc":7039,"Ġsam":7040,"Ġton":7041,"Ġflo":7042,"ĠNations":7043,"inton":7044,"Ġchemical":7045,"Ġtied":7046,"Ġraise":7047,"Ġrose":7048,"ĠMorris":7049,"Ġbasketball":7050,"ĠPur":7051,"Ġvide":7052,"Ġ1959":7053,"writer":7054,"Ġprogramme":7055,"ĠRun":7056,"anny":7057,"Ġrestored":7058,"ĠMorgan":7059,"Ġreality":7060,"ĠTelevision":7061,"If":7062,"Ġvehicle":7063,"ĠBah":7064,"ĠFamily":7065,"Ġglobal":7066,"exp":7067,"Ġinjuries":7068,"Ġestablishment":7069,"Ġpremiere":7070,"Ġment":7071,"Ġsounds":7072,"Ġmemory":7073,"ĠPremier":7074,"Ġ1955":7075,"ĠRoger":7076,"Ġexpect":7077,"Ġinspiration":7078,"aya":7079,"ĠNetherlands":7080,"Ġaccounts":7081,"nce":7082,"Ġnone":7083,"iate":7084,"Ġpenalty":7085,"lig":7086,"Ġequipped":7087,"ĠRow":7088,"oster":7089,"Ġchorus":7090,"coming":7091,"Ġfunding":7092,"Ġsurrounded":7093,"Ġsqu":7094,"oming":7095,"uther":7096,"Ġpraise":7097,"Ġbatting":7098,"formula":7099,"ĠToronto":7100,"ĠRobinson":7101,"place":7102,"Ġready":7103,"Ġcrop":7104,"Ġotherwise":7105,"Ġdepict":7106,"Ġille":7107,"onds":7108,"Ġseparated":7109,"ĠLow":7110,"ĠWho":7111,"Ġneither":7112,"Ġgreatly":7113,"Ġclaiming":7114,"ache":7115,"Ġrelative":7116,"ompson":7117,"ĠTemple":7118,"Ġflank":7119,"ses":7120,"irds":7121,"ĠDisc":7122,"Ġdiscovery":7123,"Ġspin":7124,"Ġanniversary":7125,"Ġpicture":7126,"ĠTurk":7127,"ĠByzantine":7128,"ĠAdditionally":7129,"ĠAst":7130,"ĠBudd":7131,"ĠEver":7132,"Ġkid":7133,"Ġdelayed":7134,"Ġpartner":7135,"Ġneeds":7136,"ES":7137,"ĠAnton":7138,"Ġstrategy":7139,"ĠPier":7140,"ĠFord":7141,"Ġspoke":7142,"Ġgal":7143,"ĠNelson":7144,"Ġtries":7145,"ĠCas":7146,"ĠRaj":7147,"Ġmo":7148,"uble":7149,"Ġteen":7150,"ĠScient":7151,"ĠFrancis":7152,"ĠCab":7153,"agre":7154,"Ġcrosses":7155,"Ġweapon":7156,"itter":7157,"Ġdream":7158,"gun":7159,"Ġarchitecture":7160,"Ġ54":7161,"Ġremember":7162,"Ġdismissed":7163,"Ġdetermine":7164,"Ġaccompl":7165,"Ġ1952":7166,"ĠTar":7167,"ĠIraq":7168,"Ġ43":7169,"Ġastron":7170,"ooking":7171,"ĠRecording":7172,"Ġrecru":7173,"Ġcheck":7174,"Ġfear":7175,"ĠFinn":7176,"Ġinvolvement":7177,"Ġseemed":7178,"ĠJews":7179,"ĠHere":7180,"Ġremn":7181,"ĠSky":7182,"Ġ1933":7183,"Ġsuit":7184,"Ġadaptation":7185,"li":7186,"Ġdie":7187,"Ġbombard":7188,"Despite":7189,"Ġresources":7190,"Ġ1935":7191,"aria":7192,"wealth":7193,"aire":7194,"ĠAllen":7195,"Ġinterests":7196,"Ġensure":7197,"Ġscheme":7198,"ĠHawai":7199,"Ġshif":7200,"Ġreserv":7201,"rep":7202,"Ġtemporary":7203,"mate":7204,"ĠSports":7205,"itzer":7206,"ĠCentre":7207,"Ġconvinced":7208,"Ġhear":7209,"Ġassemb":7210,"ĠConc":7211,"Ġstands":7212,"ester":7213,"Ġstreets":7214,"Ġdocumentary":7215,"ĠKevin":7216,"Ġlibrary":7217,"Ġash":7218,"icide":7219,"ĠNich":7220,"asure":7221,"acre":7222,"Ġtechniques":7223,"Ã±":7224,"ĠMarine":7225,"ĠOak":7226,"Ġwrong":7227,"Ad":7228,"Ġraces":7229,"Ġsale":7230,"Ġthrone":7231,"DS":7232,"lie":7233,"ĠFive":7234,"Ġlegend":7235,"Ġsatisf":7236,"ĠToday":7237,"ĠJacob":7238,"Ġphotograph":7239,"host":7240,"ĠJournal":7241,"ĠMaster":7242,"osure":7243,"Ġcommemor":7244,"Cl":7245,"Ġplane":7246,"Ġeggs":7247,"ĠDesign":7248,"á»":7249,"ĠNetwork":7250,"Ġscrap":7251,"Ġsurviv":7252,"Sc":7253,"Ġcul":7254,"Ġreviewer":7255,"ĠDean":7256,"ossible":7257,"acent":7258,"ĠBishop":7259,"Ġpremiered":7260,"ĠPuerto":7261,"Ġha":7262,"ĠAthe":7263,"Ġadults":7264,"ĠGlob":7265,"Ġlake":7266,"Ġelse":7267,"ronze":7268,"Ġimmediate":7269,"oen":7270,"ĠProfess":7271,"Ġmassive":7272,"Ġfal":7273,"Ġshr":7274,"ĠTechn":7275,"Ġinterior":7276,"ĠArmen":7277,"zy":7278,"ĠIron":7279,"Ġairport":7280,"ĠShortly":7281,"vens":7282,"Ġconclusion":7283,"ivan":7284,"Ġ1949":7285,"Ġ1951":7286,"Ġgirls":7287,"Ġabsence":7288,"Ġacademic":7289,"Ġmedieval":7290,"Ġfalling":7291,"ĠDog":7292,"Ġpartn":7293,"inter":7294,"Ġcharacteristics":7295,"Ġdeemed":7296,"Ġfacility":7297,"Ġweekend":7298,"ĠGill":7299,"Ġtra":7300,"Ġconvection":7301,"Ġengineer":7302,"Ġdens":7303,"ĠDig":7304,"Ġtemperatures":7305,"Ġinner":7306,"Ġloyal":7307,"Ġcolony":7308,"Ġleads":7309,"ĠNiel":7310,"Ġafterwards":7311,"ĠCarter":7312,"ĠCE":7313,"aser":7314,"ĠWelsh":7315,"Ġencouraged":7316,"pon":7317,"Ġconvent":7318,"lyn":7319,"Ġ1900":7320,"Ġlegislation":7321,"Ġfitted":7322,"apse":7323,"opes":7324,"Ġpassenger":7325,"rik":7326,"ternal":7327,"Ġsurpr":7328,"ĠMarg":7329,"sea":7330,"roit":7331,"ĠLibrary":7332,"ĠAnne":7333,"Ġappearing":7334,"iday":7335,"Ġvisible":7336,"ixon":7337,"scape":7338,"urches":7339,"Ġmeets":7340,"Ġrenew":7341,"ĠAgain":7342,"Ġturb":7343,"uster":7344,"Ġgrant":7345,"Ġsuperior":7346,"ĠAut":7347,"Ġ85":7348,"who":7349,"Ġlies":7350,"ĠInt":7351,"Ġattempting":7352,"Ġbelieves":7353,"ĠGard":7354,"Ġsight":7355,"Ġseeing":7356,"Ġdoct":7357,"Ġsed":7358,"Ġalien":7359,"ĠArn":7360,"ĠSimilar":7361,"elle":7362,"ĠFront":7363,"owa":7364,"ĠPatrick":7365,"Ġmunicip":7366,"ĠMars":7367,"Ġattacking":7368,"Ġholds":7369,"ĠEle":7370,"Ġsecured":7371,"edding":7372,"Ġmodified":7373,"Ġfighter":7374,"Ġdepicted":7375,"indu":7376,"Ġappropri":7377,"Ġpresidential":7378,"Ġninth":7379,"Ġcarbon":7380,"Ġcontroversial":7381,"99":7382,"Ġtheat":7383,"rait":7384,"Ġhabitat":7385,"Ġ51":7386,"Ġstandards":7387,"Ġabsor":7388,"Ġwings":7389,"Ġfled":7390,"encies":7391,"atically":7392,"ĠBou":7393,"ĠWy":7394,"ugoslav":7395,"Ġunsuccessful":7396,"ĠHend":7397,"Ġdating":7398,"ĠLabor":7399,"eline":7400,"Ġbattleship":7401,"Ġworst":7402,"ĠDomin":7403,"Ġforming":7404,"ultane":7405,"ĠNorman":7406,"Ġmonarch":7407,"Ġsuffering":7408,"ĠPalace":7409,"where":7410,"shaped":7411,"Ġelections":7412,"aska":7413,"Ġcredit":7414,"My":7415,"800":7416,"Ġdistributed":7417,"Ġretirement":7418,"arc":7419,"Ġgeneration":7420,"Ġarchae":7421,"Ġrum":7422,"Ġgraphics":7423,"ĠDer":7424,"ĠOpen":7425,"Ġcontinuing":7426,"apping":7427,"aft":7428,"mith":7429,"igration":7430,"ĠThompson":7431,"Ġcancer":7432,"ĠLisa":7433,"fare":7434,"ĠTrib":7435,"Ġconsp":7436,"Ġbright":7437,"axon":7438,"Ġsomewhat":7439,"Ġarrangement":7440,"eenth":7441,"Ġcode":7442,"She":7443,"ĠHoly":7444,"aste":7445,"Ġclassic":7446,"Ġauthors":7447,"Ġwins":7448,"ĠHospital":7449,"ĠAz":7450,"ĠCommonwealth":7451,"ĠPak":7452,"ĠKelly":7453,"emetery":7454,"Ġgone":7455,"agu":7456,"Ġanyone":7457,"Ġrailroad":7458,"Ġic":7459,"ribed":7460,"ĠDE":7461,"ĠEducation":7462,"Ġenl":7463,"43":7464,"ĠSin":7465,"ĠCorporation":7466,"Ġacknowled":7467,"Ġbuy":7468,"ĠRain":7469,"Ġromantic":7470,"ĠId":7471,"Ġachieve":7472,"ĠSant":7473,"ĠHarris":7474,"Ġfur":7475,"Ġoperate":7476,"Ġpure":7477,"Ġcarrier":7478,"text":7479,"Ġmeasures":7480,"Ġcategory":7481,"Ġlanded":7482,"Ġjudge":7483,"olph":7484,"una":7485,"Ġgarrison":7486,"Ġrescue":7487,"SP":7488,"ito":7489,"Ġfavorite":7490,"ĠWinter":7491,"Ġclassical":7492,"inally":7493,"isen":7494,"tenance":7495,"ĠBerlin":7496,"New":7497,"ois":7498,"61":7499,"Ġconvention":7500,"Ġeveryone":7501,"eping":7502,"Ġmyster":7503,"rees":7504,"Ġspr":7505,"ĠTok":7506,"Ġsees":7507,"Ġstyles":7508,"ĠYan":7509,"ĠHouston":7510,"Ġmap":7511,"Ġ58":7512,"Ġ1913":7513,"Star":7514,"mad":7515,"ĠWright":7516,"Ġtrials":7517,"Ġgrass":7518,"ĠBrother":7519,"otype":7520,"Ġsudden":7521,"Ġdeployed":7522,"Ġdub":7523,"Ġlooked":7524,"Ġalleg":7525,"Ġsiege":7526,"ogether":7527,"Ġnovels":7528,"Ġcloser":7529,"Ġquestions":7530,"Ġinfluences":7531,"Ġcolonial":7532,"Ġinfluential":7533,"Some":7534,"ĠStory":7535,"ĠParker":7536,"ĠLet":7537,"ĠCooper":7538,"Ġinformed":7539,"Se":7540,"ture":7541,"Ġhal":7542,"ĠNFL":7543,"ĠEs":7544,"ĠWhe":7545,"Ġbelt":7546,"ĠPolice":7547,"arked":7548,"ĠIslam":7549,"ĠGri":7550,"Ġexperiences":7551,"Ġfestival":7552,"Ġveter":7553,"ĠDick":7554,"udes":7555,"raph":7556,"ĠPow":7557,"ĠDNA":7558,"Ġsuccessor":7559,"imore":7560,"Ġ1921":7561,"usted":7562,"Ġemergency":7563,"Ġinstruments":7564,"Ġmolec":7565,"ĠYugoslav":7566,"Ġchildhood":7567,"ĠRussell":7568,"Ġnickn":7569,"Ġ1926":7570,"Ġjournalist":7571,"obi":7572,"Ġmathem":7573,"Ġunion":7574,"ĠAdvent":7575,"Ġcoins":7576,"72":7577,"Ġassass":7578,"Ġdetail":7579,"iens":7580,"abs":7581,"ĠThus":7582,"Ġvictims":7583,"Ġfactors":7584,"ĠDetroit":7585,"achment":7586,"noon":7587,"ĠRick":7588,"Ġoffices":7589,"Ġlat":7590,"ĠUt":7591,"idi":7592,"oto":7593,"Ġnarrative":7594,"Ġenvironmental":7595,"ĠBatman":7596,"ĠDor":7597,"ĠâĤ":7598,"ĠSanta":7599,"Ġrepresenting":7600,"Ġpregn":7601,"Ġdiscussed":7602,"rolled":7603,"stances":7604,"ĠBang":7605,"Ġgets":7606,"Ġlegs":7607,"ĠBure":7608,"iliar":7609,"Ġmoderate":7610,"ĠNow":7611,"ĠIndians":7612,"Ġ1934":7613,"Ġstead":7614,"Ġ1912":7615,"Ġresigned":7616,"Ġhistoric":7617,"ĠCommander":7618,"Ġchairman":7619,"Ġclimb":7620,"hetic":7621,"Ġdefended":7622,"Ġdepos":7623,"62":7624,"Ġmaint":7625,"raf":7626,"ĠMurray":7627,"orous":7628,"Ġmine":7629,"Ġjump":7630,"ĠCroatia":7631,"Ġlongest":7632,"Ġskills":7633,"Ġowners":7634,"Ġpainted":7635,"Ġ160":7636,"ĠRoberts":7637,"Ġveget":7638,"ĠWarner":7639,"Ġprevented":7640,"Ġwooden":7641,"ĠBelg":7642,"icians":7643,"Ġenters":7644,"MA":7645,"Ġnavig":7646,"58":7647,"yo":7648,"Ġapparently":7649,"lock":7650,"ĠSum":7651,"Ġridge":7652,"Ġopponents":7653,"Ġlanguages":7654,"ĠSwedish":7655,"ĠConstruction":7656,"Ġspend":7657,"Ġreleases":7658,"Ġreveals":7659,"Ġbiggest":7660,"away":7661,"Ġthereafter":7662,"Ġfootage":7663,"Ġru":7664,"Ġhappened":7665,"ĠXbox":7666,"Ġhundreds":7667,"phy":7668,"Ġlocomot":7669,"Ġtreated":7670,"ĠMelbourne":7671,"Ġrelationships":7672,"term":7673,"Ġflew":7674,"rain":7675,"Ġequivalent":7676,"rant":7677,"Ġresign":7678,"hatt":7679,"59":7680,"ĠBeck":7681,"CA":7682,"Con":7683,"ĠLyn":7684,"ĠNielsen":7685,"Ġexcess":7686,"onies":7687,"Ġster":7688,"Ġalco":7689,"Ġexecuted":7690,"Ġpreferred":7691,"ĠBi":7692,"Ġconstant":7693,"Ġreportedly":7694,"ĠMerc":7695,"Ġdifference":7696,"ĠSocial":7697,"Ġcycle":7698,"ĠCategory":7699,"ĠHell":7700,"Ġvisitors":7701,"Ġchapter":7702,"olis":7703,"Ġride":7704,"related":7705,"Ġinhabit":7706,"Ġemployees":7707,"Ġuniform":7708,"Ġintent":7709,"Ġaccompany":7710,"Ġdiplom":7711,"Ġsurrender":7712,"42":7713,"Ġdeparted":7714,"jo":7715,"stic":7716,"utt":7717,"ĠMort":7718,"Ġanimation":7719,"Ġparticipate":7720,"ais":7721,"Ġpushed":7722,"Ġgiant":7723,"iat":7724,"Ġextent":7725,"ĠAlbums":7726,"Ġdevice":7727,"ĠTower":7728,"ĠMatthew":7729,"ĠGaga":7730,"hard":7731,"ĠÅ":7732,"ĠEvans":7733,"Ġexisted":7734,"Ne":7735,"Ġbon":7736,"ĠSomers":7737,"Ġhearing":7738,"ropolitan":7739,"unes":7740,"Ġinstance":7741,"mates":7742,"ĠSpears":7743,"nest":7744,"Ġbreaking":7745,"Ġ1932":7746,"Ġdialogue":7747,"Ġannounce":7748,"Ġcruisers":7749,"orial":7750,"orage":7751,"ĠVice":7752,"ye":7753,"ĠNBC":7754,"arth":7755,"Ġexposed":7756,"Ġpoetry":7757,"ĠUSS":7758,"Ġconvoy":7759,"igen":7760,"rior":7761,"din":7762,"Ġwatching":7763,"Ġvision":7764,"endment":7765,"ullivan":7766,"hand":7767,"ls":7768,"ĠClinton":7769,"Ġperiods":7770,"ĠGreece":7771,"ĠKnight":7772,"Ġemotional":7773,"ĠStewart":7774,"rot":7775,"Ġboil":7776,"Ġeat":7777,"ĠMun":7778,"ologists":7779,"ĠCru":7780,"ĠChamber":7781,"Ġ1929":7782,"Ġbes":7783,"ĠNob":7784,"ogan":7785,"umph":7786,"Ġ250":7787,"Ġrebell":7788,"Ġthousand":7789,"opter":7790,"Ġ53":7791,"Ġaudio":7792,"ĠTs":7793,"ĠPrincess":7794,"ĠAI":7795,"Ġreviewers":7796,"ĠQueens":7797,"ĠFoundation":7798,"Ġocean":7799,"Ġimpressed":7800,"Ġterritories":7801,"Ġvideos":7802,"roke":7803,"ĠLast":7804,"Ġ1922":7805,"ĠColorado":7806,"ĠSilver":7807,"Ġresidential":7808,"Ġformally":7809,"iami":7810,"ĠNC":7811,"Ġdetailed":7812,"ĠCroatian":7813,"Ġbeach":7814,"Ġteeth":7815,"borough":7816,"Ġtrained":7817,"Ġintense":7818,"viation":7819,"Ġuniverse":7820,"ĠLane":7821,"ĠGuy":7822,"Ġimprison":7823,"ĠAuthor":7824,"igs":7825,"Ġ1911":7826,"Ġneck":7827,"Ġpublisher":7828,"Ġhunting":7829,"74":7830,"ĠPope":7831,"Ġformat":7832,"ĠCook":7833,"ĠSamuel":7834,"Ġsympt":7835,"ĠBaltimore":7836,"ennis":7837,"71":7838,"Ġnotably":7839,"Ġlearning":7840,"Ġnegotiations":7841,"Ġtests":7842,"Ġencountered":7843,"Ġ1927":7844,"ĠAustria":7845,"mile":7846,"ĠRaw":7847,"ĠChronic":7848,"Ġtempor":7849,"ĠAnthony":7850,"Ġske":7851,"Ġbridges":7852,"ĠSpe":7853,"ĠAsian":7854,"Ġutil":7855,"ĠDeb":7856,"ĠLi":7857,"Ġwithdrew":7858,"Ġagents":7859,"Ġsubstantial":7860,"icer":7861,"ĠRAF":7862,"Ġpointed":7863,"Ġstarred":7864,"Ġenthus":7865,"Ġisolated":7866,"ĠFree":7867,"Ġdriver":7868,"Ġbehavi":7869,"Ġvessel":7870,"Ġchannel":7871,"isp":7872,"idae":7873,"Ġspecimens":7874,"Ġbear":7875,"Ġfeud":7876,"ĠArk":7877,"ructure":7878,"ĠGiants":7879,"olas":7880,"anz":7881,"Ġreun":7882,"ĠModern":7883,"Ġunderstand":7884,"etime":7885,"ĠJam":7886,"Ġsan":7887,"Ġinher":7888,"Ġpounds":7889,"ĠAround":7890,"ĠWhat":7891,"ĠOrgan":7892,"ĠMuslim":7893,"ĠChampionships":7894,"Ġplate":7895,"Ġgoods":7896,"Ġupgraded":7897,"ĠLate":7898,"Ġlinked":7899,"Ġbats":7900,"ĠHeart":7901,"Ġstable":7902,"Ġafternoon":7903,"Ġupd":7904,"Ġgay":7905,"Ġ1931":7906,"ching":7907,"Ġtesting":7908,"Ġtoll":7909,"icine":7910,"Ġreprodu":7911,"Ġdiagn":7912,"Ġpull":7913,"Ġchain":7914,"Ġfactor":7915,"Ġdiet":7916,"Ġrelie":7917,"Ġcollaps":7918,"ĠAcc":7919,"Ġstem":7920,"ĠHorn":7921,"Ġorganizations":7922,"ĠRelease":7923,"amese":7924,"father":7925,"Ġrich":7926,"Ġcriminal":7927,"Ġdrums":7928,"ellite":7929,"leased":7930,"ĠCry":7931,"Ã©e":7932,"Ġrefers":7933,"63":7934,"ĠPA":7935,"Ġoutf":7936,"ĠJoh":7937,"Ġproced":7938,"Ġsubmarine":7939,"ĠLennon":7940,"Ġcriticised":7941,"Ġcrisis":7942,"Ġwear":7943,"Ġliqu":7944,"ĠHorse":7945,"iable":7946,"Ġtechnique":7947,"Ġfrequent":7948,"Ġnormally":7949,"Ġturrets":7950,"ygen":7951,"abama":7952,"Ġfinale":7953,"Ġwindow":7954,"Ġtraveled":7955,"Ġpolicies":7956,"FC":7957,"Ġlob":7958,"Ġpermission":7959,"Ġsimultane":7960,"ĠAnglo":7961,"gery":7962,"Ġdifficulties":7963,"Ġengineering":7964,"Ġdiameter":7965,"ila":7966,"usal":7967,"Ġsurf":7968,"Ġsky":7969,"ĠSomerset":7970,"ĠRAAF":7971,"ibbean":7972,"uda":7973,"Ġinsc":7974,"Ġvul":7975,"attered":7976,"inction":7977,"oked":7978,"Ġjunior":7979,"uscript":7980,"Ġpin":7981,"Ġlose":7982,"Ġwhereas":7983,"Ġadvice":7984,"Ġpicked":7985,"ilst":7986,"ĠWrestling":7987,"Ġspending":7988,"Ġresear":7989,"Ġindicate":7990,"ĠExpress":7991,"Ġagree":7992,"ĠTrack":7993,"Ġpersp":7994,"ĠTal":7995,"Ġcomments":7996,"Ġtie":7997,"hour":7998,"icy":7999,"Ġpartly":8000,"Ġdesigner":8001,"urance":8002,"ricted":8003,"ĠMiami":8004,"Ġmaintenance":8005,"ĠFrederick":8006,"ĠForces":8007,"strong":8008,"Ġuncertain":8009,"ĠSn":8010,"Ġcompete":8011,"Ġconcerts":8012,"ĠBab":8013,"Ġmedium":8014,"ĠJesus":8015,"Since":8016,"Ġtaught":8017,"ĠBenn":8018,"Ġpartially":8019,"ĠTreaty":8020,"Ġeasy":8021,"Ġbypass":8022,"Ġremove":8023,"Ġrefuge":8024,"ĠNevertheless":8025,"Ġvice":8026,"Ġapprec":8027,"Ġpersonality":8028,"helm":8029,"Ġdeter":8030,"Ġwindows":8031,"Ġseats":8032,"gro":8033,"Ġprohib":8034,"ĠObs":8035,"ĠStock":8036,"ĠCanal":8037,"eu":8038,"aws":8039,"ĠEst":8040,"Ġrecommend":8041,"Ġped":8042,"',":8043,"mers":8044,"weet":8045,"Ġfil":8046,"ĠJason":8047,"isd":8048,"41":8049,"ĠUSA":8050,"ĠPlayer":8051,"Ġdangerous":8052,"ĠThor":8053,"Ġrates":8054,"Ġproport":8055,"Ġprompted":8056,"mill":8057,"Ġhappy":8058,"Ġrepair":8059,"Ġcovers":8060,"ĠSeattle":8061,"Ġrecordings":8062,"ĠCz":8063,"Ġrestrict":8064,"Ġ95":8065,"ĠSab":8066,"ĠCur":8067,"Ġsure":8068,"overs":8069,"ĠMario":8070,"forced":8071,"ĠTrek":8072,"Ġfighters":8073,"Ġmainstream":8074,"Ġdescribe":8075,"Ġphr":8076,"Ġgather":8077,"Ġforcing":8078,"Ġdestroyers":8079,"Ġrarely":8080,"ĠHans":8081,"Ġchronic":8082,"Ġdivor":8083,"ĠUlt":8084,"ĠHeavy":8085,"Ġhonour":8086,"Ġmamm":8087,"Ġrepresentative":8088,"ĠMarshall":8089,"cons":8090,"Ġshear":8091,"Ġmir":8092,"ĠBros":8093,"):":8094,"Ġjur":8095,"ĠUnlike":8096,"Ġneighborhood":8097,"ĠCaribbean":8098,"Ġhockey":8099,"agg":8100,"ĠTownship":8101,"ĠBuck":8102,"ante":8103,"Ġverse":8104,"ĠBed":8105,"ĠYanke":8106,"ĠWithin":8107,"Ġchurches":8108,"Ġexamples":8109,"ivated":8110,"Ġsymp":8111,"Ġstrip":8112,"Ġbases":8113,"Ġmonument":8114,"Ġanticip":8115,"Ġtub":8116,"Ġapproval":8117,"Ġfalls":8118,"ĠWing":8119,"Ġunderw":8120,"ĠCrown":8121,"ĠReal":8122,"Ġdynasty":8123,"Ġhuge":8124,"ĠFI":8125,"Ġ1928":8126,"ĠKnow":8127,"Ġinaug":8128,"Ġhull":8129,"ĠIowa":8130,"Ġtravelled":8131,"ounced":8132,"Ġlowest":8133,"ĠAlabama":8134,"Ġdiff":8135,"What":8136,"PA":8137,"ogy":8138,"Ġalter":8139,"ĠAustralians":8140,"Ġdominated":8141,"Ġadjacent":8142,"Äį":8143,"iac":8144,"Ġprotagonist":8145,"Ġ1925":8146,"Ġca":8147,"hens":8148,"Ġhousing":8149,"ãģ":8150,"alions":8151,"Ġphen":8152,"Ġpartnership":8153,"selling":8154,"ĠDiego":8155,"Ġbrand":8156,"ĠMinistry":8157,"acked":8158,"Ġminimum":8159,"ĠMississ":8160,"thel":8161,"ĠGrammy":8162,"otten":8163,"Ġlisting":8164,"Ġ1924":8165,"Ġdisplayed":8166,"ĠPC":8167,"velt":8168,"orph":8169,"Ġasks":8170,"ĠMalays":8171,"ĠGilbert":8172,"was":8173,"Ġdoctor":8174,"ĠMinnes":8175,"ĠSimp":8176,"Ã§":8177,"Ġdriven":8178,"Ġfung":8179,"sters":8180,"Ġvillages":8181,"ĠHamp":8182,"ipped":8183,"Ġjoining":8184,"ĠSarah":8185,"imeter":8186,"jamin":8187,"Ġrefere":8188,"ĠSenator":8189,"Ġdrawing":8190,"Ġadm":8191,"Ġcanal":8192,"Ġethnic":8193,"scale":8194,"Ġ56":8195,"ugby":8196,"Ġ1890":8197,"Ġcollapse":8198,"Ġtone":8199,"reated":8200,"Ġmile":8201,"ĠGarden":8202,"Ġcopy":8203,"Ġtribute":8204,"ĠLawrence":8205,"Ġmoments":8206,"Ġdollars":8207,"Ġovers":8208,"Ġstorms":8209,"Ġappointment":8210,"Ġadvis":8211,"Ġradar":8212,"Ġsurvive":8213,"Ġscientists":8214,"elsewhere":8215,"Ġeliminated":8216,"Am":8217,"Ġelsewhere":8218,"ĠAud":8219,"Ġrounds":8220,"Ġsafe":8221,"Ġextreme":8222,"Ġpaintings":8223,"ecraft":8224,"onnaissance":8225,"Ġnewspapers":8226,"ĠNapole":8227,"iders":8228,"Ġdesignation":8229,"Ġprecip":8230,"Ġvictories":8231,"ĠDesc":8232,"ouri":8233,"ĠLegacy":8234,"ĠHockey":8235,"unc":8236,"ĠSimpson":8237,"Ġtreaty":8238,"ĠBuff":8239,"Ġdispute":8240,"see":8241,"Ġpurposes":8242,"Ph":8243,"roc":8244,"ĠHealth":8245,"Ġmand":8246,"rupted":8247,"Ġoccasions":8248,"73":8249,"Ġarriving":8250,"hattan":8251,"ĠHills":8252,"Ġtrend":8253,"espe":8254,"ographical":8255,"orders":8256,"Ġpossession":8257,"Ġmoral":8258,"Ġarts":8259,"ĠBelgium":8260,"roid":8261,"Ġhelping":8262,"rim":8263,"ĠMedal":8264,"Ġmanuscript":8265,"Ġtruth":8266,"ĠGuardian":8267,"52":8268,"rix":8269,"Ġoccupation":8270,"opp":8271,"Ġorb":8272,"olds":8273,"osevelt":8274,"acle":8275,"Ġfacing":8276,"Ġkeeping":8277,"ĠMach":8278,"Ġbenefit":8279,"Ġacted":8280,"Ġexplo":8281,"Ġmurd":8282,"boy":8283,"Ġboys":8284,"urd":8285,"Ġtruck":8286,"Ġvalues":8287,"Ġpric":8288,"Ġju":8289,"obile":8290,"Ġhelic":8291,"ĠRepresent":8292,"And":8293,"nik":8294,"aron":8295,"Ġsurprise":8296,"Ġax":8297,"Ġpool":8298,"Ġcovering":8299,"Ġloan":8300,"Ġgat":8301,"Ġmarry":8302,"ĠPeninsula":8303,"ĠTy":8304,"atherine":8305,"ĠCountry":8306,"88":8307,"ĠDave":8308,"reation":8309,"ĠOt":8310,"Ġresumed":8311,"Ġinnov":8312,"EC":8313,"Ġoption":8314,"ĠRa":8315,"rising":8316,"Ġ1923":8317,"Ġsuicide":8318,"Ġschedule":8319,"Ġdegrees":8320,"rome":8321,"Ġminimal":8322,"Ġtwin":8323,"incial":8324,"Ġcandidates":8325,"rawn":8326,"ĠAlong":8327,"Ġx":8328,"Ġabilities":8329,"species":8330,"Ġfishing":8331,"ulating":8332,"Ġthin":8333,"Ġpilots":8334,"munition":8335,"Ġsurvivors":8336,"ĠHand":8337,"oking":8338,"Ġcompeted":8339,"Ġsoil":8340,"agen":8341,"Ġpublicly":8342,"ĠKhan":8343,"ĠRoc":8344,"Ġgenerated":8345,"ĠHu":8346,"including":8347,"ethe":8348,"found":8349,"Ġorbit":8350,"Ġstruggle":8351,"ĠUSD":8352,"ĠAdminist":8353,"56":8354,"Ġwedding":8355,"Ġ600":8356,"hu":8357,"rams":8358,"ĠVietnamese":8359,"Ġwet":8360,"Ġdies":8361,"ĠBanks":8362,"ĠMinnesota":8363,"ensions":8364,"Ġdoesn":8365,"Best":8366,"ĠIndustry":8367,"Ġprosp":8368,"Ġrhythm":8369,"mph":8370,"adi":8371,"ĠAC":8372,"acc":8373,"Ġnations":8374,"ĠDur":8375,"Ġcateg":8376,"Ġpage":8377,"ilty":8378,"ĠManhattan":8379,"à¤":8380,"Ġrivers":8381,"Ġbusinesses":8382,"98":8383,"vy":8384,"Ġadvoc":8385,"storm":8386,"Ġalignment":8387,"Ġcooper":8388,"Ġargument":8389,"issue":8390,"Ġopponent":8391,"Ġdefeating":8392,"Ġassists":8393,"Ġcreative":8394,"Ġcustom":8395,"ĠHud":8396,"Ġlem":8397,"ĠAnna":8398,"Ġgrown":8399,"Ġteaching":8400,"Ġgrav":8401,"ception":8402,"51":8403,"stal":8404,"Ġbacking":8405,"Ġbalance":8406,"ĠTrust":8407,"Ġmines":8408,"ĠRang":8409,"itated":8410,"Ġtot":8411,"iveness":8412,"Ġmulti":8413,"Ġcredits":8414,"Ġconsult":8415,"ĠRoosevelt":8416,"ĠTurkish":8417,"Ġsymptoms":8418,"Ġwrest":8419,"Ġfoundation":8420,"Ġlists":8421,"Ġbehalf":8422,"espeare":8423,"Ġsuitable":8424,"ippi":8425,"def":8426,"ctic":8427,"Ġtelling":8428,"pler":8429,"ĠFranklin":8430,"Ġseeking":8431,"anium":8432,"Ġrepr":8433,"Ġconcrete":8434,"Ġ1908":8435,"ĠAlfred":8436,"ori":8437,"ĠLin":8438,"ifer":8439,"Ġ1905":8440,"alities":8441,"Ġscholar":8442,"ĠHotel":8443,"otes":8444,"Ġsank":8445,"Ġflash":8446,"rations":8447,"Ġunderstanding":8448,"Ġagricultural":8449,"Ġciting":8450,"Ġovert":8451,"Ġfifteen":8452,"Ġforests":8453,"onymous":8454,"dr":8455,"Ġbrick":8456,"Ġdanc":8457,"eton":8458,"andal":8459,"ĠCharlie":8460,"cru":8461,"Ġwaves":8462,"odore":8463,"Ġencounter":8464,"rm":8465,"zz":8466,"asters":8467,"Ġmultipl":8468,"xual":8469,"Ġinteract":8470,"Ġpercentage":8471,"ĠOp":8472,"Ġsubmitted":8473,"Ġrepairs":8474,"Ġsituated":8475,"Ġbombers":8476,"Ġinstrumental":8477,"ĠÃĨ":8478,"Ġtenth":8479,"Ġammunition":8480,"Ġparish":8481,"essee":8482,"Ġcoordin":8483,"Ġsubjects":8484,"Ġtunnel":8485,".'":8486,"orious":8487,"ĠLl":8488,"amic":8489,"unch":8490,"ĠJess":8491,"lah":8492,"ĠAff":8493,"Ġelectronic":8494,"resents":8495,"Ġ57":8496,"Ġemperor":8497,"ĠNazi":8498,"Ġmart":8499,"ĠKansas":8500,"Ġserial":8501,"Ġelabor":8502,"Ġillness":8503,"dale":8504,"Äĥ":8505,"ĠHong":8506,"ĠChildren":8507,"Mar":8508,"Ġsunk":8509,"ĠBan":8510,"Ġvic":8511,"ĠBenjamin":8512,"ĠArea":8513,"Ġ1909":8514,"style":8515,"olly":8516,"Ġclosing":8517,"gate":8518,"amps":8519,"Ġsigns":8520,"ĠBull":8521,"roph":8522,"Ġimpossible":8523,"Ġpoison":8524,"ĠPortland":8525,"Ġchanging":8526,"Ġattendance":8527,"Tr":8528,"Ġasking":8529,"arant":8530,"ĠThen":8531,"Ġ99":8532,"Ġcollaboration":8533,"Ġmicro":8534,"ĠDiv":8535,"Ġfunctions":8536,"Ġaudiences":8537,"ĠIan":8538,"Ġunlike":8539,"Ġrestaurant":8540,"quir":8541,"ĠEvent":8542,"Ġflights":8543,"ĠPolit":8544,"Ġfeelings":8545,"Ġaged":8546,"ĠBlues":8547,"ËĪ":8548,"Ġhat":8549,"ĠExt":8550,"Ġassisted":8551,"Ġaffairs":8552,"odge":8553,"ĠRand":8554,"Ġsigning":8555,"53":8556,"ques":8557,"Ġjunction":8558,"Ġtargets":8559,"Ġfiring":8560,"ĠAthlet":8561,"itchell":8562,"ĠAh":8563,"Ġassess":8564,"Ġiniti":8565,"ĠHindu":8566,"ĠWard":8567,"ĠKal":8568,"Ġdiscip":8569,"Ġsmooth":8570,"Ste":8571,"Ġpy":8572,"ĠThroughout":8573,"ĠWalker":8574,"hist":8575,"uable":8576,"Ġaffair":8577,"Ġdocuments":8578,"uv":8579,"atics":8580,"Ġsuspended":8581,"700":8582,"Ġcargo":8583,"Ġforty":8584,"ĠAnim":8585,"ĠNat":8586,"ĠNash":8587,"ĠCall":8588,"Ġunderground":8589,"Ġfuneral":8590,"ishment":8591,"Ġusual":8592,"inea":8593,"eneration":8594,"Ġ78":8595,"issions":8596,"Ġmountains":8597,"bishop":8598,"urring":8599,"ĠShel":8600,"Ġearthqu":8601,"Ġlect":8602,"Ġoxygen":8603,"Ġcompilation":8604,"Ġabol":8605,"ĠTun":8606,"ĠCole":8607,"Ġ1907":8608,"ĠBuilding":8609,"tty":8610,"ĠMes":8611,"ĠHuman":8612,"ĠâĢľ":8613,"ĠPhilippines":8614,"ĠWol":8615,"Ġskull":8616,"Ġfiled":8617,"Ġstatue":8618,"Ġprofessor":8619,"ĠLouisiana":8620,"fish":8621,"Ġwilling":8622,"ĠDance":8623,"ĠDepression":8624,"Ġexplosion":8625,"Ġdisaster":8626,"idel":8627,"ĠCamer":8628,"Ġcontroll":8629,"inental":8630,"ellent":8631,"Most":8632,"Ġplatinum":8633,"Ġsequences":8634,"ĠRap":8635,"Ġfavorable":8636,"ĠRace":8637,"ĠHistoric":8638,"sized":8639,"ĠLad":8640,"ateur":8641,"ancell":8642,"ĠCampbell":8643,"Ġtemporarily":8644,"ĠDC":8645,"ĠLim":8646,"Ġartwork":8647,"Ġadopt":8648,"ĠTennessee":8649,"Ġninet":8650,"Ġpoorly":8651,"Ġpitched":8652,"Ġneutral":8653,"Ġentertainment":8654,"Ġdeliber":8655,"ĠLaure":8656,"Ġaimed":8657,"formation":8658,"Ġcorpor":8659,"Ġspan":8660,"General":8661,"TA":8662,"ĠFried":8663,"Ġmeasured":8664,"ĠAlexand":8665,"Ġ110":8666,"sec":8667,"Ġwore":8668,"Ġworship":8669,"ĠGab":8670,"Ġelder":8671,"ĠDal":8672,"ĠFal":8673,"ĠKurt":8674,"pop":8675,"ĠSullivan":8676,"ika":8677,"Ġoperational":8678,"ĠInterstate":8679,"Ġshells":8680,"ĠShakespeare":8681,"die":8682,"Ġrout":8683,"Ġpreparation":8684,"ĠWriting":8685,"cho":8686,"....":8687,"Ġrecognised":8688,"ĠNative":8689,"shore":8690,"ylan":8691,"ĠMontreal":8692,"ridge":8693,"mented":8694,"Ġkne":8695,"ĠHind":8696,"Ġgrade":8697,"artney":8698,"Ġoffering":8699,"Ġalliance":8700,"athy":8701,"Ġwreck":8702,"ĠTag":8703,"Ġnom":8704,"ĠFlight":8705,"Ġcompleting":8706,"Ġreflected":8707,"Ġresidence":8708,"Ġmargin":8709,"ellect":8710,"ĠChristopher":8711,"Ġreluct":8712,"Ġreplacing":8713,"hire":8714,"reted":8715,"Ġrestoration":8716,"high":8717,"Ġtouring":8718,"Ġanch":8719,"uary":8720,"ĠBrun":8721,"ĠMississippi":8722,"%.":8723,"enz":8724,"Ġbanks":8725,"ĠLabour":8726,"wa":8727,"ĠMP":8728,"overe":8729,"Ġexit":8730,"Ġviolent":8731,"Ġdecides":8732,"ĠAle":8733,"ello":8734,"Ġamounts":8735,"Ġbot":8736,"Ġlieutenant":8737,"Ġcoverage":8738,"Ġsuggesting":8739,"ĠMissouri":8740,"zona":8741,"Ġfifty":8742,"ĠEgyptian":8743,"Ġcancelled":8744,"Ġexpensive":8745,"Ġspiritual":8746,"ĠKings":8747,"Ġsector":8748,"ova":8749,"okes":8750,"Ġescaped":8751,"acon":8752,"Ġ59":8753,"Ġdirectors":8754,"Ġamongst":8755,"ĠLam":8756,"urally":8757,"Ġrepresents":8758,"rage":8759,"inations":8760,"Ġrebuilt":8761,"ĠComb":8762,"Ġargues":8763,"Ġ1880":8764,"LC":8765,"cut":8766,"ĠHem":8767,"urday":8768,"ĠDw":8769,"ĠVI":8770,"ĠGuide":8771,"Ġerupt":8772,"Ġtribes":8773,"ĠLucas":8774,"ĠIndies":8775,"Ġengagement":8776,"Ġreven":8777,"Ġcommunication":8778,"ĠPalest":8779,"ĠPerform":8780,"Ġcolonies":8781,"Ġfrig":8782,"ĠCuba":8783,"Ġjazz":8784,"Ġcontributions":8785,"Ġplayoffs":8786,"ĠWolf":8787,"ieties":8788,"Ġpatterns":8789,"Ġpulled":8790,"WC":8791,"ĠCyr":8792,"Ġalcohol":8793,"Ãº":8794,"Ġsolution":8795,"Ġperspective":8796,"ĠMack":8797,"idency":8798,"Ġspeaking":8799,"Ġpredomin":8800,"Ġintensified":8801,"Ġunn":8802,"writing":8803,"ĠBox":8804,"Ġnucle":8805,"Ġhorror":8806,"two":8807,"Ġsubt":8808,"ĠApple":8809,"Ġmerchant":8810,"Ġregistered":8811,"Ġremnants":8812,"ĠNon":8813,"Ġinteresting":8814,"ĠMicro":8815,"ĠVinc":8816,"Ġownership":8817,"overeign":8818,"Ġinstitutions":8819,"ĠKirk":8820,"Ġprime":8821,"ĠÄ":8822,"ĠStevens":8823,"Ġcrews":8824,"Ġboundary":8825,"ĠMargaret":8826,"Ġwel":8827,"ĠEc":8828,"Ġexecut":8829,"Ġpreserved":8830,"ĠArizona":8831,"Ġcous":8832,"asts":8833,"Ġmarks":8834,"Ġdrove":8835,"kes":8836,"Ġgarden":8837,"oga":8838,"Ġrit":8839,"ĠKu":8840,"Ġliked":8841,"orer":8842,"Ġarmored":8843,"occ":8844,"Ġexplains":8845,"Ġmilitia":8846,"ĠMitchell":8847,"inding":8848,"Ġretail":8849,"Ġcharacterized":8850,"Ġcircuit":8851,"Ġsaved":8852,"uper":8853,"ectic":8854,"Ġformerly":8855,"Ġracing":8856,"oven":8857,"elli":8858,"ĠDead":8859,"Ġaffili":8860,"Ġcomparison":8861,"omber":8862,"Ġimperial":8863,"rine":8864,"ĠNag":8865,"uations":8866,"Ġlacked":8867,"Ġbulk":8868,"ĠBureau":8869,"Ġ1906":8870,"lings":8871,"Ġ1904":8872,"Ġbowling":8873,"Ġadministrative":8874,"96":8875,"uma":8876,"Ġarmament":8877,"ĠInitially":8878,"ĠWarren":8879,"Ġexplain":8880,"Ġflagship":8881,"ĠSon":8882,"Ġriders":8883,"Ġarrive":8884,"Ġexcav":8885,"Ġinland":8886,"ĠGet":8887,"Ġinhabitants":8888,"ivia":8889,"Ġpoems":8890,"sequently":8891,"itzerland":8892,"Ġ*":8893,"ĠDest":8894,"estone":8895,"IV":8896,"Ġmaneu":8897,"Ġpractices":8898,"ĠSi":8899,"ĠIce":8900,"Ġevil":8901,"Ġcontrols":8902,"Ġcontext":8903,"Ġseverely":8904,"Ġfamiliar":8905,"Ġranks":8906,"Ġbadly":8907,"otton":8908,"ĠDom":8909,"Ġrising":8910,"IS":8911,"Ġthrew":8912,"rast":8913,"ĠCold":8914,"Ġoverw":8915,"Ġnotice":8916,"Ġgenetic":8917,"Ġcondem":8918,"bra":8919,"ĠReturn":8920,"Ġtag":8921,"Ġkeyboard":8922,"ĠCzech":8923,"Ġartistic":8924,"grad":8925,"Ġwider":8926,"lahoma":8927,"anton":8928,"angle":8929,"Ġdraf":8930,"Ġresolution":8931,"ĠSteven":8932,"Ġdemonstrated":8933,"Ġfaster":8934,"ĠML":8935,"ĠScout":8936,"enna":8937,"Ġreaches":8938,"Ġprint":8939,"Ġ170":8940,"ĠHero":8941,"Ġfallen":8942,"Ġnominations":8943,"Ġkings":8944,"Ġnorthward":8945,"ĠPhoen":8946,"ĠTamil":8947,"ĠIndependent":8948,"Ġthinking":8949,"Ġapplication":8950,"Ġexhibition":8951,"ruption":8952,"Ġrecip":8953,"pound":8954,"Ġbronze":8955,"pha":8956,"Ġrevol":8957,"Ġwants":8958,"imm":8959,"Ġhouseholds":8960,"Ġgrey":8961,"Ġ1870":8962,"Ġsurge":8963,"ocking":8964,"ĠConfederate":8965,"dy":8966,"urer":8967,"ĠCob":8968,"ĠMess":8969,"Ġdepending":8970,"rose":8971,"Ġ72":8972,"Ġrestricted":8973,"Ġpredicted":8974,"Ġdramatic":8975,"ĠPed":8976,"ithuan":8977,"ported":8978,"Ġdistinctive":8979,"do":8980,"owed":8981,"Ġpace":8982,"ĠSony":8983,"Ġagency":8984,"Ġprepare":8985,"Ġgang":8986,"Ġsubspecies":8987,"ĠFriend":8988,"iph":8989,"Ġtex":8990,"Ġacceler":8991,"ĠFederation":8992,"Ġbay":8993,"uki":8994,"oa":8995,"Ġobtain":8996,"Ġarticles":8997,"Ġbeautiful":8998,"Ġgod":8999,"azing":9000,"also":9001,"rows":9002,"ĠPrior":9003,"rac":9004,"rock":9005,"ĠMaur":9006,"plete":9007,"Two":9008,"imen":9009,"Ġevolved":9010,"pan":9011,"Ġwheel":9012,"sts":9013,"Ġfounder":9014,"folk":9015,"Ġearning":9016,"Ġsurgery":9017,"ascar":9018,"Ġstores":9019,"Ġallies":9020,"ĠProgram":9021,"Ġrepeatedly":9022,"Ġbiographer":9023,"ĠSaturday":9024,"Ġpalace":9025,"ĠGraham":9026,"erk":9027,"ĠNar":9028,"Ġshield":9029,"ĠEdge":9030,"riptions":9031,"ĠWilhelm":9032,"Ġclearly":9033,"Ġpredecessor":9034,"soft":9035,"Ġmeat":9036,"ĠGrey":9037,"esses":9038,"Ġslaves":9039,"vant":9040,"eded":9041,"Ġelectron":9042,"ĠSwitzerland":9043,"Ġdistinguished":9044,"Ġdisagre":9045,"Ġphilosophy":9046,"Ġabund":9047,"Ġremarked":9048,"Ġgate":9049,"Ġrig":9050,"mi":9051,"aughters":9052,"Files":9053,"Ġsignal":9054,"ihanna":9055,"Ġfrust":9056,"Ġapartment":9057,"Ġchoose":9058,"Ġmental":9059,"Ġsynd":9060,"Ġcarriers":9061,"Ġloop":9062,"89":9063,"ĠMagn":9064,"rov":9065,"annon":9066,"Ġbattalions":9067,"Ġcircumstances":9068,"Å«":9069,"Ġpron":9070,"Ġ76":9071,"Ġ130":9072,"Ġquarterback":9073,"ardo":9074,"54":9075,"Ġsurrend":9076,"Ġmeetings":9077,"ĠRico":9078,"Ġperceived":9079,"Ġtriple":9080,"OS":9081,"Ġgap":9082,"Ġvs":9083,"ĠBusiness":9084,"emen":9085,"Ġwestward":9086,"ĠVis":9087,"Ġwasn":9088,"Ġattained":9089,"eland":9090,"Ġbombs":9091,"Ġblocks":9092,"apolis":9093,"Ġsatellite":9094,"Ġvulner":9095,"âĢ":9096,"ĠCow":9097,"Ġgust":9098,"bow":9099,"Ġcurren":9100,"Ġcoinc":9101,"ĠAbbey":9102,"Ġdrugs":9103,"held":9104,"Ġstorage":9105,"ĠEconom":9106,"mingham":9107,"Ġwhilst":9108,"Ġcivilian":9109,"ĠDigital":9110,"Ġmatters":9111,"ĠAustrian":9112,"Ġphone":9113,"venth":9114,"yler":9115,"Ġreaders":9116,"Ġdominant":9117,"Ġspotted":9118,"Ġvel":9119,"Ġuseful":9120,"Ġprinted":9121,"ĠOklahoma":9122,"person":9123,"Ġtyphoon":9124,"ĠRidge":9125,"hyl":9126,"Ġarmour":9127,"Ġfixed":9128,"otal":9129,"Ġvertical":9130,"Ġfalse":9131,"ĠCR":9132,"ĠLiz":9133,"Ġconservative":9134,"Ġsket":9135,"ĠPersian":9136,"Ġpeaking":9137,"Ġvisiting":9138,"east":9139,"erg":9140,"ĠRen":9141,"Ġideal":9142,"lain":9143,"Ġinstitution":9144,"agh":9145,"Ġdemanded":9146,"Ġfriendship":9147,"ĠMurphy":9148,"Ġretain":9149,"Ġlegacy":9150,"Ġplanets":9151,"piece":9152,"Ġsimilarly":9153,"Ġprotein":9154,"ĠSnow":9155,"inian":9156,"estyle":9157,"ĠCampaign":9158,"jan":9159,"Ġboss":9160,"ĠHungary":9161,"Ġillegal":9162,"Ġvast":9163,"ĠDenmark":9164,"Ġholid":9165,"Ġstrict":9166,"atern":9167,"ni":9168,"Ġsisters":9169,"ĠChand":9170,"Ġfastest":9171,"ĠTerrit":9172,"Ġ63":9173,"fr":9174,"Ġinsisted":9175,"Ġreconnaissance":9176,"Ġ77":9177,"Ġcreator":9178,"ĠBlood":9179,"eding":9180,"aks":9181,"Ġgard":9182,"Ġ66":9183,"ĠDragon":9184,"uly":9185,"ĠSche":9186,"stan":9187,"Ġintellect":9188,"ĠRailroad":9189,"ĠPrize":9190,"Ġsimultaneously":9191,"ĠHarv":9192,"Ġportions":9193,"Ġphenomen":9194,"je":9195,"ghan":9196,"Ġcasting":9197,"ĠHalo":9198,"case":9199,"ĠBh":9200,"ocation":9201,"aux":9202,"ĠRecord":9203,"Ġcomfort":9204,"Ġquiet":9205,"Ġseriously":9206,"anches":9207,"Ġrub":9208,"Ġyield":9209,"Ġmainland":9210,"aro":9211,"ĠKl":9212,"Ġdemands":9213,"ĠAtlanta":9214,"Ġbehaviour":9215,"Ġautobi":9216,"Ġlanes":9217,"irty":9218,"Ġrevenue":9219,"ested":9220,"Ġalternate":9221,"ĠBaseball":9222,"Ġalive":9223,"Ġdrivers":9224,"III":9225,"NC":9226,"Ġjustice":9227,"Ġfemin":9228,"Ġorchestra":9229,"ĠDylan":9230,"Ġconsole":9231,"Ġaudition":9232,"Ġpersonally":9233,"ĠYankees":9234,"odox":9235,"regation":9236,"Ġstruggled":9237,"ĠCycl":9238,"ĠBilly":9239,"Ġarmies":9240,"Ġjobs":9241,"Ġenlisted":9242,"osm":9243,"ĠSoon":9244,"ĠUE":9245,"ĠMadag":9246,"ĠNik":9247,"Ġpromised":9248,"Ġ1901":9249,"ĠDelaware":9250,"Ġobvious":9251,"ĠPerry":9252,"azines":9253,"ĠTokyo":9254,"flu":9255,"ĠRing":9256,"ĠHarvey":9257,"tha":9258,"ĠLov":9259,"ĠInternet":9260,"four":9261,"Ġthor":9262,"Ġincreases":9263,"Ġcod":9264,"Ġdiver":9265,"ouver":9266,"Ġrevers":9267,"oons":9268,"Ġmigr":9269,"Ġ68":9270,"Ġcounties":9271,"Ġdiscovers":9272,"Ġcompliment":9273,"ĠPitts":9274,"ĠkW":9275,"ĠLex":9276,"Ġcontinu":9277,"Ġaffect":9278,"Ġbombing":9279,"Ġlayer":9280,"Ġcompens":9281,"Ġroots":9282,"Ġ88":9283,"ĠBomb":9284,"umps":9285,"Ġguitarist":9286,"Ġstrengthened":9287,"Ġpursue":9288,"Ġterror":9289,"Ġtack":9290,"ĠAld":9291,"rip":9292,"Ġ1902":9293,"SA":9294,"Ġbelieving":9295,"ĠSuch":9296,"ĠCher":9297,"Ġfactory":9298,"claimed":9299,"OT":9300,"she":9301,"Ġpages":9302,"Ġheading":9303,"Ġmarketing":9304,"des":9305,"hous":9306,"rank":9307,"ĠProm":9308,"ultan":9309,"ĠFem":9310,"Ġstring":9311,"Ġabsol":9312,"ĠKarl":9313,"Ġathletes":9314,"ĠHop":9315,"Ġdiscont":9316,"Ġruling":9317,"Ġbonus":9318,"mund":9319,"tario":9320,"Ġsq":9321,"terbury":9322,"ĠJuan":9323,"Ġ1903":9324,"ecticut":9325,"ĠTel":9326,"Ġchamber":9327,"Ġclothing":9328,"Ġartific":9329,"Ġculmin":9330,"MI":9331,"Pl":9332,"Ġpione":9333,"Ġpatron":9334,"oustic":9335,"rient":9336,"Ġports":9337,"Ġframe":9338,"warf":9339,"eries":9340,"Ġdelivery":9341,"Ġdemolished":9342,"Ġforecast":9343,"Ġtheater":9344,"ĠMik":9345,"ĠClar":9346,"inces":9347,"ĠEP":9348,"ĠMichel":9349,"Ġoverseas":9350,"ĠRat":9351,"Ġdefences":9352,"irts":9353,"Ġaccum":9354,"rous":9355,"anguage":9356,"Ġsucceed":9357,"ĠLeslie":9358,"Ġdeterior":9359,"Ġpropag":9360,"ĠOriginal":9361,"Ind":9362,"asant":9363,"ĠLang":9364,"Ġcompounds":9365,"Ġsettlers":9366,"Ġrenov":9367,"Ġlegislature":9368,"Ġwaiting":9369,"ĠImpact":9370,"ĠSmall":9371,"Ġengage":9372,"Many":9373,"ĠBarry":9374,"ĠEnterprise":9375,"owned":9376,"aja":9377,"Ġbid":9378,"ania":9379,"ĠRights":9380,"alling":9381,"ensively":9382,"Ġhighways":9383,"Ġguilty":9384,"Ġmobile":9385,"Ġaltered":9386,"ĠInn":9387,"Ġcancel":9388,"itis":9389,"Ġaftermath":9390,"Ġdecisions":9391,"Ġoblig":9392,"ĠNixon":9393,"raction":9394,"Ġvoy":9395,"ĠSeven":9396,"spe":9397,"ĠMadagascar":9398,"ulous":9399,"ifies":9400,"Ġ61":9401,"mod":9402,"ĠOntario":9403,"Ġcampaigns":9404,"Ġsick":9405,"ĠAllies":9406,"Ġsecretary":9407,"Ġexpand":9408,"Ġorn":9409,"Ġsurpass":9410,"Ġfriendly":9411,"Ġdrink":9412,"ĠGray":9413,"otte":9414,"Ġpanel":9415,"Ġdissipated":9416,"Ġshipping":9417,"Ġorganisation":9418,"aments":9419,"Ġscen":9420,"Ġconversion":9421,"atropical":9422,"ĠDa":9423,"Ġpermitted":9424,"Ġimprovements":9425,"fle":9426,"Ġmusician":9427,"OK":9428,"Ġcup":9429,"ags":9430,"uese":9431,"Ġconfron":9432,"Ġdancing":9433,"Ġkiss":9434,"Ġlooks":9435,"hum":9436,"ĠChel":9437,"ĠMuch":9438,"ĠBrig":9439,"ĠBroadway":9440,"Ġacknowledged":9441,"Ġtight":9442,"Ġ74":9443,"Ġexpression":9444,"Ġgraduated":9445,"Ġhoriz":9446,"Ġobservations":9447,"Ġaerial":9448,"ĠObama":9449,"Ġsalt":9450,"ĠAmy":9451,"Ġstress":9452,"oker":9453,"ivation":9454,"abe":9455,"94":9456,"ĠPle":9457,"ĠVe":9458,"ancouver":9459,"ĠEdwards":9460,"Ġconcentration":9461,"Ġtravels":9462,"Ġmining":9463,"Ġpublications":9464,"Ġerected":9465,"Ġobjective":9466,"ĠConnecticut":9467,"Ġwealthy":9468,"Ġdanger":9469,"Ġ($":9470,"ĠFurthermore":9471,"itudes":9472,"Ġelevation":9473,"ipper":9474,"Ġindicating":9475,"ĠABC":9476,"ĠPars":9477,"Ġplus":9478,"Ġmayor":9479,"Ġtrouble":9480,"ĠDefence":9481,"itals":9482,"arry":9483,"ĠBaker":9484,"ĠLithuan":9485,"keeper":9486,"Ġsolar":9487,"Ġvenue":9488,"Ġfewer":9489,"Ġwait":9490,"ĠRihanna":9491,"upiter":9492,"redits":9493,"Ġevacuated":9494,"entle":9495,"Ġprove":9496,"Ġspir":9497,"Ġorigins":9498,"ĠCanterbury":9499,"ĠBirmingham":9500,"Ġinterpretation":9501,"Ġrequires":9502,"Ġstationed":9503,"ĠWorks":9504,"Several":9505,"Ġranging":9506,"ĠArnold":9507,"ĠAR":9508,"Ġexecution":9509,"adier":9510,"ĠMaj":9511,"Ġsitting":9512,"pent":9513,"Ġpale":9514,"Ġoriginated":9515,"Ã¦":9516,"Ġremoval":9517,"Ġraids":9518,"master":9519,"Ġwrestling":9520,"Ġmac":9521,"Ġannouncement":9522,"ĠPhoenix":9523,"rin":9524,"iracy":9525,"ĠFarm":9526,"Ġdebt":9527,"itively":9528,"angel":9529,"Ġdoubt":9530,"ugg":9531,"Ġarrangements":9532,"ĠWayne":9533,"ĠHudson":9534,"Ġhapp":9535,"ĠHaving":9536,"Ġrebellion":9537,"ĠEvery":9538,"asa":9539,"Ġmagazines":9540,"ĠMrs":9541,"Ġchapel":9542,"pow":9543,"hears":9544,"Ġsung":9545,"ĠSet":9546,"ennium":9547,"Ġrealized":9548,"Ġcelebrated":9549,"Ġanth":9550,"Ġextratropical":9551,"Ġjurisd":9552,"Dav":9553,"sm":9554,"Ġdonated":9555,"Ġfeels":9556,"Ġdefending":9557,"Ġconnect":9558,"Ġbaby":9559,"Ġ73":9560,"ĠMint":9561,"Ġranking":9562,"ista":9563,"Ġlisten":9564,"otyp":9565,"ĠFif":9566,"Ġapproaching":9567,"Ġsteps":9568,"Ġshorter":9569,"ĠMountains":9570,"ĠCommunity":9571,"Hung":9572,"Ġ62":9573,"Ġexplan":9574,"ĠPlayers":9575,"Ġcolleagues":9576,"ĠSpart":9577,"Ġinsects":9578,"ĠIran":9579,"Ġaspect":9580,"à¸":9581,"hers":9582,"Ġturret":9583,"Ġconnecting":9584,"Ġliquid":9585,"ĠVik":9586,"Ġsupple":9587,"Ġconsidering":9588,"Ġinitiated":9589,"ĠTrophy":9590,"adal":9591,"pty":9592,"ĠPubl":9593,"ĠRoll":9594,"Ġsoldier":9595,"join":9596,"vo":9597,"Ġhorn":9598,"Ġconscious":9599,"Ġdiscussion":9600,"ĠUniversal":9601,"Ġ360":9602,"Ġdecide":9603,"Ġtheatrical":9604,"idal":9605,"ĠRub":9606,"ĠShaw":9607,"Ġvolumes":9608,"Ġgathered":9609,"allas":9610,"Ġplacing":9611,"Ġpublishing":9612,"Ġbattlecru":9613,"Ġtubes":9614,"ĠAdministration":9615,"bal":9616,"Ġhook":9617,"ĠMcL":9618,"57":9619,"that":9620,"ĠVancouver":9621,"Ġwithdrawal":9622,"Ġhypothes":9623,"ĠMcCartney":9624,"ĠJosh":9625,"Ġcannon":9626,"ĠEdin":9627,"ĠPearl":9628,"Ġindicates":9629,"Ġexactly":9630,"ĠSoul":9631,"Ġongoing":9632,"Ġfounding":9633,"ĠNear":9634,"Ġmonitor":9635,"Ġhosts":9636,"Ġtalent":9637,"ĠCost":9638,"elta":9639,"ĠPotter":9640,"Ġcomed":9641,"Will":9642,"Ġneighbour":9643,"Ġappropriate":9644,"yes":9645,"Ġlandscape":9646,"Ġdemocr":9647,"ĠTon":9648,"Ġmarkets":9649,"El":9650,"Ġbones":9651,"Ġcollapsed":9652,"ĠCra":9653,"ĠMorrison":9654,"Ġstrategic":9655,"hin":9656,"Ġhidden":9657,"avor":9658,"Ġ98":9659,"Ġguarant":9660,"Ġrede":9661,"Ġvisits":9662,"autical":9663,"ĠSak":9664,"his":9665,"agger":9666,"ĠHampshire":9667,"ayan":9668,"Ġstriking":9669,"ĠJohnny":9670,"ĠDrive":9671,"ĠJonathan":9672,"ĠBernard":9673,"five":9674,"Ġcub":9675,"alph":9676,"Ġclosest":9677,"ĠJimmy":9678,"athers":9679,"Ġspecimen":9680,"Ġtort":9681,"ocy":9682,"Ġ87":9683,"rama":9684,"oria":9685,"ĠSig":9686,"Ġstick":9687,"Ġencl":9688,"Ġchallenged":9689,"Donald":9690,"Ġnet":9691,"Ġmush":9692,"Ġorganised":9693,"amental":9694,"iper":9695,"pled":9696,"ricts":9697,"Ġduo":9698,"boat":9699,"eared":9700,"onica":9701,"ĠManu":9702,"ĠChampions":9703,"Ġexposure":9704,"irates":9705,"ĠOpp":9706,"aircraft":9707,"ĠDS":9708,"ĠMans":9709,"Ġseized":9710,"Ġattending":9711,"Ġfantasy":9712,"olve":9713,"terior":9714,"Ġconfront":9715,"Ġconcentrated":9716,"igenous":9717,"aman":9718,"Ġannually":9719,")\"":9720,"ĠWag":9721,"ĠCharts":9722,"Ġglac":9723,"ĠPeace":9724,"ĠForeign":9725,"uzzle":9726,"overed":9727,"Ġcorps":9728,"ĠKeith":9729,"ĠWindows":9730,"ĠGriff":9731,"ĠRachel":9732,"ĠFel":9733,"91":9734,"ĠMcM":9735,"Ġmembership":9736,"Ġidentify":9737,"uart":9738,"ĠGate":9739,"Ġspac":9740,"ieth":9741,"imetres":9742,"ĠPakistan":9743,"Is":9744,"Ã°":9745,"Ġoffense":9746,"Ġyoungest":9747,"Ġodd":9748,"Ġdogs":9749,"Ġranges":9750,"Ġ800":9751,"ĠFriday":9752,"ĠBath":9753,"ĠPatt":9754,"phone":9755,"ĠSymph":9756,"Ã¼r":9757,"ĠEdinburgh":9758,"Ġessential":9759,"Ġvoiced":9760,"ĠNapoleon":9761,"icity":9762,"Ġnavy":9763,"Ġpartial":9764,"ĠMarie":9765,"white":9766,"beat":9767,"Ġinvestigate":9768,"Ġtrough":9769,"ecution":9770,"ĠChampion":9771,"190":9772,"Ġwalking":9773,"Ġbreat":9774,"Ġbacter":9775,"ĠCov":9776,"ĠStat":9777,"Ġqualified":9778,"Ġdressed":9779,"stage":9780,"otion":9781,"Ġbasin":9782,"Ġswitch":9783,"ĠTriple":9784,"ĠShip":9785,"porting":9786,"ĠEventually":9787,"ĠTodd":9788,"Ġdesert":9789,"aders":9790,"ĠHann":9791,"ĠLess":9792,"Ġradical":9793,"ĠBradman":9794,"ĠGoth":9795,"Ġski":9796,"Ġceased":9797,"Ġestablishing":9798,"Ġportrayal":9799,"but":9800,"Ġlimits":9801,"Ġpredict":9802,"week":9803,"ĠMeteor":9804,"Arthur":9805,"Ġmagic":9806,"cow":9807,"Ġanime":9808,"Ġsupplied":9809,"ti":9810,"ĠJupiter":9811,"Ġwatershed":9812,"Ġadvertising":9813,"Ġjury":9814,"Ġprize":9815,"Ġhydrogen":9816,"ĠTit":9817,"ĠHugh":9818,"Ġassembly":9819,"Ġdelay":9820,"Ġstrongest":9821,"lad":9822,"oviÄĩ":9823,"Ġbirthday":9824,"Ġexercise":9825,"Ġcircle":9826,"sl":9827,"Ġ82":9828,"Ġbeam":9829,"Ġregime":9830,"ĠConvention":9831,"Ġpromotional":9832,"Ġquestioned":9833,"Ġphotographs":9834,"roying":9835,"ĠLion":9836,"Ġflooded":9837,"Ġmemor":9838,"umble":9839,"hammad":9840,"Ġfortress":9841,"Ġaggressive":9842,"ensed":9843,"Ġconservation":9844,"Ġ67":9845,"Before":9846,"Ġunderwent":9847,"bel":9848,"Ġreplied":9849,"Ġdin":9850,"ĠAbd":9851,"Ġmerely":9852,"Ex":9853,"iche":9854,"Ġemployment":9855,"Ġsending":9856,"Ġchampions":9857,"Ġshift":9858,"Ġputting":9859,"Like":9860,"Ġforg":9861,"ĠWor":9862,"Ġprovision":9863,"ĠBobby":9864,"bes":9865,"ĠChronicle":9866,"ĠOd":9867,"Ġforth":9868,"Ġexha":9869,"ologies":9870,"Ġunclear":9871,"Ġsoftware":9872,"Ġconventional":9873,"Ġtox":9874,"ĠLegend":9875,"Ã©s":9876,"Ġ140":9877,"ĠAfghan":9878,"ĠMission":9879,"ĠFat":9880,"Pr":9881,"released":9882,"Ġfurn":9883,"ĠYorkshire":9884,"haw":9885,"assador":9886,"Ġlawyer":9887,"Ġpapers":9888,"ĠDemocrats":9889,"Ġticket":9890,"ĠNAS":9891,"Ġcoff":9892,"anner":9893,"Ġrepresentatives":9894,"ĠNine":9895,"Ġoutput":9896,"Ġguide":9897,"ĠBosn":9898,"illes":9899,"ĠYe":9900,"ĠTracy":9901,"Ġcoup":9902,"Ġimagery":9903,"Ġattitude":9904,"Ġlawsu":9905,"oca":9906,"Ġsharp":9907,"Ġmonaster":9908,"Ġthirteen":9909,"ĠAy":9910,"istent":9911,"Ġcoat":9912,"Ġcommentary":9913,"ĠPortuguese":9914,"ashes":9915,"ĠMeg":9916,"ĠReserve":9917,"Ġaggreg":9918,"Ġendors":9919,"Ġwicket":9920,"amas":9921,"atever":9922,"Ġcock":9923,"Ġdaughters":9924,"Ġpersons":9925,"ĠVillage":9926,"roat":9927,"Ġballad":9928,"Ġsurrendered":9929,"atches":9930,"riors":9931,"Ġarrives":9932,"Ġtenure":9933,"Ġtranslation":9934,"Ġaccompanying":9935,"from":9936,"Ġteach":9937,"ĠBrothers":9938,"Ġbond":9939,"Ġplain":9940,"Ġgrave":9941,"Ġprovincial":9942,"ĠChristianity":9943,"lon":9944,"ĠBeng":9945,"Ġsuccession":9946,"called":9947,"Ġparody":9948,"ĠPersonal":9949,"feld":9950,"ĠLas":9951,"Ġlegit":9952,"Ġempire":9953,"Ġdubbed":9954,"eyer":9955,"Ġreinforcements":9956,"Ġ\"...":9957,"olen":9958,"Ġcruc":9959,"ĠCritics":9960,"900":9961,"OC":9962,"Ġbone":9963,"Ġbishop":9964,"Ġcharter":9965,"ĠDwight":9966,"ĠLat":9967,"ellation":9968,"uras":9969,"Ġstreak":9970,"illiant":9971,"Ġprices":9972,"Ġbranches":9973,"Ġelectricity":9974,"ĠGary":9975,"arted":9976,"Ġcomponents":9977,"Ġcousin":9978,"Ġburial":9979,"Ġassembled":9980,"Ġqueen":9981,"ĠFinland":9982,"ĠArgentina":9983,"Ġmal":9984,"Ġmovies":9985,"Ġstarring":9986,"Ġcomprom":9987,"ĠYears":9988,"type":9989,"Ġpictures":9990,"asm":9991,"Ġspaces":9992,"Ġretro":9993,"Ġterrain":9994,"icle":9995,"Ġbrig":9996,"Ġemphasis":9997,"],":9998,"embr":9999,"'.":10000,"Ġsang":10001,"ĠBach":10002,"ĠBoys":10003,"ĠNa":10004,"Ġexclusively":10005,"ĠLib":10006,"Ġunless":10007,"ibilities":10008,"ĠQueensland":10009,"onian":10010,"Ġben":10011,"Ġfill":10012,"ĠHeritage":10013,"Ġprecipitation":10014,"Ġles":10015,"ĠMem":10016,"Ġ1860":10017,"Ġgovernments":10018,"Ġcompeting":10019,"Ġreveal":10020,"Ġdevices":10021,"Ġbeats":10022,"Ġdrinking":10023,"Ġtopped":10024,"Ġprev":10025,"Ġmature":10026,"Ġweekly":10027,"ĠWii":10028,"ĠLt":10029,"Ġexternal":10030,"aze":10031,"Ġchest":10032,"Ġexperimental":10033,"ME":10034,"ĠDub":10035,"ĠVictorian":10036,"Ġscattered":10037,"ĠAlice":10038,"Ġstops":10039,"Ġisot":10040,"Ġtraded":10041,"Ġfunny":10042,"Ġfailing":10043,"Ġdefinition":10044,"Ġexpert":10045,"Ġstronger":10046,"Ġexcellent":10047,"written":10048,"ĠGirls":10049,"97":10050,"Ġcenters":10051,"Ġdevelopers":10052,"ĠMonte":10053,"Ġuncom":10054,"Ġflowers":10055,"ĠHawaii":10056,"ĠRangers":10057,"gie":10058,"Ġplatforms":10059,"ĠHungarian":10060,"pike":10061,"itched":10062,"Ġconsiders":10063,"Ġproductions":10064,"Ġinvent":10065,"itarian":10066,"Ġacoustic":10067,"grade":10068,"Ġfeeding":10069,"ĠLaur":10070,"Ġredes":10071,"Ġidentical":10072,"Ġeducational":10073,"Ġstere":10074,"ĠFund":10075,"eto":10076,"Ġslave":10077,"Ġ1893":10078,"Ġbanned":10079,"Ġpel":10080,"Ġcomponent":10081,"Ġ96":10082,"ĠEmmy":10083,"Ġcontribution":10084,"Ġuncle":10085,"Ġtalking":10086,"ĠBooks":10087,"acles":10088,"Ġreducing":10089,"enesis":10090,"Other":10091,"ĠGene":10092,"Ġcompr":10093,"Ġvaried":10094,"ĠProtest":10095,"ĠUEFA":10096,"Ġreverse":10097,"ĠÃĨthel":10098,"rastructure":10099,"ĠTig":10100,"Ġfossil":10101,"Ġbare":10102,"lem":10103,"Ġproceeded":10104,"Ġdevast":10105,"month":10106,"Ġboilers":10107,"Ġduration":10108,"Ġraising":10109,"Ġintersects":10110,"ĠPrix":10111,"Ġsleep":10112,"ĠHur":10113,"Ġedited":10114,"Ġdestroying":10115,"itely":10116,"Ġtomb":10117,"ĠHonor":10118,"ĠTransportation":10119,"Ġscr":10120,"ĠOliver":10121,"SR":10122,"rod":10123,"ĠDale":10124,"ĠGlen":10125,"Ġswimming":10126,"Ġcad":10127,"oting":10128,"ĠOm":10129,"Ġrequirements":10130,"Ġoverwhel":10131,"Ġreward":10132,"ĠLen":10133,"ĠMarvel":10134,"Ġelectrical":10135,"ĠNorfolk":10136,"ĠNCAA":10137,"Ġtexts":10138,"uating":10139,"Ġatomic":10140,"Ã¶n":10141,"Ġfourteen":10142,"ĠCollins":10143,"Ġearthquake":10144,"PC":10145,"ĠCricket":10146,"ĠJama":10147,"Ġadventure":10148,"gom":10149,"rehens":10150,"Ġheir":10151,"about":10152,"ensis":10153,"Ġpenet":10154,"Ġdensity":10155,"De":10156,"Music":10157,"cour":10158,"through":10159,"Ġtrading":10160,"Ġ1896":10161,"Ġdestroyer":10162,"Ġcens":10163,"unning":10164,"ĠDak":10165,"ulty":10166,"Ġquad":10167,"likely":10168,"Ġsamples":10169,"xim":10170,"tery":10171,"ĠKap":10172,"Ġdrag":10173,"Ġportr":10174,"Ġ1898":10175,"Ġtip":10176,"iciency":10177,"Ġwish":10178,"andom":10179,"ource":10180,"Ġairfield":10181,"axy":10182,"Ġhumor":10183,"Ġarchitectural":10184,"Ġhem":10185,"Ġburned":10186,"Ġsad":10187,"ĠDiam":10188,"ĠAnc":10189,"ĠTurner":10190,"encing":10191,"Ġlie":10192,"ĠMong":10193,"ĠNatural":10194,"cks":10195,"Ġpolar":10196,"Mich":10197,"Ġinduct":10198,"Ġdict":10199,"ĠAx":10200,"Ġrespective":10201,"Ġimmigr":10202,"Ġtalks":10203,"ĠTrail":10204,"ĠIsa":10205,"Ġinvestment":10206,"Ġliberal":10207,"Ġphrase":10208,"Ġartificial":10209,"ĠType":10210,"ĠMand":10211,"Ġsixteen":10212,"ĠTak":10213,"Ġpraising":10214,"ĠHowe":10215,"Ġdollar":10216,"ĠMalt":10217,"ĠPil":10218,"ĠJoy":10219,"Ġcharity":10220,"ffield":10221,"razy":10222,"half":10223,"Ġbath":10224,"Ġradiation":10225,"ĠMedical":10226,"Ġtoured":10227,"ĠCelt":10228,"Ġunw":10229,"Ġflows":10230,"ĠHardy":10231,"Ġtactics":10232,"etheless":10233,"cal":10234,"gon":10235,"Ã«":10236,"Ġconnections":10237,"ĠServices":10238,"ingham":10239,"ĠTob":10240,"Ġwaste":10241,"Ġprofession":10242,"ĠBoat":10243,"Ġconsistent":10244,"ĠGallery":10245,"ĠMother":10246,"Ġshares":10247,"Ġparks":10248,"ginning":10249,"Ġcopper":10250,"Ġphotography":10251,"PG":10252,"avia":10253,"Ġusers":10254,"story":10255,"Ġweigh":10256,"ollo":10257,"hop":10258,"isting":10259,"ĠSeason":10260,"Ġlabour":10261,"Ġparent":10262,"such":10263,"ĠHarbor":10264,"86":10265,"Ġfisher":10266,"flow":10267,"Ġeval":10268,"readn":10269,"ĠFleming":10270,"Ġcleared":10271,"Ġtonnes":10272,"Ġcyl":10273,"anim":10274,"Ġpatients":10275,"Ġopportunities":10276,"Ġcommenced":10277,"Ġamateur":10278,"Ġreduction":10279,"Ġtaxes":10280,"ĠLiberal":10281,"Ġtherap":10282,"ario":10283,"igious":10284,"ĠMaya":10285,"Ġdispers":10286,"Ġmechanical":10287,"ĠEug":10288,"ĠMoscow":10289,"Ġpush":10290,"rooms":10291,"Ġreorgan":10292,"Ġthunder":10293,"Ġhybr":10294,"Ġtransported":10295,"ĠFlying":10296,"Ġattorney":10297,"TWC":10298,"top":10299,"itting":10300,"uton":10301,"ĠBlu":10302,"Ġautumn":10303,"ups":10304,"Ġ71":10305,"Ġsimpl":10306,"Ġadvised":10307,"Ġqualifying":10308,"Ġexists":10309,"Ġrelocated":10310,"Ġtheore":10311,"Ġlegislative":10312,"ashi":10313,"screen":10314,"ĠBroadcast":10315,"Ġconstitutional":10316,"owski":10317,"ĠLost":10318,"cester":10319,"Ġelig":10320,"cott":10321,"Ġcamps":10322,"Ġimprovement":10323,"Ġcutting":10324,"Ġexceed":10325,"81":10326,"ĠBak":10327,"ĠPa":10328,"illo":10329,"quest":10330,"Ġcontinuous":10331,"Ġhandled":10332,"ĠBurton":10333,"ĠHob":10334,"stand":10335,"ĠAftermath":10336,"ussion":10337,"Ġcommanders":10338,"avery":10339,"ĠHarvard":10340,"ĠJar":10341,"orded":10342,"Ġunderstood":10343,"Ġcrops":10344,"Ġcir":10345,"Ġgray":10346,"Ġobsc":10347,"lining":10348,"ĠTraining":10349,"urricanes":10350,"Ġrevolt":10351,"Ġsurvival":10352,"Ġuranium":10353,"expected":10354,"SS":10355,"rien":10356,"Ġcommanding":10357,"ĠBelgian":10358,"ĠMarket":10359,"Ġwithdrawn":10360,"ĠOslo":10361,"Ġpairs":10362,"ĠMarge":10363,"Ġvoting":10364,"ĠPittsburgh":10365,"ĠTNA":10366,"ĠGor":10367,"legraph":10368,"Ġnit":10369,"ĠPam":10370,"ĠPink":10371,"ĠDyn":10372,"ĠLock":10373,"Ġclock":10374,"gel":10375,"olar":10376,"ĠSyria":10377,"Christ":10378,"Ġminority":10379,"Ġmelody":10380,"ioc":10381,"isive":10382,"uto":10383,"ĠRab":10384,"seud":10385,"Ġmanga":10386,"Ġprogramming":10387,"Ġ1899":10388,"Ġlearns":10389,"Ġpromin":10390,"ĠLloyd":10391,"Ġwire":10392,"Ġnautical":10393,"Ġearn":10394,"Ġmini":10395,"ĠAngl":10396,"ĠSwiss":10397,"eston":10398,"Ġvirus":10399,"ĠPy":10400,"Ġconceived":10401,"ĠKo":10402,"Ġ79":10403,"ĠCre":10404,"Ġdisplaced":10405,"Ġenthusi":10406,"En":10407,"rus":10408,"atra":10409,"asks":10410,"ĠTan":10411,"ĠJun":10412,"oda":10413,"Ġreferring":10414,"Ġhitting":10415,"len":10416,"ĠPruss":10417,"Ġexperiments":10418,"Ġprinciples":10419,"Ġvoices":10420,"ĠAntonio":10421,"Mc":10422,"Ġworn":10423,"Ġindeed":10424,"Ġprovinces":10425,"Ġrevised":10426,"ationally":10427,"Ġrocks":10428,"Ġseed":10429,"Ġ1850":10430,"ĠHughes":10431,"ĠPeters":10432,"ĠProfessor":10433,"orig":10434,"Ġrivalry":10435,"ĠBald":10436,"Ġtraveling":10437,"uez":10438,"adesh":10439,"ĠCommunist":10440,"Ġprisoner":10441,"Ġexplicit":10442,"ĠSwift":10443,"Ġrelatives":10444,"Ġapproaches":10445,"Ġproposals":10446,"ĠBennett":10447,"Ã¥":10448,"Ġsoph":10449,"Ġsovereign":10450,"Ġpap":10451,"Ġdischar":10452,"Ġstuff":10453,"aha":10454,"Ġwarfare":10455,"tes":10456,"Ġ09":10457,"Ġtraditions":10458,"ĠSimilarly":10459,"Ġwarnings":10460,"Ġrepresentation":10461,"AN":10462,"ĠAndre":10463,"utton":10464,"ĠJerry":10465,"Ġlights":10466,"Ġextending":10467,"ĠIndonesia":10468,"Upon":10469,"Ġabuse":10470,"Ġpreparing":10471,"His":10472,"ĠKam":10473,"ocket":10474,"Ġimpression":10475,"ĠAdv":10476,"Another":10477,"Ġcharacteristic":10478,"ĠPrim":10479,"Ġmultiplayer":10480,"ĠKane":10481,"Ġsignature":10482,"Ġsumm":10483,"Ġcartoon":10484,"Ġcompound":10485,"ĠMayor":10486,"minister":10487,"Ġinterpreted":10488,"Ã¢":10489,"leans":10490,"berry":10491,"Ġtransportation":10492,"onial":10493,"Ġairing":10494,"ĠNicholas":10495,"uri":10496,"ĠRalph":10497,"ambers":10498,"Ġblocked":10499,"Ġpowered":10500,"ĠCurt":10501,"umped":10502,"merce":10503,"Ġprotests":10504,"Ġinterviews":10505,"Ġdisplays":10506,"dest":10507,"Ġcarries":10508,"Ġmedicine":10509,"Ġcyclones":10510,"ĠMicrosoft":10511,"Ġcraft":10512,"Ġfulf":10513,"Ġ89":10514,"Over":10515,"var":10516,"Ġcreek":10517,"icular":10518,"ĠBaby":10519,"ĠNi":10520,"ocity":10521,"Ġrebels":10522,"stance":10523,"ĠGuinea":10524,"2007":10525,"ĠDarwin":10526,"Ġtranslated":10527,"Ġmarine":10528,"Ġenforce":10529,"ĠCraig":10530,"Ġwished":10531,"Ġfilmm":10532,"Ġcuts":10533,"ĠJefferson":10534,"ĠPictures":10535,"Ġrehears":10536,"ĠMond":10537,"ĠDavies":10538,"Ġparticipation":10539,"Ġreforms":10540,"ĠFalls":10541,"Ġmarch":10542,"ĠOfficer":10543,"Ġsalary":10544,"Ġsample":10545,"ĠRud":10546,"ĠCameron":10547,"ĠMust":10548,"arks":10549,"ĠVincent":10550,"Ġpretty":10551,"Ġbacked":10552,"ĠSecurity":10553,"Ġarguing":10554,"Ġabsent":10555,"Ġjudg":10556,"Ġdistant":10557,"ĠZe":10558,"Ġspoken":10559,"ĠPap":10560,"Ġrestore":10561,"Ġestimates":10562,"ĠDonald":10563,"Ġangle":10564,"ĠFormation":10565,"Ġcabinet":10566,"Ġsings":10567,"Ġlighting":10568,"Ġgarn":10569,"Ġuncon":10570,"ĠDescription":10571,"ĠAustin":10572,"Ġcourses":10573,"scar":10574,"Ġsignificance":10575,"ĠPic":10576,"ando":10577,"ĠSheffield":10578,"Ġreviewed":10579,"Ġruler":10580,"ĠChile":10581,"Ġvictim":10582,"Ġcertainly":10583,"Ġrecovery":10584,"Ġreinforced":10585,"Ġexclusive":10586,"Ġpunk":10587,"Ġnerv":10588,"ĠDallas":10589,"Ġ69":10590,"Ġpractical":10591,"Ġmaintaining":10592,"ĠBird":10593,"ĠFerr":10594,"Ġdrummer":10595,"Ġ92":10596,"ĠClay":10597,"Ġconce":10598,"Ġreleg":10599,"Ġblues":10600,"Ġdistricts":10601,"ĠQuebec":10602,"erver":10603,"ĠCatherine":10604,"onge":10605,"Ġcinema":10606,"Ġcontend":10607,"ĠAlaska":10608,"Ġcompetitive":10609,"Ã©t":10610,"Ġconven":10611,"ĠUpper":10612,"Ġextinct":10613,"Ġapplications":10614,"Ġpetition":10615,"iar":10616,"Ġcommunications":10617,"Ġstatistics":10618,"Ġbeneath":10619,"Ġloved":10620,"RI":10621,"Ġ700":10622,"Ġmagnitude":10623,"Ġtowers":10624,"ĠAuthority":10625,"utter":10626,"Ġweb":10627,"Ġadvertis":10628,"Ġfest":10629,"Ġrecurring":10630,"Ġdece":10631,"ĠOrleans":10632,"Ġvaluable":10633,"ĠAgency":10634,"edia":10635,"Ġaccurate":10636,"osexual":10637,"Ġblind":10638,"Ġshifted":10639,"later":10640,"abilities":10641,"achute":10642,"castle":10643,"Ġtested":10644,"ĠSteel":10645,"That":10646,"150":10647,"Ġlin":10648,"ĠHav":10649,"ĠThose":10650,"Ġupset":10651,"Col":10652,"music":10653,"Ġ08":10654,"atical":10655,"ĠWells":10656,"ĠOrange":10657,"utor":10658,"Ġchore":10659,"Ġscores":10660,"best":10661,"reens":10662,"oded":10663,"Ġshoulder":10664,"ĠFinally":10665,"Ġkills":10666,"Ġaft":10667,"itate":10668,"ĠMason":10669,"ometimes":10670,"final":10671,"Ġpm":10672,"arting":10673,"Ġsurve":10674,"Ġairline":10675,"ĠHerald":10676,"Ġvalid":10677,"Ġhind":10678,"alls":10679,"affe":10680,"backs":10681,"ĠWallace":10682,"ĠGlobe":10683,"Ġinclusion":10684,"Ġunlikely":10685,"ĠCathedral":10686,"ĠCass":10687,"landers":10688,"iously":10689,"Ġ1897":10690,"Ġansw":10691,"Ġdiverse":10692,"asha":10693,"Ġskill":10694,"%,":10695,"ĠSem":10696,"aiden":10697,"Ġfaces":10698,"lived":10699,"Ġlock":10700,"Ġgraduate":10701,"ĠPhys":10702,"ĠAli":10703,"Ġcrest":10704,"ĠGeoff":10705,"2010":10706,"ĠOriginally":10707,"ĠConstantin":10708,"ĠKon":10709,"Ġconsolid":10710,"Ġnoble":10711,"Ġbull":10712,"ĠRic":10713,"ĠEmer":10714,"vet":10715,"ĠCad":10716,"ĠGot":10717,"Ġclothes":10718,"Ġsummit":10719,"yd":10720,"Ġtheories":10721,"Ġclar":10722,"oids":10723,"isons":10724,"ĠVel":10725,"iko":10726,"fly":10727,"ĠCraw":10728,"Ġparas":10729,"Ġsquadrons":10730,"ĠCyrus":10731,"ĠSle":10732,"icking":10733,"levard":10734,"Ġmorph":10735,"Ġsteep":10736,"Ġcharted":10737,"Ġmerged":10738,"Tube":10739,"Ġmoon":10740,"ĠChen":10741,"ĠRio":10742,"ĠQuest":10743,"ĠDefense":10744,"ĠParsons":10745,"ĠJohnston":10746,"ĠNev":10747,"ĠPad":10748,"ĠStef":10749,"ĠThunder":10750,"2008":10751,"ĠProvince":10752,"Ġdecorated":10753,"Ġtours":10754,"ĠHold":10755,"ĠSega":10756,"ĠGrace":10757,"ĠOutstanding":10758,"hill":10759,"Ġmanage":10760,"Ed":10761,"ĠTai":10762,"ĠEff":10763,"Ġprocesses":10764,"ĠBrazilian":10765,"ĠIsraeli":10766,"mn":10767,"Ġid":10768,"enson":10769,"gence":10770,"Ġfate":10771,"Ġprel":10772,"Ġcivilians":10773,"ĠSusan":10774,"disc":10775,"Ġshallow":10776,"aping":10777,"ĠKan":10778,"Ġfrequency":10779,"Ġpersuaded":10780,"Ġsurprised":10781,"ĠUtah":10782,"eling":10783,"ĠOwen":10784,"Ġbeaten":10785,"Ġreactions":10786,"Ġsegments":10787,"ĠDanish":10788,"veloped":10789,"Ġdemo":10790,"ĠClassic":10791,"Ġaccommodate":10792,"Ġdancers":10793,"Ġhills":10794,"ĠPrincip":10795,"ĠCultural":10796,"ĠYellow":10797,"Te":10798,"Ġliner":10799,"ĠLocal":10800,"Ġriding":10801,"Ġ93":10802,"ĠRu":10803,"Ġdescent":10804,"Ġdrafted":10805,"Down":10806,"north":10807,"ĠSom":10808,"cha":10809,"ĠYam":10810,"Ġconfidence":10811,"Ġcomplained":10812,"87":10813,"mo":10814,"ĠLem":10815,"ĠBryan":10816,"ĠRichmond":10817,"ĠGa":10818,"ĠGreater":10819,"Bob":10820,"Ġfairly":10821,"Ġimplemented":10822,"PS":10823,"Ġpassion":10824,"Ġcrimes":10825,"Through":10826,"Ġsuspic":10827,"ĠFourth":10828,"ĠInv":10829,"Ġ81":10830,"Ġvulnerable":10831,"rh":10832,"ĠList":10833,"onsin":10834,"Ġpresentation":10835,"Ġagriculture":10836,"made":10837,"Ġrejoin":10838,"Ġindu":10839,"Ġunexpected":10840,"Ġcolors":10841,"Ġratio":10842,"Ġsoutheastern":10843,"Ġproportion":10844,"ĠMalaysia":10845,"ĠFisher":10846,"Ġheritage":10847,"Ġ86":10848,"Ġanswer":10849,"ĠClarke":10850,"pine":10851,"Ġ1895":10852,"ĠGuitar":10853,"ĠMcKin":10854,"ĠRena":10855,"Ġsentence":10856,"door":10857,"Ġgender":10858,"heric":10859,"ĠFBI":10860,"Ġjet":10861,"Ġaddressed":10862,"ĠActor":10863,"Ġcolumns":10864,"ĠProp":10865,"ritic":10866,"ĠHaz":10867,"ĠFu":10868,"Ġfeared":10869,"Ġembr":10870,"Ġdevoted":10871,"urst":10872,"usalem":10873,"Ġcant":10874,"ĠSox":10875,"ulus":10876,"Ġâģ":10877,"Ġpotentially":10878,"Ġvoyage":10879,"Ġcards":10880,"amount":10881,"ĠLink":10882,"rific":10883,"Ġsailing":10884,"othy":10885,"Ġ84":10886,"Ġresearchers":10887,"Ġjurisdiction":10888,"Ġmood":10889,"ospel":10890,"ĠRest":10891,"avan":10892,"ĠPlant":10893,"minster":10894,"itic":10895,"Ġfram":10896,"izer":10897,"Ġinteraction":10898,"Ġwritings":10899,"Ġobservation":10900,"ĠMuhammad":10901,"nels":10902,"Ġmerc":10903,"osaurs":10904,"93":10905,"Ġbeating":10906,"ĠDeep":10907,"Ġoperates":10908,"Ġhanded":10909,"aco":10910,"Ġjudges":10911,"ĠSalt":10912,"ĠCBS":10913,"Ġrequiring":10914,"ĠRegister":10915,"Ġcommenting":10916,"inis":10917,"Ġpip":10918,"ĠâģĦ":10919,"just":10920,"Ġnurs":10921,"ĠExper":10922,"ometric":10923,"Ġcategories":10924,"rating":10925,"rob":10926,"isconsin":10927,"mediate":10928,"ĠYouTube":10929,"Ġbeauty":10930,"ĠAirlines":10931,"2009":10932,"Ġtribe":10933,"Ġmythology":10934,"Ġkidn":10935,"ĠChelsea":10936,"gus":10937,"Ġnat":10938,"Ġdisb":10939,"Ġamph":10940,"lington":10941,"Ġsimilarities":10942,"ĠNeil":10943,"CO":10944,"Î±":10945,"Ġtale":10946,"ĠGh":10947,"parts":10948,"Ġconfusion":10949,"Ġwine":10950,"ĠAer":10951,"Ġstudying":10952,"ucker":10953,"ÃŃn":10954,"ĠOverall":10955,"gomery":10956,"kh":10957,"Ġgene":10958,"Ġclin":10959,"Ġintervention":10960,"Ġrecept":10961,"Ġextensively":10962,"ĠArmstrong":10963,"Ġsculpture":10964,"enos":10965,"Ġfame":10966,"ĠJunior":10967,"Ġmanip":10968,"Ġpole":10969,"Ġphysics":10970,"Ġdiplomatic":10971,"AL":10972,"Ġfollowers":10973,"ĠEdition":10974,"Ġbreaks":10975,"ĠLiter":10976,"Ġadvancing":10977,"Ġhighlighted":10978,"Ġfer":10979,"ĠCavalry":10980,"abl":10981,"Ġopens":10982,"Ġpregnant":10983,"German":10984,"hall":10985,"omed":10986,"Ġstatements":10987,"ĠConservation":10988,"Ġchallenges":10989,"ĠKaiser":10990,"Ġinfrastructure":10991,"Ġgardens":10992,"Ġdense":10993,"ĠNext":10994,"Ġgaining":10995,"Ġefficient":10996,"tem":10997,"Ġtoler":10998,"Ġ94":10999,"ĠOrchest":11000,"Ġsentenced":11001,"Ġ1861":11002,"ĠStudio":11003,"Ġembarked":11004,"ĠScientology":11005,"Ġsuddenly":11006,"Ġfasc":11007,"ĠSign":11008,"ĠMend":11009,"umbered":11010,"prof":11011,"osph":11012,"ĠPriv":11013,"ĠAmb":11014,"Ġprinciple":11015,"Ġdisturbance":11016,"Ġhole":11017,"agers":11018,"ĠReich":11019,"ĠSpirit":11020,"Ã©n":11021,"Ġrect":11022,"playing":11023,"angular":11024,"Ġstructural":11025,"production":11026,"Ġerror":11027,"ĠCardiff":11028,"ancellor":11029,"Ġknocked":11030,"Ġboundaries":11031,"Ġpredators":11032,"ĠOfficial":11033,"Ġdivorce":11034,"ĠLuke":11035,"Ġties":11036,"ĠTerry":11037,"ĠLoc":11038,"ĠMinor":11039,"ĠLarry":11040,"ATO":11041,"ĠSymphony":11042,"lights":11043,"inus":11044,"Ġdwarf":11045,"Ġfee":11046,"ĠSout":11047,"Ġvariation":11048,"Ġslavery":11049,"orient":11050,"Ġthrown":11051,"ĠBible":11052,"Ġracial":11053,"Ġbears":11054,"rift":11055,"aple":11056,"izz":11057,"Ġ97":11058,"ĠProduct":11059,"Ġexplaining":11060,"Ġconstitu":11061,"Ġlifetime":11062,"Ġemotion":11063,"130":11064,"Ġaqu":11065,"Ġreceives":11066,"ulsion":11067,"urred":11068,"ĠPoll":11069,"Ġevident":11070,"ĠAmendment":11071,"Ġdrown":11072,"Ġsettlements":11073,"Ġshock":11074,"Ġholiday":11075,"uction":11076,"Ġadminister":11077,"Ġknee":11078,"Ġgarnered":11079,"ĠRepublicans":11080,"ĠPicture":11081,"ĠBuffalo":11082,"Ġmud":11083,"ovak":11084,"ĠGameSp":11085,"ĠPerformance":11086,"Ġrecruited":11087,"250":11088,"uters":11089,"thodox":11090,"ĠHarold":11091,"Ġboot":11092,"oba":11093,"Ġashore":11094,"ĠCemetery":11095,"three":11096,"ĠVers":11097,"Ġcrashed":11098,"ĠGreatest":11099,"ĠMetropolitan":11100,"winning":11101,"Ġspawn":11102,"ĠConstantine":11103,"ĠâĤ¹":11104,"They":11105,"Ġlocally":11106,"ĠJerusalem":11107,"Ġow":11108,"Ġcommercially":11109,"wald":11110,"ĠAT":11111,"ĠWoman":11112,"ĠActress":11113,"Ġweakening":11114,"Ġtickets":11115,"Ġtension":11116,"Ġresolved":11117,"rene":11118,"Ġassum":11119,"celand":11120,"Ġoptions":11121,"mat":11122,"ĠHD":11123,"ellar":11124,"Ġinvolves":11125,"ĠCrus":11126,"Ġconsiderably":11127,"Ġbenefits":11128,"Ġstretch":11129,"vironment":11130,"ĠGay":11131,"Ġtasked":11132,"Ġescorted":11133,"Ġages":11134,"Ġsubstitute":11135,"Ġdiscontin":11136,"Ġdetect":11137,"Ġrescued":11138,"ĠBurns":11139,"Ġseas":11140,"Ġhoused":11141,"Ġburning":11142,"ho":11143,"ĠTyler":11144,"ĠPant":11145,"ĠTrade":11146,"Ġproteins":11147,"changed":11148,"Bet":11149,"Ġgift":11150,"chen":11151,"ĠGrade":11152,"ĠPanzer":11153,"Ġconcerning":11154,"world":11155,"inz":11156,"ĠSultan":11157,"Ġbatted":11158,"ĠSerbian":11159,"ĠGround":11160,"cliff":11161,"Ġtraditionally":11162,"Ġessentially":11163,"!,":11164,"Ġnaming":11165,"Ġhelps":11166,"ĠMontgomery":11167,"ÉĻ":11168,"ĠAber":11169,"ĠEth":11170,"Ġsword":11171,"Ġdeeply":11172,"Ġwarships":11173,"Ġexplore":11174,"Ġ1891":11175,"Just":11176,"Ġurg":11177,"Ġdual":11178,"ĠIvan":11179,"ĠWisconsin":11180,"ĠLiving":11181,"ĠEve":11182,"Ġcliff":11183,"Ġconflicts":11184,"ER":11185,"ĠTogether":11186,"ĠSug":11187,"Ġdisorder":11188,"Ġcompetitions":11189,"ĠBoeing":11190,"ĠBaltic":11191,"ĠAttorney":11192,"ÃŃa":11193,"Ġpursued":11194,"erb":11195,"Ġdoors":11196,"2005":11197,"ĠStuart":11198,"Ġeditions":11199,"core":11200,"ĠNewton":11201,"Ġdepicts":11202,"ĠSchum":11203,"Ġcollections":11204,"Ġvolunteers":11205,"Ġrib":11206,"Ġcook":11207,"leb":11208,"ĠSac":11209,"Ġrings":11210,"Ġjack":11211,"Ġtravelling":11212,"Ġimprisoned":11213,"wright":11214,"ĠHalf":11215,"Ġ1800":11216,"Ġsupern":11217,"ĠLegisl":11218,"Ġreass":11219,"Ġforb":11220,"Ġteammate":11221,"ĠAges":11222,"ĠKate":11223,"Ġconcurrent":11224,"Ġpursuit":11225,"ĠIndonesian":11226,"ĠPast":11227,"ĠLeaf":11228,"Ġeventual":11229,"Ġequally":11230,"ĠHunter":11231,"Ġsacrif":11232,"Ġbeliefs":11233,"ĠIndependence":11234,"84":11235,"ĠTa":11236,"Ġlad":11237,"Ġnumbered":11238,"Ġopposing":11239,"ĠMovie":11240,"ĠFitz":11241,"Ġ1894":11242,"Ġscreenplay":11243,"ju":11244,"sor":11245,"Ġsmoke":11246,"Ġpoliticians":11247,"Ġdimin":11248,"Ġdinner":11249,"Ġabroad":11250,"Ġmanif":11251,"Ġrevival":11252,"Ġdealing":11253,"Ġharbour":11254,"ĠBrooks":11255,"Ġtape":11256,"them":11257,"Ġuniversities":11258,"Ġurged":11259,"Ġcensus":11260,"rogen":11261,"Ġdying":11262,"Ġauthorized":11263,"ĠScots":11264,"Ġmedals":11265,"Ġpriest":11266,"isition":11267,"arest":11268,"ublin":11269,"gow":11270,"ĠIl":11271,"regular":11272,"Ġborrow":11273,"Ġrenewed":11274,"Ġ<":11275,"ouch":11276,"Ġgods":11277,"inery":11278,"Ġunve":11279,"Ġenabled":11280,"2000":11281,"eps":11282,"2011":11283,"2006":11284,"ĠApollo":11285,"ĠAthens":11286,"ints":11287,"ĠCamb":11288,"ailing":11289,"Ġdim":11290,"Ġelaborate":11291,"second":11292,"Ġrivals":11293,"actory":11294,"Ġparticipants":11295,"Ġchemistry":11296,"ĠRepresentatives":11297,"Can":11298,"Ġfert":11299,"Ġguy":11300,"Ġdrain":11301,"ĠRogers":11302,"ĠJohann":11303,"ĠBarnes":11304,"Ġmixture":11305,"ĠSaturn":11306,"West":11307,"ĠTerr":11308,"child":11309,"Ġconj":11310,"Ġsuspected":11311,"Ġcongress":11312,"MC":11313,"pres":11314,"onation":11315,"ĠSay":11316,"arded":11317,"Ġtooth":11318,"Ġinterven":11319,"ĠZone":11320,"ĠAbu":11321,"ĠSid":11322,"Ġlaps":11323,"Ġrushing":11324,"asp":11325,"amine":11326,"iffer":11327,"acking":11328,"ephew":11329,"Ġassert":11330,"Ġpromise":11331,"hou":11332,"roe":11333,"ĠFlore":11334,"finals":11335,"Ġcable":11336,"Ġfavourite":11337,"ĠHearts":11338,"icken":11339,"Ġconsc":11340,"Ġcolours":11341,"Ġpitcher":11342,"Ġsharks":11343,"Ġcattle":11344,"icing":11345,"lete":11346,"ampton":11347,"Ġdecreased":11348,"David":11349,"Ġpink":11350,"Ġmanufacturing":11351,"Ġstolen":11352,"ilda":11353,"Ġvillain":11354,"Ġhostile":11355,"Ġveteran":11356,"ĠDays":11357,"Ġvig":11358,"quer":11359,"iah":11360,"ĠScar":11361,"Ġflex":11362,"ournament":11363,"Ġcompositions":11364,"ridor":11365,"isan":11366,"ĠNature":11367,"anga":11368,"Ġinvaded":11369,"Ġcostume":11370,"Ġ1889":11371,"ĠPatri":11372,"rost":11373,"ĠWes":11374,"Ġthereby":11375,"Ġ1892":11376,"erts":11377,"ĠAren":11378,"ĠRuth":11379,"ĠBranch":11380,"omes":11381,"Ġstones":11382,"Ġapply":11383,"Ġcaps":11384,"Ġinhib":11385,"ĠWonder":11386,"Ġbombardment":11387,"Ġsalv":11388,"Ġaccidentally":11389,"ĠConstantinople":11390,"WA":11391,"Ġtel":11392,"Ġhopes":11393,"Ġmaps":11394,"Ġnut":11395,"ĠPoly":11396,"Ġprofile":11397,"ĠHeavyweight":11398,"uber":11399,"idia":11400,"ĠStill":11401,"ovic":11402,"rible":11403,"Ġverte":11404,"Ġinherited":11405,"Ġwarned":11406,"Ġcapturing":11407,"áº":11408,"ĠChristians":11409,"ĠAffairs":11410,"orf":11411,"Ġgodd":11412,"colm":11413,"Ġtornado":11414,"page":11415,"Î¿":11416,"Ġrains":11417,"ĠComedy":11418,"alg":11419,"Ġcelebration":11420,"ĠTurkey":11421,"HS":11422,"chi":11423,"ulum":11424,"Ġcomics":11425,"Ġprovisions":11426,"Ġlinks":11427,"ĠHope":11428,"ĠJoan":11429,"Ġhoping":11430,"Ġconfirm":11431,"Ġorganisms":11432,"oft":11433,"ĠBask":11434,"ĠIceland":11435,"ĠDanny":11436,"Ġanalog":11437,"Ġempty":11438,"Ġpossess":11439,"Ġlaboratory":11440,"Ġpill":11441,"orted":11442,"Ġinnoc":11443,"Ġtissue":11444,"ĠMall":11445,"ĠReport":11446,"restrial":11447,"Ġib":11448,"ĠNord":11449,"Ġnickname":11450,"auc":11451,"Ġho":11452,"ĠSud":11453,"ĠWalt":11454,"agles":11455,"Ġprototype":11456,"Ġavo":11457,"Ġwonder":11458,"artime":11459,"Ġbatteries":11460,"Ġeasier":11461,"Ġvariations":11462,"ĠLaboratory":11463,"ellers":11464,"ĠThames":11465,"ĠPortugal":11466,"ĠTow":11467,"ptic":11468,"ĠThr":11469,"ĠNova":11470,"However":11471,"cell":11472,"ĠPok":11473,"Ġsupports":11474,"Ġgirlfriend":11475,"Ġoccasional":11476,"list":11477,"uil":11478,"Ġsinking":11479,"ĠKyle":11480,"former":11481,"ĠNewcastle":11482,"82":11483,"ĠExecutive":11484,"Ġjuven":11485,"TS":11486,"atsu":11487,"Ġpromoting":11488,"ĠChapel":11489,"ĠJTWC":11490,"riel":11491,"oric":11492,"Ġfires":11493,"ĠHunt":11494,"Ġpositively":11495,"Ġgrap":11496,"Ġseparation":11497,"ĠMacArthur":11498,"hart":11499,"mont":11500,"Ġfra":11501,"Ġprogressed":11502,"Ġhandle":11503,"Ġthreats":11504,"Ġdocumented":11505,"amics":11506,"ĠDraft":11507,"ĠFighter":11508,"Ġtrapped":11509,"ĠEvil":11510,"Ġrestrictions":11511,"ĠMarines":11512,"Ġremembered":11513,"Har":11514,"great":11515,"ĠPrest":11516,"Ġavoided":11517,"ĠMS":11518,"Ġaccord":11519,"Ġguests":11520,"ĠMeteorological":11521,"yan":11522,"Ġtaste":11523,"Ġlift":11524,"ĠFil":11525,"ĠCentury":11526,"2003":11527,"Ġbiography":11528,"Ġsor":11529,"atisf":11530,"ĠMeth":11531,"qual":11532,"etta":11533,"Ġgrandfather":11534,"ĠSherman":11535,"ĠSyn":11536,"ielder":11537,"ĠBaron":11538,"Ġgolden":11539,"ĠRomney":11540,"ĠHad":11541,"gett":11542,"Ġparliamentary":11543,"had":11544,"pat":11545,"itches":11546,"Ġdust":11547,"ĠFern":11548,"Ġ07":11549,"Ġlighter":11550,"ught":11551,"acht":11552,"Ġmetric":11553,"Ġdeputy":11554,"Ġhandling":11555,"Ġdefenders":11556,"Ġblend":11557,"Pro":11558,"oom":11559,"ĠStars":11560,"Ġcustomers":11561,"Ġmurdered":11562,"sa":11563,"ĠBears":11564,"oples":11565,"Ġvital":11566,"Ġproduces":11567,"ĠManagement":11568,"Ġvelocity":11569,"mans":11570,"Ġnoticed":11571,"Ġscandal":11572,"emble":11573,"ĠRegional":11574,"Ġevacuation":11575,"ĠBoulevard":11576,"Ġhorizont":11577,"hl":11578,"ĠÐ":11579,"ĠFull":11580,"ĠStra":11581,"Ġusage":11582,"Ġpolitician":11583,"Ġcontracts":11584,"Ġinhab":11585,"osy":11586,"ĠNeb":11587,"Ġtrailer":11588,"ĠToy":11589,"Ġyard":11590,"nex":11591,"Ġ1885":11592,"Ġ1865":11593,"Ġbiological":11594,"Ġlawsuit":11595,"92":11596,"Ġbell":11597,"Ġchase":11598,"Ġconsumption":11599,"Ġvolcanic":11600,"ĠOrchestra":11601,"lesh":11602,"ĠReagan":11603,"ĠCornwall":11604,"Ġliver":11605,"ĠIns":11606,"ĠYouth":11607,"ĠGuild":11608,"Qu":11609,"Ġramp":11610,"Ġrugby":11611,"Ġtrunk":11612,"ĠJudge":11613,"there":11614,"ĠElectric":11615,"oirs":11616,"Love":11617,"racks":11618,"ĠTru":11619,"Ġeating":11620,"Ġspeculation":11621,"Ġlicense":11622,"ĠJoint":11623,"ĠInvest":11624,"Ġrelation":11625,"Ġmixing":11626,"lined":11627,"song":11628,"ĠPul":11629,"ĠDuch":11630,"incinn":11631,"Ġcam":11632,"ĠCinem":11633,"Ġstyl":11634,"Eng":11635,"Ġrever":11636,"igger":11637,"ĠPas":11638,"osion":11639,"Ġspl":11640,"aneous":11641,"Ġdevelopments":11642,"Ġcathedral":11643,"ĠCer":11644,"Ġparticles":11645,"Ġengineers":11646,"ĠMiles":11647,"ĠAthletic":11648,"ĠDublin":11649,"Ġencounters":11650,"Ġdecrease":11651,"Ġanticipated":11652,"Ġwound":11653,"estab":11654,"Ġindustries":11655,"ĠJosÃ©":11656,"heimer":11657,"Ġdepicting":11658,"83":11659,"ĠEnvironment":11660,"ĠSpider":11661,"ĠBright":11662,"Ġ05":11663,"Ġmarking":11664,"Ġpor":11665,"akh":11666,"commun":11667,"onnie":11668,"Ġundertaken":11669,"Ġtherm":11670,"Ġcash":11671,"ĠSic":11672,"etary":11673,"ĠâĢ¦":11674,"inded":11675,"Ġformula":11676,"Ġdebris":11677,"ĠProtestant":11678,"ĠCena":11679,"ĠGon":11680,"Ġplates":11681,"Ġvicinity":11682,"ĠJustin":11683,"Ġthunderstorm":11684,"Hg":11685,"Ġcow":11686,"Ġabb":11687,"Ġchoir":11688,"Ġtouchdowns":11689,"ĠIslamic":11690,"ĠFIFA":11691,"Ġnose":11692,"Ġaccessible":11693,"ĠCharlotte":11694,"ĠVeg":11695,"ĠSean":11696,"Ġ1888":11697,"ĠChester":11698,"entieth":11699,"ĠNATO":11700,"Ġprest":11701,"formed":11702,"Ġchampionships":11703,"Ġmechanism":11704,"Ġdozen":11705,"free":11706,"itol":11707,"olia":11708,"iga":11709,"Ġrandom":11710,"opic":11711,"fam":11712,"ĠSonic":11713,"amation":11714,"Ġproof":11715,"Ġorange":11716,"ĠEnergy":11717,"Ġvirtually":11718,"Because":11719,"ighting":11720,"ugs":11721,"ĠLeices":11722,"Ġignored":11723,"ĠÄĲ":11724,"lims":11725,"uin":11726,"itime":11727,"Ġcontacted":11728,"Ġcu":11729,"Ġmounts":11730,"ĠFlow":11731,"cedes":11732,"Ġ06":11733,"Ġeastward":11734,"Ġconvicted":11735,"Ġinaugural":11736,"ĠAS":11737,"uka":11738,"ĠLeonard":11739,"Ġarose":11740,"ĠVoice":11741,"assy":11742,"Ġupcoming":11743,"Ġsuspension":11744,"first":11745,"ĠPin":11746,"ĠNancy":11747,"Ġepic":11748,"Ġcommunist":11749,"ĠTitan":11750,"Ġexhibit":11751,"Ġconversation":11752,"ĠTribune":11753,"avi":11754,"ribution":11755,"Ġmammals":11756,"ocol":11757,"ĠStein":11758,"iminary":11759,"Ġdisappointed":11760,"ĠSide":11761,"Ġwake":11762,"Ġferry":11763,"Ġindigenous":11764,"Ġportrait":11765,"ischer":11766,"2004":11767,"Ġhumanity":11768,"Ġfarmers":11769,"Ġcollaborated":11770,"post":11771,"Ġmos":11772,"ĠMI":11773,"Ġvoters":11774,"hanced":11775,"Ġhelicopter":11776,"Ġcorporate":11777,"pin":11778,"Ġtube":11779,"raltar":11780,"ĠEight":11781,"ĠGlas":11782,"ĠMagic":11783,"Ġterritorial":11784,"ubble":11785,"ĠCollection":11786,"ĠMicha":11787,"ĠBarbara":11788,"mother":11789,"Ġaside":11790,"ĠPeng":11791,"ĠSerbia":11792,"quiry":11793,"front":11794,"mel":11795,"Ġstern":11796,"avian":11797,"ĠThan":11798,"Ġfacil":11799,"ĠCanu":11800,"ĠMind":11801,"ortion":11802,"abric":11803,"Ġlasting":11804,"Ġfocuses":11805,"incinnati":11806,"iture":11807,"Ġtools":11808,"ĠTed":11809,"Ġoccurring":11810,"ĠControl":11811,"Ġfron":11812,"Ġ978":11813,"Ġpeninsula":11814,"Ġcomplicated":11815,"ĠErnest":11816,"ĠCareer":11817,"ĠAgainst":11818,"Ġmit":11819,"ĠBert":11820,"Ġsynthes":11821,"elect":11822,"ĠCode":11823,"Ġprol":11824,"Ġfeathers":11825,"Ġlaugh":11826,"Ġloud":11827,"ework":11828,"Ġpreserve":11829,"issioned":11830,"auge":11831,"works":11832,"Ġinfection":11833,"ĠContinental":11834,"ĠPedro":11835,"ĠMalta":11836,"how":11837,"ĠKit":11838,"Ġtracked":11839,"ĠLuft":11840,"ĠYugoslavia":11841,"Ġposts":11842,"ĠOthers":11843,"ĠSpringfield":11844,"Ġconquest":11845,"ipher":11846,"sson":11847,"Ġ1864":11848,"ĠRoom":11849,"Ġexplanation":11850,"ĠOur":11851,"Ġasserted":11852,"ennial":11853,"Ġspeeds":11854,"gans":11855,"ĠTyphoon":11856,"ĠMix":11857,"ĠFish":11858,"ĠArchbishop":11859,"Ġcryst":11860,"VP":11861,"Ġretrie":11862,"Ġgrows":11863,"Ġangry":11864,"Ġpredominantly":11865,"ahl":11866,"ufficient":11867,"Ġremoving":11868,"ĠChad":11869,"Ġroadway":11870,"Ġcastles":11871,"Ġsituations":11872,"Ġlyrical":11873,"ĠNormandy":11874,"Or":11875,"ds":11876,"Ġward":11877,"asury":11878,"Ġsheep":11879,"Ġdeclar":11880,"ĠAlberta":11881,"ĠArmenian":11882,"sub":11883,"ĠCO":11884,"itchen":11885,"Ġcanceled":11886,"Ġlying":11887,"Ġelite":11888,"Ġcircular":11889,"autiful":11890,"Ġindependently":11891,"ĠBeth":11892,"Ġresid":11893,"Ġapolog":11894,"six":11895,"Ã´":11896,"enburg":11897,"overy":11898,"rels":11899,"Ġrelieved":11900,"ĠEnt":11901,"Ġfinals":11902,"Ġstrikes":11903,"ĠAction":11904,"Ġgif":11905,"Ġoffshore":11906,"Ġfunded":11907,"DA":11908,"inted":11909,"Ġhyper":11910,"ĠVegas":11911,"cor":11912,"ulates":11913,"Ġexclud":11914,"ĠUC":11915,"Ġexamination":11916,"ĠVick":11917,"ĠComics":11918,"Ġbreeds":11919,"Ġsustain":11920,"gor":11921,"ĠAqu":11922,"izard":11923,"ĠAlliance":11924,"Ġpatient":11925,"Ġgenres":11926,"Ġboost":11927,"ĠAntar":11928,"Ġchrom":11929,"Ġclergy":11930,"£o":11931,"ĠFriends":11932,"making":11933,"Ġdislik":11934,"overty":11935,"Ġmarched":11936,"Ġbowl":11937,"ĠLiberty":11938,"Ġaltitude":11939,"Ġlocomotives":11940,"Ġintellectual":11941,"William":11942,"ĠLords":11943,"Ġcompiled":11944,"itional":11945,"Ġrecruit":11946,"Ġconstantly":11947,"Ġordinary":11948,"instein":11949,"Ġbomber":11950,"ĠSaf":11951,"opy":11952,"Ġantib":11953,"umberland":11954,"Ġpleased":11955,"ĠCincinnati":11956,"Ġ1862":11957,"eness":11958,"ĠMaine":11959,"Ġarena":11960,"Ġclosure":11961,"Ġphoto":11962,"ĠGibraltar":11963,"ĠJe":11964,"Ġ83":11965,"ĠHas":11966,"ĠTraff":11967,"ĠVilla":11968,"ĠPlace":11969,"ĠPete":11970,"Ġfold":11971,"Ġpier":11972,"imony":11973,"ĠKenneth":11974,"new":11975,"Ġregulations":11976,"Ġknows":11977,"Ġdiamond":11978,"Ġprosper":11979,"Ġrendered":11980,"ĠChamberlain":11981,"encer":11982,"ĠLower":11983,"ĠFace":11984,"ĠShield":11985,"Ġviewing":11986,"Ġeducated":11987,"Ġtimber":11988,"northwest":11989,"acular":11990,"Ġstim":11991,"aba":11992,"ishn":11993,"ĠRef":11994,"Ġsuggestion":11995,"ĠBark":11996,"ĠShin":11997,"DI":11998,"rÃ©":11999,"Ġlayers":12000,"zes":12001,"ĠÏ":12002,"atty":12003,"ĠLev":12004,"Ġlacking":12005,"Ġthrowing":12006,"GM":12007,"alin":12008,"leted":12009,"ĠSaw":12010,"lett":12011,"ĠMetro":12012,"ĠTechnology":12013,"ĠAfghanistan":12014,"ĠCand":12015,"igation":12016,"Ġune":12017,"ĠChair":12018,"Ġvarying":12019,"Ġinducted":12020,"ĠTang":12021,"ĠBradley":12022,"Ġattraction":12023,"Ġwitnesses":12024,"ĠSection":12025,"omon":12026,"Ġleaf":12027,"Ġblamed":12028,"ĠBrowns":12029,"Ġcelebrate":12030,"ĠBulgar":12031,"Ġillustrated":12032,"Ġfungus":12033,"ĠXX":12034,"uce":12035,"Ġpig":12036,"Ġscar":12037,"Ġreporter":12038,"ĠMuslims":12039,"Ġdisappeared":12040,"ĠTwitter":12041,"eda":12042,"Ġinfer":12043,"ĠTournament":12044,"Ġadmir":12045,"Ġprofit":12046,"ĠIsaac":12047,"hero":12048,"Rec":12049,"ĠCase":12050,"Ġencom":12051,"ĠShah":12052,"Ġreporting":12053,"Ġnevertheless":12054,"Ġsweet":12055,"ĠTir":12056,"ĠKrist":12057,"usters":12058,"Ġsubmarines":12059,"ĠTaiwan":12060,"net":12061,"Ġuser":12062,"attack":12063,"gÃ©":12064,"Ġaest":12065,"Ġfier":12066,"employ":12067,"istant":12068,"Ġretreated":12069,"ĠOrton":12070,"Ġfortifications":12071,"ĠinHg":12072,"Ġexpanding":12073,"ĠFran":12074,"ubbard":12075,"ĠOrganization":12076,"alia":12077,"Ġstored":12078,"Ġatop":12079,"Ġflour":12080,"ĠReed":12081,"intin":12082,"Ġ91":12083,"ĠParks":12084,"di":12085,"icles":12086,"ĠWaters":12087,"Ġentert":12088,"Ġfaculty":12089,"Ġabsorbed":12090,"Ġty":12091,"ĠGates":12092,"oves":12093,"Ġperc":12094,"ĠWithout":12095,"Ġparking":12096,"ĠMarshal":12097,"ĠVIII":12098,"esty":12099,"Ġsubmer":12100,"Ġpublicity":12101,"Ġconfident":12102,"Ġreleasing":12103,"Ġkiller":12104,"Ġarmoured":12105,"vol":12106,"Ġ1000":12107,"ĠBrooklyn":12108,"ĠCyclone":12109,"lu":12110,"Ġhence":12111,"Ġholes":12112,"ĠERA":12113,"ĠShiva":12114,"Ġrealistic":12115,"ĠPrinceton":12116,"Ġfossils":12117,"Mr":12118,"edge":12119,"Ġexile":12120,"Ġcompanion":12121,"Ġshelter":12122,"ĠTigers":12123,"Ġdesper":12124,"Ġbrilliant":12125,"Ġfocusing":12126,"ĠRevolutionary":12127,"Ġcondemned":12128,"bus":12129,"ĠTerm":12130,"iki":12131,"Ġdetected":12132,"Ġromance":12133,"ĠCanucks":12134,"Ġremote":12135,"Ġblast":12136,"Ġuniversal":12137,"Ġresignation":12138,"girl":12139,"ËĲ":12140,"onso":12141,"ĠMaced":12142,"Ġverses":12143,"ettes":12144,"ĠSlav":12145,"ĠUk":12146,"Ġmentions":12147,"Ġmask":12148,"ĠLeeds":12149,"Ġrebounds":12150,"ĠSchumacher":12151,"RS":12152,"ogg":12153,"ĠShep":12154,"ĠPhillies":12155,"Ġdisbanded":12156,"aton":12157,"ĠTests":12158,"ĠDud":12159,"aku":12160,"Ġregiments":12161,"Ġcruise":12162,"auded":12163,"Ġpreceding":12164,"Ġsponsored":12165,"Ġconspiracy":12166,"gener":12167,"Ġfract":12168,"ĠJNA":12169,"Ġ1840":12170,"Ġconvince":12171,"Ġstability":12172,"ĠRus":12173,"raham":12174,"Ġstudios":12175,"Ã¶r":12176,"Ġtorpedoes":12177,"Ġthorough":12178,"Geor":12179,"only":12180,"ĠDJ":12181,"actor":12182,"Ġimpressive":12183,"LA":12184,"ĠCort":12185,"Ġtelephone":12186,"Ġbearing":12187,"ĠEddie":12188,"Ġflown":12189,"cat":12190,"olan":12191,"ishops":12192,"Ġsentiment":12193,"ĠMalcolm":12194,"Ġcorresponding":12195,"Mal":12196,"Ġasc":12197,"agi":12198,"Ġconcepts":12199,"Me":12200,"Ġeagle":12201,"ĠEld":12202,"ĠBCE":12203,"ĠWagner":12204,"garian":12205,"hor":12206,"eta":12207,"ido":12208,"alysis":12209,"ĠSmack":12210,"Ġmachines":12211,"Ġswept":12212,"Ġhybrid":12213,"Ġinsurance":12214,"ĠFreedom":12215,"abad":12216,"Ġroster":12217,"Ġpatri":12218,"ĠConservative":12219,"ĠGregory":12220,"Michael":12221,"Ġfed":12222,"Ġnephew":12223,"ĠRush":12224,"Ġtourist":12225,"bie":12226,"umi":12227,"ĠOscar":12228,"ĠOpera":12229,"Ġtent":12230,"ĠSweet":12231,"Ġlung":12232,"ewise":12233,"ubs":12234,"Ġconfused":12235,"Ġsolely":12236,"Brit":12237,"Her":12238,"isode":12239,"Ġdiversity":12240,"ĠGlee":12241,"Ġannex":12242,"ĠRear":12243,"Ġ\".":12244,"ampa":12245,"ĠWestminster":12246,"Ġcreature":12247,"Ġirregular":12248,"tz":12249,"Ġbutter":12250,"Ġjersey":12251,"Ġsteadily":12252,"ĠFriedrich":12253,"Ġmild":12254,"ĠAustro":12255,"Ġdirecting":12256,"ĠMorning":12257,"ĠTommy":12258,"Gr":12259,"atar":12260,"stop":12261,"ĠIsle":12262,"Ġmessages":12263,"Ġprompting":12264,"La":12265,"language":12266,"mm":12267,"Ġmyself":12268,"election":12269,"nda":12270,"Ġfault":12271,"Ġbapt":12272,"Ġenh":12273,"actic":12274,"Ġnoise":12275,"ĠEdmund":12276,"Ġpositioned":12277,"Ġbattlefield":12278,"Ġfavored":12279,"ĠPokÃ©":12280,"wind":12281,"Ġsulf":12282,"omical":12283,"geant":12284,"Ġtargeted":12285,"Ġscholarship":12286,"HC":12287,"Ġenorm":12288,"ĠMadison":12289,"Ġworse":12290,"ĠNation":12291,"ĠBrand":12292,"Ġmagnetic":12293,"imensional":12294,"vor":12295,"zed":12296,"unge":12297,"Ġcalculated":12298,"Ġwartime":12299,"Ġlover":12300,"ĠMann":12301,"ĠLud":12302,"Ġagencies":12303,"Ġtrio":12304,"Ġagrees":12305,"Ġspacecraft":12306,"Ġmonastery":12307,"BO":12308,"sur":12309,"Ġsin":12310,"ĠBurg":12311,"rians":12312,"Ġgusts":12313,"Ġdrunk":12314,"Ġconnects":12315,"Ġacclaimed":12316,"á»ĩ":12317,"anka":12318,"ĠBurke":12319,"ĠCrow":12320,"opard":12321,"Ġrefuses":12322,"Ġopined":12323,"Ġsav":12324,"Ġcotton":12325,"Ġinning":12326,"izers":12327,"Ġdistinction":12328,"ĠStudies":12329,"Ġoxid":12330,"Ġreconstruction":12331,"Ġrice":12332,"iors":12333,"Ġgear":12334,"ĠTheater":12335,"ĠBarcel":12336,"Ãł":12337,"ĠHull":12338,"ĠPay":12339,"ĠFuture":12340,"Ġsugar":12341,"Ġ1863":12342,"ĠMcKinley":12343,"Ġexterior":12344,"ĠVo":12345,"Ġguards":12346,"ĠCoal":12347,"Ġtune":12348,"Ġcemetery":12349,"ĠCany":12350,"istical":12351,"aults":12352,"Ġballs":12353,"Ab":12354,"reeks":12355,"ĠAltern":12356,"Ġobst":12357,"Ġtroop":12358,"Ġmeasuring":12359,"Ġclouds":12360,"arus":12361,"ĠHok":12362,"Ġtruly":12363,"Ġscreens":12364,"Ġincidents":12365,"ĠMontana":12366,"Ġchallenging":12367,"Ġjew":12368,"...\"":12369,"rises":12370,"Ġwalked":12371,"ĠTerritory":12372,"lake":12373,"rium":12374,"Ġmotif":12375,"ĠHolland":12376,"Ġwalks":12377,"Ġelevated":12378,"dam":12379,"enh":12380,"Ġhosp":12381,"ĠSquad":12382,"ĠHood":12383,"Ġconfig":12384,"Ġvenues":12385,"Ġconsequence":12386,"Ġthanks":12387,"Ġconducting":12388,"Ġtheaters":12389,"ĠRan":12390,"Ġfundamental":12391,"Ġkilometers":12392,"sing":12393,"inge":12394,"chw":12395,"ĠDin":12396,"Ġ1887":12397,"ĠTheodore":12398,"Ġarguments":12399,"Black":12400,"Ġcommitment":12401,"Ġaccomplished":12402,"Ġcomplimented":12403,"Big":12404,"ĠDennis":12405,"Ġcurve":12406,"Ġdropping":12407,"Ġjudicial":12408,"Ġceremonies":12409,"ĠCardinals":12410,"ĠMichaels":12411,"ighed":12412,"Ġrouting":12413,"Ġhistorically":12414,"Ġcreatures":12415,"ĠBasketball":12416,"Ġintend":12417,"imer":12418,"ĠFifth":12419,"Ġhide":12420,"Ġlakes":12421,"Ġwinners":12422,"Ear":12423,"Ä«":12424,"Ġbore":12425,"ĠGlou":12426,"Ġfo":12427,"Ġwhatever":12428,"Ġquoted":12429,"roduction":12430,"Ġrotation":12431,"Ġpeoples":12432,"ĠBeh":12433,"Ġvaries":12434,"Ġradius":12435,"trans":12436,"ĠAngelou":12437,"itars":12438,"ĠEnix":12439,"Ġprogressive":12440,"alymp":12441,"160":12442,"Ġmansion":12443,"ĠBour":12444,"ĠPel":12445,"Ġrook":12446,"Ġterminal":12447,"Ġ1886":12448,"Ġpreparations":12449,"Ġrevenge":12450,"ĠAncient":12451,"Ġonwards":12452,"Ġconced":12453,"Ġremake":12454,"Ġdecisive":12455,"Ġcontribute":12456,"has":12457,"Ġwrap":12458,"ĠNas":12459,"Ġdemographic":12460,"ĠParkway":12461,"ĠMonth":12462,"Ġextends":12463,"elin":12464,"Ġscout":12465,"Ġpresents":12466,"ĠOrd":12467,"Ġorganic":12468,"Ġtelesc":12469,"herent":12470,"Ġpseud":12471,"ĠMembers":12472,"Ġrecre":12473,"Ġparticipating":12474,"ĠMetac":12475,"Ġborough":12476,"ede":12477,"oub":12478,"Ġconvey":12479,"Ġindirect":12480,"official":12481,"Ġrebel":12482,"ĠHistorical":12483,"arthy":12484,"Ġkids":12485,"ashire":12486,"Ġsouthwestern":12487,"ĠMusical":12488,"ĠKel":12489,"Ġspots":12490,"ĠSciences":12491,"Ġimposed":12492,"ĠSolar":12493,"ĠDenver":12494,"Ġprospect":12495,"ĠGlasgow":12496,"Car":12497,"gary":12498,"ĠCox":12499,"ĠYard":12500,"Ġswing":12501,"Ġachievements":12502,"Ġinitiative":12503,"hell":12504,"olars":12505,"ĠBerm":12506,"ĠLeo":12507,"Ġlogo":12508,"Far":12509,"Ġchann":12510,"Ġoutcome":12511,"Ġbowled":12512,"Ġweakness":12513,"Ġinstructions":12514,"ĠNad":12515,"ĠRobin":12516,"ht":12517,"ĠLS":12518,"Ġministers":12519,"appa":12520,"Ġposter":12521,"Ġheavier":12522,"ĠOlivia":12523,"ĠPierre":12524,"Ġmad":12525,"Ġspell":12526,"Ġairborne":12527,"ĠCS":12528,"agic":12529,"Ġyd":12530,"ĠHeb":12531,"Ġdecay":12532,"ĠHerbert":12533,"alties":12534,"guard":12535,"ĠSmackDown":12536,"Ġintermediate":12537,"Ġtriumph":12538,"mitting":12539,"ironments":12540,"Ġproperly":12541,"ĠDerby":12542,"Ġdeposits":12543,"Br":12544,"emporary":12545,"ĠWatch":12546,"Ġcouldn":12547,"rews":12548,"Ġdarker":12549,"ĠNevada":12550,"Ġconsideration":12551,"IC":12552,"ele":12553,"Ġpenn":12554,"Ġpaying":12555,"ĠKaz":12556,"ĠâĻ":12557,"oints":12558,"ĠIsab":12559,"Ġtourists":12560,"Ġritual":12561,"inated":12562,"Ġcha":12563,"ĠHelen":12564,"Ġvegetation":12565,"ĠMercury":12566,"king":12567,"Ġtap":12568,"ĠDod":12569,"Ġcoaches":12570,"Ġdepiction":12571,"Ġtransmission":12572,"2012":12573,"Ġbreast":12574,"Ġ1884":12575,"Ġphysically":12576,"Ġmelod":12577,"ĠVenice":12578,"asia":12579,"Ġecho":12580,"ĠUnd":12581,"Ġunh":12582,"ĠMarl":12583,"atorial":12584,"Ġestimate":12585,"ĠMyster":12586,"Ġexercises":12587,"enberg":12588,"osc":12589,"ĠCarlos":12590,"ĠJulian":12591,"Ġ105":12592,"ĠParalymp":12593,"Ġlesser":12594,"Ġtaxon":12595,"Ġrevolutionary":12596,"Ġspite":12597,"Ġ350":12598,"ĠAlbany":12599,"Ġsubtropical":12600,"Ġautobiography":12601,"Ġencompass":12602,"ĠBorn":12603,"riages":12604,"Ġcontinental":12605,"Ġcritically":12606,"range":12607,"Ġborders":12608,"ĠAM":12609,"ĠOil":12610,"antastic":12611,"Ġenvironments":12612,"ĠCEO":12613,"olo":12614,"ĠRound":12615,"ĠNam":12616,"Ġquarters":12617,"Ġbrings":12618,"ĠIsles":12619,"ĠOttawa":12620,"Ġdelegates":12621,"Brien":12622,"arians":12623,"ĠJake":12624,"Ġhonors":12625,"Ġflower":12626,"ĠNASA":12627,"ĠJamaica":12628,"cock":12629,"Ġfru":12630,"Ġnortheastern":12631,"Ġwidth":12632,"Ġjournalists":12633,"Ġsailors":12634,"Ġdeliberately":12635,"ĠSoph":12636,"ĠRivers":12637,"ĠLamb":12638,"Ġachievement":12639,"ĠSalv":12640,"Ġpermanently":12641,"Ġwitnessed":12642,"Ġamphib":12643,"Ġmasc":12644,"ĠCond":12645,"ĠPoe":12646,"Ġisn":12647,"ĠKil":12648,"Ġperformers":12649,"Char":12650,"Ġassassination":12651,"ĠAlam":12652,"ĠComposition":12653,"heads":12654,"Ġpunishment":12655,"Ġupdated":12656,"Ġcosm":12657,"Ġharsh":12658,"Ġlib":12659,"ĠBes":12660,"ĠKid":12661,"iang":12662,"ĠSprings":12663,"Ġmoist":12664,"Ġdoctrine":12665,"ĠBarcelona":12666,"Ġmate":12667,"Ġhurt":12668,"ĠKill":12669,"Ġprince":12670,"Ġdispatched":12671,"ĠTu":12672,"Ġ125":12673,"Ġsummon":12674,"Ġtransformed":12675,"Ġorchestral":12676,",'":12677,"pit":12678,"ser":12679,"cht":12680,"usty":12681,"Ġdisabled":12682,"Ġmarg":12683,"Ġelectro":12684,"Ġbin":12685,"asi":12686,"ĠHubbard":12687,"Ġcontrad":12688,"ĠLancashire":12689,"stown":12690,"ĠNass":12691,"Ġreminis":12692,"Ġargue":12693,"Ġ1877":12694,"ĠRonald":12695,"Under":12696,"Ġinput":12697,"ĠPS":12698,"ĠChet":12699,"ĠOperations":12700,"Ġintegrated":12701,"Dr":12702,"ĠTas":12703,"ĠChurchill":12704,"110":12705,"isations":12706,"ĠSri":12707,"ĠFoster":12708,"ointing":12709,"Ġexamined":12710,"Ġvariable":12711,"Ġbelonged":12712,"Ġbelonging":12713,"Ġascend":12714,"ĠNathan":12715,"ijing":12716,"ĠPolitical":12717,"ĠCanyon":12718,"James":12719,"Ġpref":12720,"Ġmanaging":12721,"Ġeligible":12722,"Ġcomplement":12723,"mercial":12724,"ĠBulgarian":12725,"Ġarchaeological":12726,"Ġreluctant":12727,"Ġhypothesis":12728,"GB":12729,"Ġdock":12730,"Ġreh":12731,"ĠBased":12732,"ĠDaw":12733,"ĠEsc":12734,"ĠSteam":12735,"ĠMilan":12736,"ĠAdventure":12737,"Ġroutine":12738,"Jack":12739,"Pa":12740,"Tunes":12741,"Ġpreventing":12742,"eches":12743,"immer":12744,"Ġstaged":12745,"Ġunanim":12746,"Ġdamaging":12747,"Ġexecutives":12748,"ĠTintin":12749,"ĠCalgary":12750,"Ġswitched":12751,"Ġpsychiat":12752,"Ġdistinguish":12753,"ĠArena":12754,"armed":12755,"omys":12756,"Ġconfer":12757,"aston":12758,"Ġ1876":12759,"Ġunsuccessfully":12760,"Ġmunicipal":12761,"Ġgates":12762,"ĠRosen":12763,"Ġrounded":12764,"Ġhomosexual":12765,"ĠRichardson":12766,"Ġmechanics":12767,"uke":12768,"zig":12769,"odied":12770,"Ġactively":12771,"Ġepit":12772,"Ġeighteen":12773,"Ġdisputed":12774,"Ġcoaching":12775,"ĠBrah":12776,"Ġgentle":12777,"ĠGang":12778,"team":12779,"Ġfinest":12780,"Ġpossessed":12781,"ĠXI":12782,"ĠPercy":12783,"Ġobjectives":12784,"Ġprocedure":12785,"Ġphenomenon":12786,"Gu":12787,"Ġinternationally":12788,"Ġrevealing":12789,"Ġboyfriend":12790,"Ġphilosopher":12791,"Ġfrigate":12792,"ĠVerm":12793,"Ġformations":12794,"Ġdirections":12795,"RC":12796,"ĠMercedes":12797,"ĠConserv":12798,"kil":12799,"ĠMi":12800,"irk":12801,"opol":12802,"Ġseal":12803,"Ġenlar":12804,"rossing":12805,"Ġencourage":12806,"Ġexpectations":12807,"Ġlatest":12808,"ĠMak":12809,"Ġghost":12810,"Ġwhales":12811,"ĠWis":12812,"Ġ1830":12813,"Ġlandmark":12814,"Ġadvocated":12815,"Ġloose":12816,"ĠPokÃ©mon":12817,"Ġreop":12818,"Ġleagues":12819,"Ġlengths":12820,"Ġscientist":12821,"Ġpropaganda":12822,"ĠDelta":12823,"ĠWinn":12824,"istocr":12825,"Ġventure":12826,"inqu":12827,"ĠHus":12828,"ĠUnit":12829,"ampire":12830,"pring":12831,"ierra":12832,"Ġexploration":12833,"Ġdiscussing":12834,"Ġtribut":12835,"ĠMiddles":12836,"bach":12837,"Ġhoney":12838,"ĠCou":12839,"Ġpresidency":12840,"erness":12841,"ĠCommons":12842,"ĠGrove":12843,"ĠCaes":12844,"Ġaided":12845,"esh":12846,"angered":12847,"Ġoptim":12848,"Ġsearching":12849,"Ã¨re":12850,"ĠGothic":12851,"handed":12852,"waffe":12853,"ĠHerm":12854,"ĠEisen":12855,"Ġcomprising":12856,"Ġallied":12857,"ĠArc":12858,"ĠSeas":12859,"ĠNorthwest":12860,"Ġauton":12861,"Ġrequirement":12862,"Ġov":12863,"ĠSor":12864,"odium":12865,"ĠFilming":12866,"Ġgest":12867,"Ġshipped":12868,"arma":12869,"aptist":12870,"ĠCeltic":12871,"Ġmarsh":12872,"ums":12873,"Ġmetals":12874,"ĠMult":12875,"ĠMills":12876,"ĠWhere":12877,"Ġdesired":12878,"ĠExpl":12879,"Ġintroduce":12880,"ĠFerdin":12881,"ĠCircle":12882,"stable":12883,"Ġcontributing":12884,"alid":12885,"Ġgrid":12886,"Ġlistening":12887,"Ġcurved":12888,"Ġdependent":12889,"ĠPalestine":12890,"Ġcomprised":12891,"RO":12892,"length":12893,"Ġtasks":12894,"Ġtom":12895,"avil":12896,"ĠAny":12897,"Ġaccus":12898,"2001":12899,"Ġopinions":12900,"Ġabundant":12901,"sic":12902,"ittle":12903,"ĠFly":12904,"Ġintr":12905,"Ġspeculated":12906,"Ġestates":12907,"Ġtemples":12908,"Ġemerging":12909,"ĠAP":12910,"Ġliv":12911,"utely":12912,"nery":12913,"Ġblockade":12914,"Ġicon":12915,"Ġrefugees":12916,"Ġsubmerged":12917,"jud":12918,"Ġmilk":12919,"ĠWeather":12920,"Ġpayment":12921,"120":12922,"AD":12923,"nut":12924,"oni":12925,"Ġconvert":12926,"ĠBrid":12927,"Ġgenes":12928,"Ġceiling":12929,"ĠRodrig":12930,"Ġpoverty":12931,"Ġda":12932,"ilogy":12933,"iden":12934,"ĠDrake":12935,"Ġadjust":12936,"Ġmolecular":12937,"Ġimmigrants":12938,"Ġroot":12939,"Ġpartners":12940,"hentic":12941,"Ġundertook":12942,"ĠHenderson":12943,"Ġnavigation":12944,"ĠBlair":12945,"Ġguitars":12946,"ĠFloyd":12947,"ĠRaymond":12948,"Ġturbines":12949,"Ġmysterious":12950,"Ġstaying":12951,"ĠMarqu":12952,"Ġaveraged":12953,"Ġimproving":12954,"Ġhabitats":12955,"Ġresemble":12956,"oren":12957,"headed":12958,"Ġassociate":12959,"ĠRoche":12960,"Ġcubic":12961,"rehensive":12962,"Not":12963,"ĠSad":12964,"ĠIb":12965,"ountain":12966,"Ġfinance":12967,"ĠCarr":12968,"archy":12969,"Ġsilent":12970,"Ġconsistently":12971,"ĠHeadquarters":12972,"rection":12973,"ĠBud":12974,"ĠPack":12975,"unar":12976,"Ġrider":12977,"Ġenhanced":12978,"Ġassets":12979,"Ġexplored":12980,"Ġcomposers":12981,"stad":12982,"ĠChang":12983,"ĠRomanian":12984,"Ġcomplaints":12985,"ĠDuncan":12986,"Ġnaturally":12987,"ED":12988,"comb":12989,"elia":12990,"ĠExped":12991,"suing":12992,"ĠFilms":12993,"Ġnetworks":12994,"structed":12995,"Ġfragments":12996,"Ġoct":12997,"Ġdive":12998,"Ġcoastline":12999,"ĠAnat":13000,"marine":13001,"Ġpriority":13002,"ĠMillennium":13003,"iggins":13004,"Ġshaped":13005,"Ġensuing":13006,"ĠManuel":13007,"%)":13008,"Ãª":13009,"igo":13010,"Ġstair":13011,"Ġants":13012,"Ġcanon":13013,"Ġcentered":13014,"Ġgenera":13015,"Ġversus":13016,"Ġacceptance":13017,"otypes":13018,"ĠLeicester":13019,"Ġchannels":13020,"ĠPick":13021,"ographed":13022,"ĠGuadal":13023,"ĠTelegraph":13024,"Ġconsequences":13025,"icus":13026,"ĠJose":13027,"Ġsummar":13028,"Ġzero":13029,"Ġprivile":13030,"Ġfaction":13031,"Ġ1875":13032,"Ġphotos":13033,"ĠRif":13034,"bery":13035,"Ġsuffer":13036,"ĠRegion":13037,"boats":13038,"Out":13039,"Ġseeds":13040,"Ġreson":13041,"otto":13042,"Ġcameo":13043,"2002":13044,"ĠAub":13045,"Ġcarved":13046,"Ġcontempor":13047,"Ġtough":13048,"olith":13049,"issa":13050,"Ġconsensus":13051,"Ġincom":13052,"ĠColomb":13053,"Ġdissolved":13054,"ĠMasters":13055,"ĠVoy":13056,"ĠColin":13057,"ĠAdela":13058,"Ġhomeless":13059,"ĠPersonnel":13060,"ĠMetacritic":13061,"brown":13062,"rang":13063,"ulk":13064,"Ġsignals":13065,"eward":13066,"Ġunderwater":13067,"Ġsingers":13068,"bian":13069,"ĠRaid":13070,"ĠKin":13071,"ĠVic":13072,"Ġoutstanding":13073,"Ġdiscour":13074,"Ġeleph":13075,"Ġ1881":13076,"Ġsymbols":13077,"ĠiTunes":13078,"Ġreserves":13079,"Ġlemurs":13080,"Ġbench":13081,"Ġunveiled":13082,"Ġpercussion":13083,"Ġmbar":13084,"ĠNak":13085,"ĠBeijing":13086,"ĠDesert":13087,"Ġeruption":13088,"Ġcompromise":13089,"ĠMut":13090,"ĠPine":13091,"istence":13092,"Ġadequ":13093,"ĠComputer":13094,"ĠDeputy":13095,"ordinary":13096,"ĠSever":13097,"ovsky":13098,"Ġintact":13099,"Ġvariant":13100,"Ġ1883":13101,"Ġfears":13102,"Ġhaz":13103,"Ġplayable":13104,"Ġrelied":13105,"Ġdefenses":13106,"Ġcorruption":13107,"Ġqualities":13108,"Ġsurpassed":13109,"ĠDiamond":13110,"this":13111,"Ġrushed":13112,"Ġlandings":13113,"Ġinteractions":13114,"some":13115,"ĠCulture":13116,"offs":13117,"Ġlengthy":13118,"Ġbattlecruisers":13119,"Ġcrucial":13120,"ĠDudley":13121,"meter":13122,"Ġbars":13123,"Ġnice":13124,"ĠInsp":13125,"Ġ109":13126,"Ġspectators":13127,"Ġwhale":13128,"Ġrepublic":13129,"Ġeldest":13130,"ĠMega":13131,"ĠEmma":13132,"ĠTree":13133,"ĠOcc":13134,"Ġteachers":13135,"Ġdoctors":13136,"ĠLuftwaffe":13137,"ĠLuther":13138,"Ġmonster":13139,"auna":13140,"Ġimprov":13141,"Ġrational":13142,"antle":13143,"ĠFrances":13144,"Ġthreatening":13145,"Ġmystery":13146,"Every":13147,"Ġineff":13148,"ĠTalk":13149,"ĠTucker":13150,"Ġcomparing":13151,"assed":13152,"ĠMcN":13153,"aurus":13154,"Ġambassador":13155,"oline":13156,"Ġweighed":13157,"ĠDevil":13158,"Ġgrossed":13159,"Ġnervous":13160,"ĠCrawford":13161,"ogs":13162,"Ġcostumes":13163,"ĠBerg":13164,"Hungarian":13165,"Ġsib":13166,"igrated":13167,"ema":13168,"thlete":13169,"ĠVlad":13170,"Ġsongwriting":13171,"Ġamid":13172,"ĠTrinity":13173,"ĠAgric":13174,"monton":13175,"Ġemotions":13176,"Ġloyalty":13177,"Ġassessment":13178,"HA":13179,"atem":13180,"iti":13181,"ashing":13182,"Ġmanufactured":13183,"Ġhonorary":13184,"neath":13185,"ĠSeb":13186,"ĠFa":13187,"istance":13188,"Ġproclaimed":13189,"ĠFlames":13190,"Ġ1869":13191,"Ġprinting":13192,"ded":13193,"Ġtensions":13194,"Ġsear":13195,"ĠNewman":13196,"Ġrunner":13197,"Ġprocessing":13198,"Ġsymph":13199,"Ġkilog":13200,"ĠBermuda":13201,"fast":13202,"tra":13203,"Ġfabric":13204,"roximately":13205,"Ġinstructed":13206,"ĠCabinet":13207,"lov":13208,"Ġcave":13209,"ĠPly":13210,"Ġclip":13211,"Ġ1866":13212,"ĠSoviets":13213,"Ġbacteria":13214,"ĠDakota":13215,"Ġdealt":13216,"Ġinterf":13217,"Ġappealed":13218,"Ġdiseases":13219,"Ġinstrumentation":13220,"ĠCrystal":13221,"Ke":13222,"edar":13223,"ĠTol":13224,"ĠSee":13225,"Ġrocket":13226,"ĠChem":13227,"Ġessay":13228,"Ġawareness":13229,"Ġpatrols":13230,"ĠWolver":13231,"Ġhurricanes":13232,"ĠMail":13233,"iri":13234,"Ġrally":13235,"Ġdisappoint":13236,"Ġmillions":13237,"oriented":13238,"urse":13239,"odon":13240,"Ġaristocr":13241,"Ġtrips":13242,"Though":13243,"Ġcollecting":13244,"Ġbatsman":13245,"py":13246,"rez":13247,"ĠMile":13248,"ĠBody":13249,"Ġrevived":13250,"ĠAL":13251,"ĠFood":13252,"umping":13253,"Ġfraud":13254,"uits":13255,"Ġstom":13256,"endar":13257,"Ġrelating":13258,"ĠSpeed":13259,"ĠWatson":13260,"utonium":13261,"Ġowing":13262,"Ġhier":13263,"ĠFur":13264,"ĠLP":13265,"ologically":13266,"ĠTruman":13267,"Ġpsychological":13268,"Ġreferee":13269,"ĠPunk":13270,"ulu":13271,"Ġ04":13272,"Ġconsciousness":13273,"isch":13274,"Ġenrolled":13275,"omething":13276,"ĠPlanet":13277,"Ġallegations":13278,"ĠMethod":13279,"Ġflesh":13280,"Ġdeals":13281,"ĠClif":13282,"ĠBea":13283,"ĠMcCarthy":13284,"UC":13285,"ĠRBI":13286,"ĠKy":13287,"Ġintersections":13288,"Ġwishes":13289,"lend":13290,"ĠDj":13291,"ĠFun":13292,"raid":13293,"Ġwoods":13294,"ĠStandard":13295,"ĠExpedition":13296,"Ġproxim":13297,"Ġrepet":13298,"ĠEuro":13299,"Ġinvolve":13300,"ĠAngle":13301,"May":13302,"ĠHass":13303,"ichi":13304,"Ġmanages":13305,"Ġsubordin":13306,"Ġposthum":13307,"Ġexhibited":13308,"Ġetc":13309,"Ġquantities":13310,"Ġoverwhelming":13311,"Ġdisliked":13312,"Ġchlor":13313,"ormal":13314,"Ġjaw":13315,"Ġreader":13316,"rolling":13317,"ĠGibson":13318,"mass":13319,"asaki":13320,"ripp":13321,"Ġsheet":13322,"Ġadds":13323,"ĠMonroe":13324,"Ġvocalist":13325,"ĠVeronica":13326,"Ġlifted":13327,"Ġmathematics":13328,"Ġtelev":13329,"ancock":13330,"ĠMcD":13331,"King":13332,"may":13333,"nam":13334,"rah":13335,"Ġovercome":13336,"Ġsubd":13337,"ĠPlat":13338,"Ġjoins":13339,"Ġharbor":13340,"ĠWellington":13341,"ĠProfessional":13342,"Let":13343,"ĠMull":13344,"keley":13345,"Ġharvest":13346,"Ġchapters":13347,"Ġproceeds":13348,"Ġgoddess":13349,"ĠSyl":13350,"Ġclan":13351,"Ġmetall":13352,"ĠSurrey":13353,"produced":13354,"ĠChes":13355,"Ġcultures":13356,"built":13357,"ĠAdelaide":13358,"OR":13359,"wig":13360,"Ġphosph":13361,"Ġinsufficient":13362,"Ġslower":13363,"Ġdeclaration":13364,"Japan":13365,"Ġexpense":13366,"Ġ104":13367,"clusive":13368,"ĠEssex":13369,"occup":13370,"Ġsyndrome":13371,"Ġmushroom":13372,"MD":13373,"ĠWant":13374,"Ġspores":13375,"ĠAlt":13376,"Ġstrings":13377,"mitt":13378,"Ġwidow":13379,"ĠWoods":13380,"kinson":13381,"urers":13382,"ĠâĢ²":13383,"opsis":13384,"Ġsupporter":13385,"2013":13386,"1990":13387,"Ġmachinery":13388,"Ġpanels":13389,"agons":13390,"Ġassign":13391,"Ġcounsel":13392,"Ġinterviewed":13393,"Ġathletic":13394,"Ġgallery":13395,"graduate":13396,"ainted":13397,"anto":13398,"ĠMadrid":13399,"ĠTimber":13400,"Ġlocomotive":13401,"Ġhorizontal":13402,"ĠFather":13403,"ĠLis":13404,"blem":13405,"Ġimported":13406,"Ġcommentators":13407,"ĠMachine":13408,"ĠShelley":13409,"urop":13410,"oned":13411,"arre":13412,"ĠChoice":13413,"ikh":13414,"ĠButler":13415,"ĠEllen":13416,"Ġmistake":13417,"ĠInside":13418,"Ġ1871":13419,"Ġ1867":13420,"Ġthickness":13421,"athetic":13422,"Ġgam":13423,"otilla":13424,"Ġrepaired":13425,"ĠCloud":13426,"Ġcustody":13427,"Ġmolecules":13428,"ĠGonz":13429,"NY":13430,"stration":13431,"ĠPent":13432,"apa":13433,"ĠShan":13434,"Ġfights":13435,"ĠUrban":13436,"Ġcircles":13437,"Ġproximity":13438,"Paul":13439,"Rober":13440,"ĠCe":13441,"ĠEC":13442,"Ġplum":13443,"Ġtradem":13444,"ĠMalay":13445,"Ġgraphic":13446,"ÏĤ":13447,"urbs":13448,"ĠEagle":13449,"Ġshaft":13450,"Ġpolitically":13451,"Ġ1882":13452,"ĠAguil":13453,"ĠBosnia":13454,"south":13455,"ĠFischer":13456,"Ġanthem":13457,"ĠChuck":13458,"Ġabst":13459,"ĠLtd":13460,"Ġincl":13461,"Ġstabil":13462,"Ġresur":13463,"Ġcurves":13464,"Ġtactical":13465,"good":13466,"press":13467,"xide":13468,"Ġion":13469,"ĠTotal":13470,"ĠBass":13471,"Ġunaware":13472,"tegr":13473,"Ġsuccessive":13474,"ĠÃī":13475,"Ġshopping":13476,"ĠPublishing":13477,"Ġredesign":13478,"itects":13479,"Ġhunt":13480,"imir":13481,"osity":13482,"Ġanx":13483,"aceous":13484,"ebe":13485,"dimensional":13486,"Ġcro":13487,"Ġmigration":13488,"ĠAguilera":13489,"olves":13490,"Ġsharing":13491,"Ġinterference":13492,"ĠSex":13493,"Ġundergo":13494,"elfth":13495,"Ġrifle":13496,"iary":13497,"ĠUB":13498,"ĠNewport":13499,"Ġengaging":13500,"Ġtermed":13501,"ungle":13502,"Ġacquire":13503,"Meanwhile":13504,"ĠZero":13505,"Ġseparately":13506,"Ġdiscussions":13507,"ĠPhillips":13508,"eria":13509,"chess":13510,"Three":13511,"Ġbitter":13512,"Ġfloors":13513,"Ġlinear":13514,"zac":13515,"Ġol":13516,"Ġlane":13517,"umar":13518,"Ġtransit":13519,"ĠTrav":13520,"Ġcurrency":13521,"ĠFerdinand":13522,"haul":13523,"Ġduck":13524,"ĠBrew":13525,"Ġbankrupt":13526,"ci":13527,"Ġfrog":13528,"anche":13529,"ĠRange":13530,"Ġ1873":13531,"Ġmemories":13532,"Ġcontested":13533,"ĠEngineering":13534,"Ġmaneuver":13535,"Î½":13536,"Ġaviation":13537,"ĠMk":13538,"Ġallocated":13539,"Ġ101":13540,"Ġscrapped":13541,"Born":13542,"Saxon":13543,"atri":13544,"Ġbol":13545,"ĠRPG":13546,"ĠKem":13547,"ĠComple":13548,"Ġmodest":13549,"Ġmissile":13550,"Ġlip":13551,"shi":13552,"Ġfarms":13553,"ĠAdmiralty":13554,"sim":13555,"Ġreef":13556,"ĠHil":13557,"Ġ1878":13558,"ĠRomans":13559,"ĠRenaissance":13560,"ĠMeyer":13561,"istle":13562,"ĠSelena":13563,"Ġenormous":13564,"Ġhatch":13565,"ĠCut":13566,"ĠHeath":13567,"Ġworker":13568,"Ġadvances":13569,"Ġtwentieth":13570,"Ġrulers":13571,"ĠNobel":13572,"Ġnomine":13573,"CD":13574,"Ġpuzz":13575,"ĠRiley":13576,"insp":13577,"Ġcontinent":13578,"Ġstrange":13579,"Ġnorthwestern":13580,"Ġdamages":13581,"ĠVienna":13582,"houses":13583,"ĠTasman":13584,"nan":13585,"Ġbeer":13586,"Ġ900":13587,"ĠMovement":13588,"ĠLauren":13589,"ĠAviation":13590,"Ġgaming":13591,"Ġdemanding":13592,"ĠTherefore":13593,"Ġphotographer":13594,"Ġpreliminary":13595,"ĠHond":13596,"ĠSpit":13597,"Ġhalted":13598,"foundland":13599,"Ġcylind":13600,"ĠFlorence":13601,"look":13602,"Ġbills":13603,"Ġmail":13604,"ĠAlpha":13605,"Ġinterrupted":13606,"Ġhorsepower":13607,"Ġdemonstrate":13608,"Ġinstallation":13609,"ĠArkansas":13610,"dan":13611,"ĠPsych":13612,"ĠWool":13613,"ĠLeigh":13614,"Ġbrut":13615,"onnell":13616,"Ġeditorial":13617,"AP":13618,"Ġgolf":13619,"hang":13620,"atha":13621,"Ġsongwriter":13622,"Ġgran":13623,"Ġreminiscent":13624,"Ġweld":13625,"Ġwashed":13626,"ĠPorts":13627,"Ġuprising":13628,"erving":13629,"ĠAbraham":13630,"breaking":13631,"ĠChandler":13632,"Ġdiscontinued":13633,"ĠSpencer":13634,"Ġafford":13635,"ĠBelie":13636,"Ġneighbouring":13637,"ĠBengal":13638,"Ġregained":13639,"ramid":13640,"Ġscreening":13641,"180":13642,"Ġ1872":13643,"Ġfluid":13644,"ĠOtto":13645,"Ġfare":13646,"These":13647,"oths":13648,"ugu":13649,"Ġdisputes":13650,"ĠDaniels":13651,"rav":13652,"ĠBuch":13653,"ĠHom":13654,"ĠRNA":13655,"ĠAdrian":13656,"cycl":13657,"Ġcomparable":13658,"ĠMLB":13659,"Ġtherapy":13660,"ĠFellow":13661,"ĠKerr":13662,"Ġtourism":13663,"Ġultimate":13664,"Ġfluor":13665,"Ġsubsidi":13666,"Ġabsolute":13667,"ĠBaldwin":13668,"\":":13669,"ĠMick":13670,"Ġally":13671,"ĠVolt":13672,"ĠPerth":13673,"ĠRomania":13674,"AM":13675,"Rad":13676,"Ġunrest":13677,"Ġpublish":13678,"ĠIdol":13679,"ĠGameSpot":13680,"Early":13681,"Ġ\"'":13682,"opal":13683,"Ġzones":13684,"ĠTurks":13685,"inguished":13686,"birds":13687,"fin":13688,"chief":13689,"ĠWald":13690,"Ġcaptivity":13691,"Ġcease":13692,"Ġmassacre":13693,"Ġintelligent":13694,"Per":13695,"ĠGenesis":13696,"Ġinstruction":13697,"Ġknowing":13698,"ĠEllis":13699,"ĠFergus":13700,"bet":13701,"nal":13702,"Ð°":13703,"ĠBarrett":13704,"Ġprojected":13705,"ĠNorse":13706,"Ġmasses":13707,"Ġaccomplish":13708,"isphere":13709,"lew":13710,"Ġ03":13711,"lessly":13712,"Ġdiscipline":13713,"ĠPlymouth":13714,"Ġcraf":13715,"Ġpaved":13716,"ĠNewfoundland":13717,"Ġlessons":13718,"ĠBurger":13719,"ĠKnights":13720,"Ġdeployment":13721,"Ġdelegation":13722,"Ġsew":13723,"ĠHat":13724,"ĠStories":13725,"iast":13726,"uns":13727,"abet":13728,"Ġtrick":13729,"Ġprivately":13730,"Ġvolcano":13731,"ĠCircuit":13732,"yers":13733,"ervers":13734,"Ġstroke":13735,"ĠChase":13736,"Ġquit":13737,"Ġcorridor":13738,"ĠSenators":13739,"ĠAaron":13740,"otus":13741,"ĠBeginning":13742,"Ġdelays":13743,"Ġregardless":13744,"ĠKepler":13745,"Ġloaded":13746,"achelor":13747,"ĠPreston":13748,"nor":13749,"rates":13750,"ĠHancock":13751,"ĠFlanders":13752,"inae":13753,"Ġsporting":13754,"pur":13755,"ectors":13756,"Ġsuburb":13757,"Ġbusy":13758,"player":13759,"Ġdescendants":13760,"Ġibn":13761,"Ġfinger":13762,"ĠMounted":13763,"Ġanger":13764,"Ġopenly":13765,"elligence":13766,"Ġfatalities":13767,"ĠLancaster":13768,"ĠBot":13769,"ĠBreak":13770,"Ġbuff":13771,"ĠMcDonald":13772,"ĠStore":13773,"Ġchess":13774,"ĠCurtis":13775,"Ġmim":13776,"Ġconting":13777,"achi":13778,"ĠBlake":13779,"Ġprotecting":13780,"Ġplanes":13781,"ĠCapitol":13782,"Ġcontracted":13783,"Ġsensitive":13784,"ĠMarx":13785,"Ġgenerals":13786,"ĠHenri":13787,"Ġnecessarily":13788,"ĠErn":13789,"Ġcoalition":13790,"zi":13791,"ĠCu":13792,"Ġnests":13793,"ĠHum":13794,"ocene":13795,"Ġdeclaring":13796,"elic":13797,"Ġraw":13798,"Ġteammates":13799,"ĠFlood":13800,"ficial":13801,"ĠCapital":13802,"Ġrapper":13803,"ĠGarc":13804,"ĠGeoffrey":13805,"Due":13806,"Prior":13807,"Ã£o":13808,"Ġperf":13809,"Ġeject":13810,"ĠHous":13811,"avour":13812,"ĠJen":13813,"opular":13814,"Ġoutdoor":13815,"ĠLeban":13816,"Ġediting":13817,"ĠOrthodox":13818,"Ġcollision":13819,"lies":13820,"eli":13821,"Ġproud":13822,"Ġshops":13823,"Throughout":13824,"ĠSax":13825,"Ġlava":13826,"ĠBent":13827,"Ġgains":13828,"Ġgamb":13829,"ĠStage":13830,"Ġfarming":13831,"ĠAdventures":13832,"tailed":13833,"isans":13834,"ilia":13835,"ĠBarn":13836,"Ġseemingly":13837,"ĠMaxwell":13838,"Ġdescended":13839,"Ġcooperation":13840,"Both":13841,"ML":13842,"adian":13843,"ĠMobile":13844,"Ġunemploy":13845,"Ġdisgu":13846,"Ġrealizes":13847,"Ġsymmet":13848,"ĠElectronic":13849,"ĠHerman":13850,"ĠScreen":13851,"ĠMotor":13852,"ĠMarcus":13853,"Between":13854,"fold":13855,"Ġmembr":13856,"entric":13857,"orman":13858,"ĠAllmusic":13859,"Ġhonours":13860,"Ġ1868":13861,"yright":13862,"1999":13863,"Ġironcl":13864,"ĠPrison":13865,"ĠReading":13866,"Ġgrain":13867,"Ġstorylines":13868,"orge":13869,"ĠKub":13870,"ovo":13871,"ĠReyn":13872,"elfare":13873,"ĠEdmonton":13874,"Ġtrophy":13875,"ĠGhost":13876,"Ġdecomp":13877,"Ġcreates":13878,"Ġdeveloper":13879,"Ġkitchen":13880,"Ġoperator":13881,"Ġsixty":13882,"Ġfindings":13883,"ĠSkinner":13884,"ĠArchae":13885,"Short":13886,"ĠFemale":13887,"Co":13888,"ayette":13889,"ĠWrest":13890,"Ġdeeper":13891,"Ġeliminate":13892,"Ġprohibited":13893,"Ġdawn":13894,"Ġgenerate":13895,"ĠEsp":13896,"Ġoperas":13897,"letcher":13898,"Ġrecognize":13899,"holm":13900,"Ġcabin":13901,"ĠProductions":13902,"GS":13903,"ding":13904,"zo":13905,"ĠCrom":13906,"ĠWings":13907,"ĠKens":13908,"Ġlicensed":13909,"Ġpregnancy":13910,"Ġgathering":13911,"Ġaggregate":13912,"ĠRams":13913,"Ġedges":13914,"ĠPlaza":13915,"ĠCommissioner":13916,"ĠFormer":13917,"Ġcitizen":13918,"Ġmerchants":13919,"ĠMotion":13920,"Ġsurfaces":13921,"Ġconjunction":13922,"lay":13923,"Ġauction":13924,"Ġgreet":13925,"Ġgauge":13926,"ĠThom":13927,"legiate":13928,"Ġproceedings":13929,"Ġsurprising":13930,"Ġnicknamed":13931,"irs":13932,"ĠHamb":13933,"quarter":13934,"ibl":13935,"Ġminim":13936,"Ġkeen":13937,"Ġdisappear":13938,"ĠRelations":13939,"ĠLogan":13940,"Ġregist":13941,"Ġscenario":13942,"horn":13943,"hurst":13944,"Ġlux":13945,"ĠLie":13946,"Ġjoke":13947,"Ġambit":13948,"ophical":13949,"ĠMetal":13950,"Ġacquisition":13951,"Part":13952,"istically":13953,"Ġdecomm":13954,"Ġrestaurants":13955,"Ġruins":13956,"ĠCurrent":13957,"ĠGy":13958,"ĠParachute":13959,"Ġstruggling":13960,"Ġadaptations":13961,"brook":13962,"ĠHait":13963,"Ġopted":13964,"imensions":13965,"Ġatmospheric":13966,"Ġsteady":13967,"ĠNashville":13968,"Day":13969,"anan":13970,"anti":13971,"Ġgrants":13972,"Ġcream":13973,"arms":13974,"ĠSurv":13975,"ĠProtection":13976,"ĠSierra":13977,"ĠBron":13978,"ĠKes":13979,"Ġmotorway":13980,"pounder":13981,"Ġadministered":13982,"Ġchances":13983,"Do":13984,"ĠSr":13985,"Ġfreed":13986,"ĠPanama":13987,"Ġstreams":13988,"Ġoak":13989,"ĠOnline":13990,"speed":13991,"Ġprogression":13992,"Ġpackage":13993,"Ġmutual":13994,"Ġlobby":13995,"Ġnineteenth":13996,"Ġreversed":13997,"taining":13998,"Ġtrigg":13999,"Ġdraws":14000,"Ġfatal":14001,"Ġfestivals":14002,"drop":14003,"uine":14004,"ĠMang":14005,"Ġexperts":14006,"ĠMinogue":14007,"ĠKoreans":14008,"Ġstrengthen":14009,"ĠBuddhist":14010,"Ġveterans":14011,"Ġcaution":14012,"ĠBrigadier":14013,"rozen":14014,"Ġinvented":14015,"ĠTrue":14016,"Ġpostpon":14017,"ĠPalmer":14018,"ĠArchitect":14019,"Ġtunnels":14020,"ĠDevon":14021,"Ġdug":14022,"Ġclay":14023,"ĠUsher":14024,"speaking":14025,"cap":14026,"Ġtennis":14027,"ushes":14028,"ĠKer":14029,"Ġperpet":14030,"ĠSpy":14031,"World":14032,"Ġroller":14033,"Ġsketch":14034,"gs":14035,"Å¾":14036,"ivic":14037,"ĠOw":14038,"ikes":14039,"uchi":14040,"Ġmodes":14041,"Ġspeeches":14042,"Ġdemonstration":14043,"Ġincorporates":14044,"ĠIndustrial":14045,"bours":14046,"Ġdors":14047,"olades":14048,"ovich":14049,"ĠManning":14050,"ĠCombat":14051,"ĠËĪ":14052,"Ġmuzzle":14053,"Ġtopic":14054,"Ġerosion":14055,"ĠMoz":14056,"Ġfloods":14057,"Ġriff":14058,"Ġlifestyle":14059,"Ġworried":14060,"Ġjumping":14061,"ĠHeaven":14062,"Ġsubstance":14063,"ipping":14064,"ĠTall":14065,"Ġplutonium":14066,"ĠGran":14067,"ĠÂµ":14068,"Ġdelight":14069,"Ġnights":14070,"ĠSuz":14071,"ĠCool":14072,"Ġshar":14073,"Ġsecular":14074,"Ġsubsc":14075,"Ġparam":14076,"ĠResident":14077,"ymn":14078,"ĠArmenia":14079,"Ġtum":14080,"Ġhiding":14081,"antom":14082,"ĠCarn":14083,"ĠSenior":14084,"Ġfunctional":14085,"Ġincomplete":14086,"pre":14087,"ĠBast":14088,"ĠWa":14089,"asting":14090,"Ġreserved":14091,"ĠConsequently":14092,"Ġmodifications":14093,"ĠFormula":14094,"Ġsufficiently":14095,"Ġaf":14096,"Ġpine":14097,"ĠTask":14098,"Ġnam":14099,"Ġoverth":14100,"Ġamendment":14101,"ĠGuatem":14102,"uxili":14103,"ĠStrong":14104,"ĠUsing":14105,"Ġprosecut":14106,"Ġpedest":14107,"Ġfir":14108,"Ġhur":14109,"adows":14110,"ĠPale":14111,"ĠJunction":14112,"Ġresort":14113,"Ġassessed":14114,"Ġtransc":14115,"Ġflee":14116,"Ġauthentic":14117,"Ġdynamic":14118,"Ġcentres":14119,"Ġinternet":14120,"Ġputs":14121,"Ġerrors":14122,"Ġallegedly":14123,"ĠLynch":14124,"raine":14125,"wy":14126,"ĠDrama":14127,"ĠLaf":14128,"rowing":14129,"ĠCharacter":14130,"Ġcalm":14131,"ĠMaxim":14132,"Ġcameras":14133,"sby":14134,"ĠNav":14135,"Ġprinc":14136,"Ġsoap":14137,"Ġinvestigated":14138,"Ġambitious":14139,"woman":14140,"ilian":14141,"imid":14142,"ĠEy":14143,"ĠOri":14144,"Ġsubtle":14145,"Ġimpress":14146,"ĠNotable":14147,"Ġhamlet":14148,"âĢľ":14149,"Ġsupplement":14150,"RT":14151,"Ġstance":14152,"Ġsecuring":14153,"ĠAllMusic":14154,"ĠPowell":14155,"bird":14156,"isle":14157,"Ġconsent":14158,"Ġupgrade":14159,"Aust":14160,"dict":14161,"ĠSuff":14162,
[...]
